{"##cratic": 17510, "margin": 7785, "dunedin": 22020, "##vb": 26493, "aftermath": 10530, "asking": 4851, "##dim": 22172, "scrapped": 14553, "probation": 19703, "stipulated": 25729, "remy": 22712, "stu": 24646, "computational": 15078, "starbucks": 29500, "##cam": 28727, "whichever": 29221, "##elman": 23830, "context": 6123, "parties": 4243, "warfare": 8309, "control": 2491, "reprint": 25364, "bitch": 7743, "hahn": 24266, "backstage": 20212, "savannah": 10891, "costs": 5366, "america": 2637, "italiana": 28059, "joke": 8257, "crush": 10188, "dodge": 11898, "federal": 2976, "sorority": 27600, "trapping": 22977, "##gh": 5603, "##hara": 11077, "parliamentary": 5768, "[unused442]": 447, "##phic": 17926, "stewart": 5954, "inquisition": 24638, "coordinates": 12093, "##ᄀ": 29991, "1638": 27497, "situ": 26179, "degraded": 26131, "coordinated": 14206, "scooped": 20804, "2500": 25108, "include": 2421, "1817": 12529, "mathematician": 13235, "dying": 5996, "gymnastics": 14002, "[unused244]": 249, "aus": 17151, "variously": 17611, "pakistan": 4501, "intervening": 26623, "peaking": 13015, "teenage": 9454, "coupling": 19780, "growled": 8881, "##aw": 10376, "consequently": 8821, "noun": 15156, "breakup": 19010, "sumo": 28193, "##mouth": 14359, "##∗": 30125, "194": 19955, "hopping": 26397, "blooms": 29037, "##tford": 26341, "ri": 15544, "tasha": 25448, "moses": 9952, "preach": 25250, "output": 6434, "humphrey": 15462, "call": 2655, "ה": 1245, "subspecies": 11056, "python": 18750, "##yna": 18279, "heaving": 23907, "##eka": 19025, "[unused608]": 613, "flip": 11238, "verde": 16184, "protestants": 19592, "eurovision": 12714, "sunken": 23470, "airlift": 20019, "contrasts": 23347, "representatives": 4505, "byu": 23471, "inadvertently": 21089, "##ria": 4360, "undertaking": 18457, "riot": 11421, "1761": 21364, "##jad": 27875, "temps": 29023, "##ricted": 20623, "nano": 28991, "##ogan": 21131, "cortex": 17132, "##ก": 29945, "[unused785]": 790, "honda": 11990, "lump": 15116, "regatta": 26848, "##ᵥ": 30045, "1970s": 3955, "dub": 12931, "respectable": 19416, "jackson": 4027, "propulsion": 16404, "resented": 27188, "however": 2174, "cardiac": 15050, "horizons": 24484, "dreamer": 24726, "drip": 27304, "lots": 7167, "reports": 4311, "[unused446]": 451, "infiltrate": 29543, "##日": 30390, "amherst": 19850, "requested": 7303, "ය": 1404, "alpha": 6541, "benfica": 26542, "##kyu": 23076, "anya": 21728, "##way": 4576, "disrupt": 23217, "幸": 1841, "##eli": 20806, "principality": 18018, "##nus": 10182, "searching": 6575, "capt": 14408, "[unused308]": 313, "appearance": 3311, "magdalena": 23984, "discarded": 15105, "##rrado": 27933, "##cut": 12690, "thread": 11689, "lange": 21395, "giggled": 15889, "whimpered": 26184, "continents": 17846, "excluding": 13343, "foundry": 19853, "weakness": 11251, "334": 29562, "restraints": 28054, "navajo": 22440, "signs": 5751, "collaborators": 21315, "celeste": 21113, "potent": 16834, "henderson": 9481, "width": 9381, "##atal": 27815, "vila": 23840, "coordinate": 13530, "islander": 12544, "wheeled": 17320, "appearances": 3922, "breathless": 16701, "conspiracy": 9714, "denmark": 5842, "hal": 11085, "estonia": 10692, "ק": 1264, "padma": 23731, "[unused421]": 426, "federico": 20493, "paragraph": 20423, "investigates": 28062, "##runa": 26605, "ف": 1291, "tornado": 11352, "acids": 12737, "shay": 18789, "tailor": 22701, "е": 1185, "modify": 19933, "roses": 10529, "##ent": 4765, "15th": 6286, "brett": 12049, "phil": 6316, "sam": 3520, "##ophone": 25232, "1791": 14362, "nikita": 29106, "symmetrical": 23476, "foods": 9440, "dylan": 7758, "logical": 11177, "whirled": 17097, "##claim": 25154, "combinations": 14930, "clicking": 22042, "equation": 8522, "坂": 1803, "minh": 19538, "weston": 12755, "##cote": 19800, "##森": 30408, "commentaries": 21241, "hapoel": 24208, "promoter": 15543, "[unused365]": 370, "oversaw": 14105, "briefly": 4780, "clue": 9789, "glanced": 3887, "[unused489]": 494, "onward": 15834, "pregnancy": 10032, "[unused651]": 656, "portugal": 5978, "##eye": 17683, "archaeology": 12009, "##bant": 29604, "tad": 18819, "decker": 20946, "fanny": 17813, "trolley": 20820, "##ttle": 26328, "##∞": 30128, "##鈴": 30491, "lucinda": 28261, "delicious": 12090, "starr": 14330, "inaugurated": 11070, "中": 1746, "8th": 5893, "analyzing": 20253, "downloaded": 22817, "clit": 17962, "##arm": 27292, "deeper": 6748, "elongated": 17876, "shape": 4338, "paradox": 20506, "mongols": 22235, "cages": 27157, "cleaner": 20133, "separating": 14443, "economy": 4610, "dwell": 23120, "indictment": 24265, "geological": 9843, "hold": 2907, "detainees": 26485, "jose": 4560, "courtroom": 20747, "espionage": 21003, "classroom": 9823, "rewards": 19054, "goddess": 7804, "reverted": 16407, "truman": 15237, "restriction": 16840, "convened": 19596, "description": 6412, "nut": 17490, "stumble": 21811, "##fers": 24396, "##lellan": 25839, "...": 2133, "##70": 19841, "pollution": 10796, "spans": 14798, "redding": 26687, "crouched": 14275, "##tsk": 29064, "186": 19609, "1834": 10700, "darling": 9548, "ん": 1691, "hailed": 16586, "holder": 9111, "##ひ": 30199, "89": 6486, "perfectly": 6669, "hid": 11041, "custody": 9968, "##®": 29656, "##ₒ": 30091, "than": 2084, "governing": 8677, "improving": 9229, "##sner": 20479, "[unused87]": 88, "advocated": 11886, "costly": 17047, "parry": 20803, "thorpe": 20249, "discus": 26047, "wade": 10653, "evans": 6473, "combine": 11506, "sudanese": 25603, "persona": 16115, "reconciliation": 16088, "jagger": 25827, "jacob": 6213, "##岡": 30358, "[unused29]": 30, "seas": 11915, "##cia": 7405, "##ily": 6588, "dent": 21418, "researched": 18800, "babies": 10834, "raaf": 22709, "computer": 3274, "jonah": 15617, "oldest": 4587, "canon": 9330, "floats": 24885, "nat": 14085, "[unused216]": 221, "antilles": 27695, "organisations": 8593, "neutron": 20393, "ra": 10958, "nile": 15179, "fire": 2543, "thatcher": 21127, "exhibited": 8176, "stokes": 18716, "piracy": 24386, "##ings": 8613, "##tura": 27431, "guineas": 22385, "##yen": 20684, "preserves": 18536, "masterpiece": 17743, "fifties": 25942, "shrubs": 18812, "vicente": 17280, "##25": 17788, "##agne": 25440, "caliph": 22733, "550": 13274, "##int": 18447, "serum": 20194, "tq": 28816, "##psis": 18409, "faction": 10233, "texans": 23246, "planning": 4041, "1810": 11786, "towels": 24213, "##dance": 25514, "##南": 30311, "[unused235]": 240, "batman": 8942, "■": 1617, "chet": 25157, "##pc": 15042, "detroit": 5626, "citizen": 6926, "masonry": 18103, "haute": 18535, "hooked": 13322, "##য": 29907, "nutrient": 26780, "##lini": 22153, "##57": 28311, "1895": 6301, "##via": 9035, "screams": 11652, "split": 3975, "minas": 21750, "##sser": 18116, "experiences": 6322, "humorous": 14742, "sho": 26822, "braves": 13980, "essays": 8927, "bit": 2978, "brilliance": 28850, "overturned": 17068, "abandon": 10824, "##nder": 11563, "baroque": 10456, "projectile": 25921, "##ing": 2075, "although": 2348, "glue": 25238, "provoked": 19157, "sic": 14387, "##olf": 28027, "bukit": 29007, "padre": 28612, "##mma": 14760, "bowled": 19831, "false": 6270, "##aer": 27867, "partly": 6576, "wagons": 14525, "admiral": 5902, "1950s": 4856, "gasping": 17054, "essen": 29032, "kc": 21117, "specifically": 4919, "[unused586]": 591, "##lu": 7630, "storyline": 9994, "classified": 6219, "tighten": 21245, "benz": 17770, "loosen": 29476, "1802": 13515, "##olin": 18861, "preparing": 8225, "9": 1023, "nellie": 25365, "outta": 24955, "##kura": 28260, "mph": 5601, "gently": 5251, "[unused783]": 788, "carr": 12385, "reaper": 19559, "##idae": 6096, "wax": 13844, "##ade": 9648, "excel": 24970, "kite": 20497, "1640": 21533, "shovel": 24596, "oblast": 10379, "##64": 21084, "rio": 5673, "ik": 20912, "bounce": 17523, "##⅔": 30110, "believers": 20373, "catholic": 3234, "litres": 25783, "playground": 14705, "romantic": 6298, "wise": 7968, "lavender": 20920, "scottish": 4104, "kolkata": 13522, "##pods": 22925, "odd": 5976, "hanging": 5689, "inability": 13720, "smiley": 27420, "##cule": 21225, "pa": 6643, "##月": 30398, "obligatory": 26471, "##uti": 21823, "[unused286]": 291, "taxonomy": 25274, "songwriting": 14029, "klaus": 16536, "utilization": 27891, "ahmedabad": 27249, "yao": 23711, "deaths": 6677, "balfour": 27560, "[unused771]": 776, "connor": 6720, "mirrored": 22243, "monarchy": 12078, "##oa": 10441, "shortage": 15843, "townland": 23635, "coleman": 11608, "1832": 10212, "##gc": 18195, "precedent": 20056, "countless": 14518, "##chal": 18598, "reconnaissance": 8967, "lizards": 23898, "lover": 7089, "skinner": 17451, "##ellant": 24178, "withdrawing": 21779, "264": 21611, "listeners": 13810, "pride": 6620, "nipple": 14298, "aquitaine": 24973, "##dder": 20791, "receiver": 8393, "barber": 13362, "steamship": 23869, "successors": 18530, "##die": 10265, "amadeus": 27185, "initiating": 26616, "lot": 2843, "subjected": 13532, "mcbride": 18958, "sacred": 6730, "kobe": 24113, "hired": 5086, "circle": 4418, "locals": 10575, "males": 3767, "robinson": 6157, "fred": 5965, "arm": 2849, "indian": 2796, "slovenian": 16583, "lad": 14804, "nouveau": 25272, "captured": 4110, "awkward": 9596, "stunts": 28465, "distributors": 22495, "##sr": 21338, "##ducted": 29510, "vista": 13005, "claimed": 3555, "jet": 6892, "fraction": 12884, "sue": 9790, "fuzzy": 18001, "##ame": 14074, "arabian": 13771, "hopeless": 20625, "effort": 3947, "##urized": 28405, "safeguard": 28805, "puzzle": 11989, "wrath": 14532, "stan": 9761, "diamond": 6323, "[unused411]": 416, "mechanisms": 10595, "teachings": 12209, "rubbed": 7503, "mcqueen": 29265, "##zia": 12871, "hana": 26048, "statewide": 13486, "say": 2360, "##↦": 30116, "comprising": 9605, "bergman": 24544, "tractor": 16358, "alfredo": 19423, "##abad": 10542, "##zie": 14272, "grinned": 6973, "1778": 16331, "1925": 4849, "tristan": 9822, "##sboro": 25623, "trooper": 28224, "playable": 16854, "##pic": 24330, "brake": 13428, "##vant": 18941, "balls": 7395, "condition": 4650, "halted": 12705, "##cytes": 27321, "##avia": 15164, "sweeping": 12720, "##su": 6342, "unesco": 12239, "points": 2685, "editors": 10195, "necks": 26082, "marches": 20691, "invaded": 10836, "demos": 18267, "visitation": 28877, "jagged": 18187, "dwellings": 16707, "vulcan": 25993, "proprietor": 21584, "##jure": 25243, "[unused21]": 22, "harlem": 14864, "##dek": 24463, "bothered": 11250, "sharpened": 26694, "[unused502]": 507, "brightness": 18295, "smash": 15132, "tarzan": 24566, "after": 2044, "[unused298]": 303, "companies": 3316, "labour": 4428, "##oning": 13369, "bbc": 4035, "coordination": 12016, "##aus": 20559, "rowing": 12037, "##hammer": 19742, "weeds": 20777, "[unused512]": 517, "adjutant": 20690, "##zar": 9057, "lighter": 9442, "inclusive": 18678, "affected": 5360, "##sti": 16643, "cocoa": 22940, "spirits": 8633, "[unused250]": 255, "##rized": 18425, "cozy": 26931, "disappointing": 15640, "roach": 20997, "1957": 3890, "piers": 16067, "scream": 6978, "oliver": 6291, "pandit": 29331, "waterford": 17769, "mohamed": 14467, "treasure": 8813, "[unused233]": 238, "##oles": 29111, "profits": 11372, "sheltered": 18304, "blanche": 18158, "nailed": 26304, "##liness": 20942, "mourning": 16236, "pharmaceutical": 13859, "shin": 12277, "nilsson": 29376, "##tsa": 27110, "##フ": 30246, "##nging": 22373, "withstand": 19319, "attitude": 7729, "[unused644]": 649, "zaragoza": 25744, "[unused910]": 915, "##aba": 19736, "120": 6036, "putin": 22072, "け": 1654, "trait": 18275, "soloists": 27516, "railways": 7111, "delgado": 26532, "activities": 3450, "finished": 2736, "fat": 6638, "questions": 3980, "reader": 8068, "nationality": 10662, "##iom": 18994, "topics": 7832, "##西": 30473, "[unused1]": 2, "marries": 19941, "quarters": 7728, "elliptical": 27213, "anger": 4963, "decent": 11519, "##rde": 25547, "reforms": 8818, "heel": 12073, "##ter": 3334, "grasses": 21620, "concert": 4164, "attache": 29489, "guiding": 14669, "satellite": 5871, "illinois": 4307, "##jima": 19417, "maneuver": 17519, "curl": 15390, "paralyzed": 22348, "rees": 22131, "conner": 17639, "director": 2472, "##schaft": 26527, "activity": 4023, "greatest": 4602, "fashioned": 13405, "##emi": 23238, "greeted": 11188, "documentary": 4516, "outstretched": 21059, "expanded": 4423, "laos": 15786, "ratio": 6463, "mateo": 19327, "##olic": 23518, "2": 1016, "abundance": 14531, "burgess": 17754, "nemesis": 21363, "jaws": 16113, "##chers": 21844, "[unused175]": 180, "[unused262]": 267, "showered": 23973, "international": 2248, "##com": 9006, "coincided": 18616, "ymca": 26866, "circular": 8206, "guides": 12468, "##atus": 15590, "phase": 4403, "flow": 4834, "##minating": 27932, "accelerated": 14613, "glen": 8904, "1805": 13126, "##amy": 24079, "##chen": 8661, "##平": 30365, "1849": 9037, "hunters": 9624, "need": 2342, "stylistic": 24828, "felipe": 17095, "berwick": 24957, "jai": 17410, "upset": 6314, "dutton": 28784, "portray": 17279, "##ы": 29113, "##sville": 9337, "[unused43]": 44, "assassinate": 25683, "jumps": 14523, "rustic": 27471, "preferring": 21393, "shamrock": 28782, "mccann": 28641, "promo": 19430, "##under": 20824, "##cellular": 16882, "diseases": 7870, "legacy": 8027, "unions": 9209, "separately": 10329, "##nated": 23854, "117": 12567, "tracts": 22069, "##খ": 29890, "replies": 14054, "##tr": 16344, "methyl": 25003, "semantic": 21641, "##ant": 4630, "[unused821]": 826, "206": 18744, "poisonous": 22641, "1814": 10977, "dt": 26718, "##odies": 27391, "php": 25718, "##ch": 2818, "headlining": 26533, "barely": 4510, "decrease": 9885, "crafts": 14030, "reviewing": 15252, "tiger": 6816, "encompasses": 13974, "potassium": 18044, "divine": 7746, "peyton": 17931, "morphological": 24012, "պ": 1233, "fury": 8111, "hurrying": 27951, "hacker": 23307, "dwellers": 28857, "population": 2313, "##ि": 29877, "workout": 27090, "bryant": 12471, "##rne": 12119, "shirts": 11344, "baptised": 28798, "##ium": 5007, "fey": 23864, "bestseller": 24304, "sponge": 25742, "administratively": 23710, "[unused240]": 245, "1016": 28707, "##zhi": 19436, "alice": 5650, "burt": 18611, "##tated": 16238, "impairment": 25172, "ip": 12997, "replace": 5672, "##dine": 10672, "##sse": 11393, "approve": 14300, "##erman": 18689, "eight": 2809, "transformers": 19081, "prosperity": 14165, "criticized": 6367, "nixon": 11296, "2001": 2541, "automobiles": 19207, "tall": 4206, "##fight": 20450, "handles": 16024, "##ied": 6340, "##vent": 15338, "lip": 5423, "photon": 26383, "hudson": 6842, "mtv": 8692, "looming": 23430, "chicks": 20649, "##iel": 9257, "ineffective": 20694, "mei": 19734, "randy": 9744, "fund": 4636, "du": 4241, "calculations": 16268, "country": 2406, "era": 3690, "natalie": 10829, "bid": 7226, "nero": 19212, "ᅧ": 1474, "landfill": 28382, "composite": 12490, "calming": 23674, "calmed": 20869, "##ators": 18926, "lear": 26511, "vowels": 15260, "##ango": 23422, "quintet": 18109, "cad": 28353, "precursor": 14988, "spectators": 12405, "1724": 26423, "mit": 10210, "needing": 11303, "scholar": 6288, "decision": 3247, "##oed": 29099, "780": 28601, "assessed": 14155, "boil": 26077, "demanded": 6303, "listings": 26213, "##ays": 22916, "soothing": 16684, "appropriations": 22713, "kill": 3102, "avoidance": 24685, "##ets": 8454, "electrification": 23679, "proceed": 10838, "bribe": 26470, "dave": 4913, "##ented": 14088, "exposing": 14944, "##cultural": 29415, "unsuccessful": 7736, "accountant": 17907, "karma": 19902, "baggage": 20220, "##breaker": 21204, "##ˢ": 29717, "furlongs": 26602, "merits": 22617, "om": 18168, "fitch": 26062, "magnificent": 12047, "spoken": 5287, "arch": 7905, "mentoring": 29192, "teach": 6570, "##;": 29628, "[unused500]": 505, "kenneth": 8856, "secretariat": 15128, "##power": 11452, "plot": 5436, "##kk": 19658, "bug": 11829, "asylum": 11386, "tentacles": 24719, "##bots": 27014, "crises": 25332, "rosie": 15820, "##tight": 26143, "sergeant": 6722, "displacement": 13508, "maddy": 20789, "welcome": 6160, "[unused67]": 68, "bancroft": 29351, "ii": 2462, "knights": 7307, "bursting": 21305, "asia": 4021, "fish": 3869, "fx": 23292, "ara": 19027, "fresh": 4840, "lending": 18435, "sanitary": 25480, "textures": 29343, "partnered": 12404, "result": 2765, "adequately": 23613, "aegean": 27198, "dungeons": 20264, "efficiency": 8122, "tuesday": 9857, "alleging": 23294, "##ᵐ": 30038, "emerging": 8361, "snowy": 20981, "melancholy": 22247, "[unused732]": 737, "honours": 8762, "##rgh": 27172, "darrell": 23158, "me": 2033, "##দ": 29900, "3rd": 3822, "brick": 5318, "tattooed": 26464, "stockholm": 8947, "socially": 14286, "frowns": 29303, "freshmen": 26612, "coop": 21859, "salary": 10300, "[unused861]": 866, "##cise": 18380, "metropolis": 18236, "peacefully": 21614, "[unused755]": 760, "##ᄏ": 30002, "permit": 9146, "patient": 5776, "143": 16065, "##xon": 22500, "pun": 26136, "240": 11212, "barnes": 9957, "appointments": 14651, "drowning": 14759, "imagery": 13425, "##у": 29748, "vegetation": 10072, "ம": 1389, "directing": 9855, "##eak": 25508, "cartel": 21680, "llc": 11775, "pentagon": 20864, "56": 5179, "##yas": 16303, "strolled": 20354, "charts": 6093, "39": 4464, "##lizer": 28863, "anthropology": 12795, "jolly": 22193, "##ger": 4590, "dockyard": 24874, "visual": 5107, "barangay": 20937, "mbc": 27262, "discoveries": 15636, "interfaces": 19706, "waving": 12015, "風": 1977, "italia": 13052, "participants": 6818, "manage": 6133, "implied": 13339, "##genic": 16505, "sang": 6369, "cameroon": 13841, "a1": 17350, "hasn": 8440, "plucked": 20780, "capsule": 18269, "##ose": 9232, "##xton": 14226, "##phate": 24556, "chairperson": 19072, "##37": 24434, "2019": 10476, "rolled": 4565, "films": 3152, "##ffin": 15379, "explicitly": 12045, "sheng": 25981, "shoot": 5607, "##iah": 12215, "fairness": 26935, "1680": 24621, "ث": 1274, "grimsby": 24470, "www": 7479, "morphology": 19476, "departure": 6712, "ci": 25022, "deepest": 17578, "nephew": 7833, "segregation": 18771, "ross": 5811, "dealers": 16743, "##ony": 16585, "##bilities": 14680, "##lings": 11227, "##ɯ": 29688, "breathed": 8726, "##utation": 26117, "uncertain": 9662, "godfather": 23834, "alyssa": 26442, "shone": 14707, "##ooping": 29046, "mental": 5177, "uk": 2866, "league": 2223, "##ately": 28239, "barrio": 25676, "##⁸": 30077, "aw": 22091, "skyla": 21738, "analysts": 18288, "negotiations": 7776, "##mc": 12458, "insurgency": 23939, "adventure": 6172, "chuckled": 10252, "##phi": 21850, "##eem": 21564, "##rika": 23778, "##15": 16068, "fleetwood": 23866, "nitrate": 29607, "techno": 21416, "colored": 6910, "alarms": 29034, "##43": 23777, "pau": 29025, "bucharest": 14261, "akira": 21616, "mastering": 11495, "vocals": 2955, "material": 3430, "daughters": 5727, "dummy": 24369, "privateer": 26790, "shouts": 15701, "##tner": 18885, "break": 3338, "thorough": 16030, "wo": 24185, "capitalism": 16498, "plump": 26731, "1954": 4051, "rhythmic": 14797, "tier": 7563, "coast": 3023, "expeditionary": 15372, "sob": 17540, "gone": 2908, "rings": 7635, "∆": 1594, "hamburger": 24575, "perkins": 13601, "sh": 14021, "tenants": 14665, "headmaster": 16296, "##inda": 23938, "dependence": 18642, "flowering": 10902, "49ers": 18156, "iranian": 7726, "nfl": 5088, "premio": 23031, "##git": 23806, "root": 7117, "##orted": 15613, "comeback": 12845, "describes": 5577, "elites": 27021, "oyster": 21480, "##bies": 20536, "despite": 2750, "obviously": 5525, "authorization": 20104, "kid": 4845, "pauline": 15595, "faa": 17032, "idle": 18373, "##tto": 9284, "ray": 4097, "unstable": 14480, "blackmail": 25044, "fiji": 11464, "##ivate": 21466, "hiking": 13039, "onion": 20949, "##masters": 27751, "vanishing": 24866, "military": 2510, "likeness": 28275, "rook": 28620, "##nant": 16885, "longer": 2936, "skirmish": 27264, "19": 2539, "##hh": 23644, "appoint": 16823, "inspired": 4427, "goalscorer": 28602, "burnett": 13829, "equations": 11380, "parasite": 21198, "measured": 7594, "teammates": 13220, "gettysburg": 22577, "boxer": 10423, "speedy": 26203, "apparent": 6835, "apartments": 9620, "archive": 8756, "engines": 5209, "rao": 10546, "afraid": 4452, "shakes": 10854, "muscular": 13472, "lille": 22479, "commentators": 15957, "flawed": 25077, "admired": 12749, "hackney": 28425, "app": 10439, "impetus": 27961, "range": 2846, "##bana": 19445, "architects": 8160, "1964": 3546, "##bina": 21114, "carroll": 10767, "devastating": 14886, "uncover": 26944, "##inking": 29377, "cretaceous": 18122, "##gical": 26715, "clipped": 20144, "demolished": 7002, "erased": 23516, "forever": 5091, "undertook": 12543, "indicated": 5393, "refugees": 8711, "fortune": 7280, "christians": 8135, "lobbied": 26421, "peaceful": 9379, "resume": 13746, "tonight": 3892, "upwards": 14873, "”": 1524, "navigate": 22149, "18": 2324, "bucks": 14189, "livestock": 11468, "embryo": 28086, "##oit": 28100, "##ades": 18673, "confess": 18766, "refrigerator": 18097, "##physics": 15638, "tapping": 15135, "guido": 20239, "offences": 18421, "begging": 12858, "committing": 16873, "##rka": 22379, "erase": 22505, "visually": 17453, "homer": 11525, "cyril": 16049, "leaped": 16900, "surf": 14175, "tariffs": 26269, "wiltshire": 17045, "##maker": 8571, "antiques": 27763, "藤": 1944, "##ril": 15928, "jenks": 15119, "doorstep": 26581, "##hmi": 26837, "justices": 19867, "##and": 5685, "xu": 15990, "[unused858]": 863, "bury": 11010, "1935": 4437, "phi": 13569, "reveal": 7487, "##sea": 17310, "widows": 24835, "explodes": 27583, "basement": 8102, "opposed": 4941, "pioneers": 13200, "##rians": 23543, "hills": 4564, "peabody": 20004, "##gano": 29451, "giggle": 17565, "servant": 7947, "reflection": 9185, "[unused839]": 844, "##ates": 8520, "都": 1961, "##sport": 20205, "1821": 11723, "semester": 13609, "bohemia": 16799, "##כ": 29798, "junction": 5098, "seminar": 18014, "autopsy": 24534, "1651": 29077, "changing": 5278, "[unused918]": 923, "amp": 23713, "signatures": 16442, "valleys": 12467, "##time": 7292, "mosque": 8806, "##nberg": 11144, "##ন": 29902, "freed": 10650, "loyalty": 9721, "##bians": 26376, "##lace": 19217, "329": 29567, "bloomberg": 22950, "motors": 9693, "93": 6109, "fontana": 27182, "religions": 11822, "depictions": 20818, "transfer": 4651, "paxton": 27765, "foreign": 3097, "##eville": 21187, "##tism": 17456, "curves": 10543, "copy": 6100, "arrest": 6545, "civilian": 6831, "stop": 2644, "1764": 21488, "justification": 19777, "kuala": 15490, "##ᵀ": 30031, "collaborate": 20880, "[unused615]": 620, "confronted": 12892, "cover": 3104, "knotted": 27039, "##pet": 22327, "shrinking": 28375, "moths": 14885, "##ntial": 19909, "enables": 12939, "improve": 5335, "nationwide": 9053, "shotgun": 13305, "aura": 15240, "guggenheim": 20402, "convergence": 19143, "portico": 23104, "frequent": 6976, "facilitates": 27777, "##uddin": 17375, "afro": 17694, "cascade": 16690, "caribbean": 7139, "reluctant": 11542, "opened": 2441, "congressman": 12295, "ᅥ": 1472, "venom": 15779, "[unused381]": 386, "platinum": 8899, "##lde": 17920, "readily": 12192, "blur": 14819, "sheriff": 6458, "cong": 26478, "genealogy": 26684, "chong": 24008, "medalist": 12968, "##uchi": 15217, "portuguese": 5077, "browser": 16602, "gate": 4796, "overlapping": 20567, "##writing": 18560, "##☆": 30148, "گ": 1305, "almond": 26011, "##while": 19927, "kala": 26209, "##vu": 19722, "##lp": 14277, "geometridae": 24687, "upton": 26900, "felony": 24648, "pyrenees": 22696, "[unused829]": 834, "objectives": 11100, "oils": 20631, "य": 1332, "[unused943]": 948, "magistrate": 14351, "redistribution": 25707, "[unused80]": 81, "abandonment": 22290, "##nni": 23500, "follower": 22399, "implemented": 7528, "doctor": 3460, "grotesque": 27707, "sometime": 8811, "glamorgan": 23861, "##jal": 25787, "1729": 28449, "##ła": 22972, "centrally": 25497, "conservation": 5680, "nylon": 27201, "sermons": 20855, "stanford": 8422, "[unused916]": 921, "[unused532]": 537, "##erate": 22139, "borough": 5538, "ar": 12098, "##pe": 5051, "crowe": 25657, "comet": 15699, "[unused891]": 896, "##anda": 13832, "[unused371]": 376, "exit": 6164, "jogging": 28233, "##ous": 3560, "issuing": 15089, "holmes": 9106, "impulse": 14982, "estranged": 24211, "hop": 6154, "pods": 26723, "shaft": 9093, "carter": 5708, "strangers": 12358, "立": 1931, "া": 1378, "001": 25604, "##oss": 15094, "beverly": 12218, "charlie": 4918, "lucrative": 21115, "rochdale": 26109, "##cus": 7874, "races": 3837, "rooster": 27681, "burlington": 15552, "##´": 29658, "isis": 18301, "disposed": 21866, "thrilling": 26162, "##hered": 27190, "##oid": 9314, "guardian": 6697, "peering": 16740, "dealt": 9411, "grinding": 16153, "##ati": 10450, "digest": 17886, "##neas": 26737, "outfielder": 21033, "1956": 3838, "scriptures": 22481, "credibility": 21553, "stalks": 29594, "##新": 30388, "knowing": 4209, "##athan": 29246, "monica": 9018, "sickness": 15556, "##−": 22543, "##otic": 20214, "divinity": 16968, "##chison": 27795, "hunted": 14682, "defunct": 11984, "shang": 29382, "z": 1062, "##ples": 21112, "deco": 21933, "michigan": 4174, "clone": 17598, "囗": 1797, "[unused174]": 179, "bean": 14068, "footsteps": 9717, "##hs": 7898, "accreditation": 14893, "bahrain": 15195, "berman": 29482, "titanic": 20753, "[unused73]": 74, "##ර": 29941, "hide": 5342, "##fan": 15143, "325": 19652, "programmer": 20273, "dawn": 6440, "working": 2551, "continuous": 7142, "outfit": 11018, "##skie": 23955, "travels": 7930, "guitarists": 28523, "wexford": 23121, "##昭": 30394, "existed": 5839, "storytelling": 20957, "sensitivity": 14639, "1850": 7973, "ali": 4862, "hymn": 14825, "stephen": 4459, "aimed": 6461, "instituto": 22596, "northward": 17192, "progresses": 22901, "showtime": 23811, "[unused506]": 511, "packages": 14555, "##mt": 20492, "##忠": 30378, "up": 2039, "shoe": 10818, "tray": 11851, "##rwood": 20941, "##dation": 20207, "2009": 2268, "##cing": 6129, "tending": 25069, "cade": 18615, "dem": 17183, "medici": 22605, "benoit": 21721, "gripped": 9672, "##ury": 13098, "##∆": 30122, "motorsport": 21044, "⟩": 1630, "cinematographer": 19245, "again": 2153, "fir": 21554, "ideal": 7812, "rohan": 28605, "##tch": 10649, "greenberg": 24190, "putnam": 20230, "##lberg": 22927, "provides": 3640, "charleston": 10907, "fence": 8638, "grief": 9940, "inevitable": 13418, "reopened": 11882, "test": 3231, "hearted": 18627, "beans": 13435, "fungus": 16622, "intimately": 29024, "governance": 10615, "joker": 19318, "valencia": 13083, "petrol": 17141, "little": 2210, "sat": 2938, "boost": 12992, "lengthy": 12401, "barrington": 26469, "##fs": 10343, "།": 1425, "gathered": 5935, "attitudes": 13818, "enoch": 28178, "agents": 6074, "paved": 12308, "seated": 8901, "recess": 28290, "waitress": 13877, "more": 2062, "cole": 5624, "middlesbrough": 21655, "nipples": 28124, "deteriorated": 20111, "غ": 1289, "lineage": 13321, "whitney": 9809, "william": 2520, "##berg": 4059, "cologne": 10918, "ich": 22564, "##uta": 13210, "rushing": 8375, "84": 6391, "barrie": 24953, "coloring": 22276, "##jiang": 21786, "forum": 7057, "insurgents": 20541, "mundane": 24684, "##bble": 11362, "##tale": 22059, "capped": 13880, "comrade": 27661, "##福": 30452, "##ages": 13923, "coliseum": 18338, "warwick": 13283, "##5": 2629, "renegade": 28463, "houston": 5395, "sporting": 7419, "widened": 8723, "snap": 10245, "ɾ": 1126, "##sol": 19454, "cochin": 28982, "diablo": 28841, "glazed": 19724, "benjamin": 6425, "ascended": 19644, "##grade": 24170, "##ส": 29956, "[unused150]": 155, "wavelength": 19934, "##aly": 20766, "pri": 26927, "intrinsic": 23807, "profession": 9518, "disagreement": 18185, "gears": 19456, "concluding": 16228, "avoids": 26777, "jonathan": 5655, "##ₙ": 19110, "mounting": 15986, "##imate": 21499, "[unused503]": 508, "complied": 26946, "dawson": 11026, "raid": 8118, "think": 2228, "ն": 1231, "[unused885]": 890, "defined": 4225, "courtney": 14139, "walked": 2939, "##itation": 18557, "honored": 8686, "##ale": 9453, "德": 1848, "shudder": 18261, "alumni": 9441, "permanently": 8642, "qu": 24209, "creditors": 23112, "payroll": 26854, "removal": 8208, "elegance": 27745, "incentives": 21134, "suitcase": 15940, "reflex": 22259, "##rled": 27501, "evident": 10358, "adrenaline": 14963, "frey": 20068, "wimbledon": 13411, "##hia": 12995, "fisheries": 13424, "applicant": 23761, "regretted": 18991, "##よ": 30210, "##gal": 9692, "householder": 7536, "tsunami": 19267, "fairy": 8867, "##jit": 18902, "##,": 29623, "million": 2454, "cheyenne": 17778, "[unused773]": 778, "jewelry": 11912, "##ela": 10581, "clapping": 27104, "clarity": 15563, "mayhem": 26865, "seed": 6534, "sim": 21934, "##hol": 14854, "sable": 23492, "honour": 6225, "regulation": 7816, "immediate": 6234, "axial": 26819, "adorned": 19189, "onions": 24444, "psycho": 18224, "scribe": 27789, "postmaster": 20707, "ulrich": 19619, "guy": 3124, "butt": 10007, "##ouring": 27897, "ferocious": 27863, "asteroids": 26732, "pearson": 12874, "mace": 19382, "diner": 15736, "##rret": 27032, "references": 7604, "archbishop": 6507, "opportunities": 6695, "put": 2404, "denied": 6380, "produced": 2550, "eat": 4521, "chi": 9610, "base": 2918, "noses": 27518, "redesignated": 11836, "resign": 12897, "##uno": 27819, "proportion": 10817, "illuminated": 14640, "fucked": 21746, "repay": 24565, "tirana": 24631, "tuba": 29242, "##icing": 23553, "hoarse": 21221, "buddy": 8937, "montevideo": 22460, "variable": 8023, "##itated": 15198, "sought": 4912, "david": 2585, "louder": 10989, "##ining": 24002, "contract": 3206, "marijuana": 16204, "recorded": 2680, "latino": 7402, "logos": 25571, "aarhus": 29173, "##rith": 24292, "commissioned": 4837, "modelled": 23364, "threaded": 26583, "tumors": 21434, "goethe": 23173, "lair": 21039, "memphis": 9774, "##宀": 30344, "province": 2874, "malta": 9933, "cholera": 25916, "pens": 25636, "pursuit": 8463, "silhouette": 21776, "flint": 13493, "ioc": 25941, "[unused62]": 63, "kathy": 14986, "pest": 20739, "beasts": 15109, "croatian": 7963, "##case": 18382, "elect": 11322, "hell": 3109, "lift": 6336, "sweep": 11740, "##abi": 28518, "awarding": 21467, "baptism": 18336, "[unused594]": 599, "archeological": 23005, "por": 18499, "variation": 8386, "concerned": 4986, "representative": 4387, "equality": 9945, "organizing": 10863, "##venting": 26703, "shallow": 8467, "／": 1992, "[unused187]": 192, "##herton": 27949, "sewage": 19873, "sensors": 13907, "lukas": 23739, "##mbit": 28878, "##fy": 12031, "11th": 6252, "[unused54]": 55, "##bial": 21102, "blogger": 28205, "cha": 15775, "tower": 3578, "deformation": 29130, "gamma": 13091, "panzer": 16946, "耳": 1937, "parameters": 11709, "damascus": 16094, "botanic": 27761, "glasses": 7877, "guru": 11972, "manchu": 26650, "roads": 4925, "streamlined": 29445, "translating": 22969, "usual": 5156, "anchor": 8133, "drawing": 5059, "wholly": 12590, "##lva": 22144, "twenties": 18946, "##rter": 19418, "este": 28517, "##ense": 16700, "マ": 1723, "##ivating": 17441, "designated": 4351, "##flies": 24019, "joan": 7437, "74": 6356, "explains": 7607, "[unused781]": 786, "anarchist": 18448, "##nami": 28987, "guided": 8546, "##anna": 25789, "lumpur": 17761, "cylindrical": 18797, "officers": 3738, "outrage": 19006, "blunt": 14969, "sao": 7509, "##ة": 19433, "alarmed": 19260, "luckily": 15798, "coat": 5435, "γ": 1157, "money": 2769, "1690": 24765, "##reen": 28029, "ink": 10710, "multi": 4800, "##erland": 22492, "lifting": 8783, "auburn": 12704, "nedra": 28240, "orlando": 10108, "elaborated": 25187, "rush": 5481, "cottages": 18918, "librarian": 13850, "sachs": 22818, "1632": 28216, "baptiste": 17329, "okinawa": 15052, "√": 1600, "[unused183]": 188, "##dget": 24291, "fallout": 23902, "devlin": 24389, "sabha": 11200, "weary": 16040, "colours": 8604, "##bella": 21700, "jax": 13118, "sources": 4216, "hurling": 10839, "rye": 20926, "monsoon": 19183, "##cles": 18954, "##rov": 12298, "alloys": 28655, "cemeteries": 20973, "plays": 3248, "straining": 21366, "soul": 3969, "minimal": 10124, "skiing": 12701, "##thic": 23048, "troop": 10123, "siblings": 9504, "canyon": 8399, "101": 7886, "[unused541]": 546, "##ncy": 9407, "romani": 23982, "investing": 19920, "##rington": 17281, "mouth": 2677, "solidarity": 14657, "startup": 22752, "tread": 29449, "##ali": 11475, "soaring": 23990, "340": 16029, "hermes": 24127, "obscured": 23649, "nightingale": 21771, "aragon": 16146, "‒": 1515, "1560": 29185, "allegations": 9989, "cock": 10338, "caspian": 25893, "##oud": 19224, "195": 17317, "enzo": 26218, "velocity": 10146, "embrace": 9979, "ducked": 13781, "lazarus": 23623, "430": 19540, "620": 23612, "ok": 7929, "sketch": 11080, "mail": 5653, "switzerland": 5288, "##hai": 10932, "swirling": 16499, "##bino": 21891, "instructors": 19922, "socialist": 6102, "effectiveness": 12353, "juice": 10869, "booklet": 19271, "cooking": 8434, "vicious": 13925, "##थ": 29860, "gaulle": 28724, "pena": 19409, "560": 21267, "quota": 20563, "500": 3156, "##her": 5886, "[unused138]": 143, "citations": 22921, "##†": 30061, "kamen": 22099, "miserable": 13736, "strange": 4326, "writers": 4898, "ツ": 1712, "somehow": 5064, "##ك": 29835, "civil": 2942, "民": 1892, "##春": 30393, "does": 2515, "ӏ": 1218, "holy": 4151, "ratios": 21879, "##jer": 20009, "stroking": 14943, "reappeared": 23040, "##る": 30213, "participating": 8019, "prepares": 20776, "subunit": 24312, "suez": 21974, "baths": 19692, "sousa": 28535, "resorts": 16511, "##ve": 3726, "stumbled": 9845, "vertigo": 28246, "perth": 9300, "dyed": 28432, "beacon": 14400, "##mberg": 29084, "bottle": 5835, "ecole": 12431, "##rked": 19849, "famously": 18172, "eisenhower": 16551, "covering": 5266, "documentaries": 15693, "unity": 8499, "##cco": 21408, "suck": 11891, "##ading": 23782, "medial": 23828, "##gnant": 27881, "bjorn": 24998, "##puri": 24661, "fernando": 9158, "royalties": 25335, "##น": 29949, "wash": 9378, "personalities": 12857, "10th": 6049, "atlantic": 4448, "##b": 2497, "completely": 3294, "heavy": 3082, "starters": 29400, "pep": 27233, "waterway": 23668, "armenia": 10110, "2002": 2526, "[unused203]": 208, "disruption": 20461, "##vian": 18073, "biography": 8308, "downhill": 19448, "parapet": 27372, "milwaukee": 9184, "namely": 8419, "socket": 22278, "crane": 11308, "[unused496]": 501, "thorns": 28408, "##ously": 13453, "arise": 13368, "dishes": 10447, "##dion": 29573, "satan": 16795, "blessings": 24618, "##rra": 11335, "arts": 2840, "##not": 17048, "##vel": 15985, "dipping": 23427, "disability": 11980, "ɒ": 1111, "julien": 19290, "become": 2468, "rescuing": 23659, "charley": 20430, "assembly": 3320, "nassau": 14646, "spelling": 11379, "penis": 19085, "##boot": 27927, "affiliate": 8727, "raised": 2992, "1883": 7257, "polly": 17543, "scalp": 21065, "dorsal": 12759, "##hesive": 21579, "##glass": 15621, "174": 19492, "##amps": 25167, "waited": 4741, "offenses": 25173, "originates": 16896, "dolphins": 13600, "searches": 17193, "stanisław": 26133, "tab": 21628, "crowd": 4306, "千": 1784, "##・": 30264, "##ively": 14547, "##grin": 24860, "veracruz": 23741, "adopting": 16151, "argyle": 26503, "caravan": 17184, "hampson": 21780, "wadi": 28380, "parental": 18643, "stripe": 18247, "##xa": 18684, "##ometric": 28993, "robbers": 28019, "throbbed": 27714, "wine": 4511, "reveals": 7657, "drained": 11055, "fabrics": 25123, "nail": 13774, "##arians": 28369, "nonprofit": 14495, "tributary": 8914, "nicolas": 9473, "##gis": 17701, "autumn": 7114, "miles": 2661, "extinction": 14446, "josef": 12947, "johannesburg": 15976, "remake": 12661, "malabar": 28785, "doctrines": 23252, "##iled": 18450, "[unused510]": 515, "ந": 1386, "feminine": 12320, "mercenaries": 19331, "wasn": 2347, "manson": 21440, "benefits": 6666, "##ð": 29668, "deceased": 10181, "gary": 5639, "##otide": 26601, "descriptive": 22726, "##cable": 21170, "##ou": 7140, "[unused261]": 266, "affordable": 15184, "decorations": 14529, "buildings": 3121, "mecklenburg": 22007, "horned": 26808, "##mpt": 27718, "strained": 12250, "cheese": 8808, "chieftain": 26625, "submerged": 13563, "##zza": 20715, "##cken": 19766, "##ˈ": 29715, "competition": 2971, "safety": 3808, "stuffed": 11812, "transportation": 5193, "##metric": 12589, "soundtracks": 24245, "stealing": 11065, "shops": 7340, "tennessee": 5298, "throw": 5466, "alejandro": 16810, "metabolism": 18089, "neurons": 15698, "##rage": 24449, "scared": 6015, "robb": 26211, "warner": 6654, "zoological": 26168, "finer": 26954, "##estinal": 19126, "bicycle": 10165, "u2": 23343, "##vier": 14356, "packaged": 21972, "##rank": 26763, "##lish": 13602, "##elle": 14774, "brandy": 17951, "smells": 14747, "bromley": 27979, "commotion": 23960, "catholicism": 16138, "daemon": 12828, "macleod": 23075, "կ": 1227, "##uo": 19098, "insight": 12369, "##⁵": 30074, "lenny": 19065, "monks": 9978, "arose": 10375, "atrocities": 23482, "kn": 14161, "summon": 18654, "steamboat": 24897, "emptied": 21764, "keys": 6309, "[unused689]": 694, "##ini": 5498, "р": 1195, "##uld": 21285, "mina": 19808, "capcom": 26861, "[unused593]": 598, "chiang": 17684, "structure": 3252, "adding": 5815, "prostitute": 19215, "##kovich": 28195, "draped": 15098, "ivory": 11554, "##oko": 16366, "immigrated": 17352, "papal": 12156, "[unused769]": 774, "maha": 24404, "##cos": 13186, "entrusted": 18011, "darlington": 19667, "[unused626]": 631, "newsweek": 26948, "dominated": 6817, "expensive": 6450, "##ayan": 25868, "cushions": 27205, "##rino": 17815, "##thal": 24090, "teammate": 10809, "##duced": 28901, "##正": 30414, "appetite": 18923, "##graphy": 12565, "আ": 1348, "gaul": 26522, "schneider": 15159, "##dick": 24066, "##ters": 7747, "##krishna": 23017, "stat": 28093, "flute": 8928, "directions": 7826, "museum": 2688, "##chment": 22729, "narrative": 7984, "outgoing": 22011, "options": 7047, "channel": 3149, "commodore": 12957, "finance": 5446, "grenada": 29153, "cleansing": 26799, "faux": 29276, "訁": 1949, "1689": 22685, "33": 3943, "helicopters": 12400, "persia": 16667, "ನ": 1400, "airplay": 15341, "exercise": 6912, "dubai": 11558, "contradiction": 26917, "strike": 4894, "##ives": 24653, "liza": 20503, "##jin": 14642, "owed": 12232, "bud": 13007, "reproduce": 21376, "places": 3182, "announced": 2623, "data": 2951, "chiefs": 9058, "uss": 7234, "prep": 17463, "[unused453]": 458, "##sha": 7377, "literature": 3906, "eine": 27665, "ict": 25891, "2005": 2384, "arguments": 9918, "##ob": 16429, "thrilled": 16082, "##ures": 14900, "##pheus": 22809, "performs": 10438, "embodied": 25405, "marrow": 24960, "289": 27054, "seventies": 26232, "shells": 10986, "pill": 17357, "wave": 4400, "##khar": 22510, "##osaurus": 25767, "algiers": 22947, "supervised": 13588, "[unused890]": 895, "##dr": 13626, "##真": 30447, "hastings": 12296, "##{": 29640, "peoples": 7243, "reformer": 24767, "commonplace": 27550, "##gami": 26517, "fought": 4061, "dormant": 22170, "isolation": 12477, "mets": 15253, "stocks": 15768, "kidd": 25358, "##oned": 17799, "dolly": 19958, "##zle": 29247, "უ": 1454, "##ede": 14728, "stuck": 5881, "東": 1879, "dilapidated": 29283, "upstream": 13909, "sailed": 7434, "penalties": 12408, "norte": 19931, "speak": 3713, "drainage": 11987, "ß": 1096, "julia": 6423, "limits": 6537, "tape": 6823, "vfl": 13480, "magazines": 7298, "india": 2634, "shadow": 5192, "##cius": 25393, "##ھ": 29844, "cuffs": 24347, "##lal": 13837, "60s": 20341, "##culus": 28703, "attached": 4987, "yer": 20416, "##valent": 24879, "##mere": 13759, "1868": 7582, "award": 2400, "monkeys": 17059, "demons": 7942, "##cate": 16280, "zulu": 27359, "417": 27519, "[unused972]": 977, "businessmen": 17353, "cats": 8870, "moravian": 28131, "norwich": 12634, "##d": 2094, "torah": 16297, "##µ": 29659, "heather": 9533, "purposely": 24680, "bart": 12075, "owls": 22388, "##fted": 18915, "reinforced": 11013, "##ア": 30219, "quarterly": 12174, "heath": 9895, "harding": 15456, "syria": 7795, "occupied": 4548, "minded": 13128, "nudged": 18666, "surgeon": 9431, "tram": 12517, "consolidation": 17439, "ow": 27593, "block": 3796, "celebrated": 6334, "mcmahon": 17741, "madame": 10602, "prevent": 4652, "clothing": 5929, "310": 17196, "26": 2656, "##nton": 15104, "laid": 4201, "streaming": 11058, "##pp": 9397, "kelley": 19543, "[unused734]": 739, "hovering": 16349, "##piration": 16781, "big": 2502, "ferrer": 28390, "remembering": 10397, "##brick": 25646, "fresco": 26991, "inhuman": 29582, "پ": 1302, "compiled": 9227, "mate": 6775, "warring": 28509, "213": 19883, "drury": 25663, "soothe": 28384, "fantasies": 21233, "francesca": 15409, "##cal": 9289, "leiden": 20329, "resurrection": 15218, "tnt": 24048, "##lke": 28143, "##vale": 17479, "antenna": 13438, "baba": 14208, "sensing": 13851, "##sford": 17658, "fee": 7408, "sneak": 13583, "[unused178]": 183, "clifton": 16271, "discussion": 6594, "kabul": 21073, "vulnerable": 8211, "ships": 3719, "universities": 5534, "##vey": 12417, "harsh": 8401, "##ucher": 22368, "astor": 25159, "greensboro": 27905, "glow": 8652, "sentimental": 23069, "ireland": 3163, "[unused713]": 718, "offense": 10048, "##iani": 25443, "weather": 4633, "ψ": 1178, "husband": 3129, "indicted": 21801, "recession": 19396, "saudi": 8174, "##zyn": 23749, "amnesty": 16154, "side": 2217, "##cheng": 21043, "swimming": 5742, "agitated": 21568, "##hy": 10536, "tricky": 24026, "ev": 23408, "##code": 16044, "relations": 4262, "##una": 9521, "rice": 5785, "same": 2168, "resolving": 29304, "suspicions": 17817, "archers": 23118, "derelict": 28839, "加": 1779, "ny": 6396, "stepmother": 26959, "maternal": 11062, "melissa": 9606, "loser": 10916, "##ph": 8458, "slow": 4030, "anatolia": 23747, "rain": 4542, "cart": 11122, "cuisine": 12846, "merge": 13590, "struggled": 6915, "filing": 15242, "startled": 9696, "ナ": 1715, "cooperative": 10791, "wonderland": 20365, "##pf": 14376, "cleaned": 12176, "modified": 6310, "realm": 8391, "##eses": 23072, "urbana": 27929, "chocolate": 7967, "mutation": 16221, "elgin": 23792, "boredom": 29556, "conglomerate": 22453, "howled": 27489, "生": 1910, "doom": 12677, "identification": 8720, "lightning": 7407, "hay": 10974, "revolution": 4329, "creepy": 17109, "caine": 19881, "pedro": 7707, "repair": 7192, "overlooked": 17092, "uniformly": 27423, "dispute": 7593, "[unused128]": 133, "intends": 18754, "steam": 5492, "pausing": 20490, "##itical": 26116, "##ur": 3126, "sensual": 18753, "executive": 3237, "239": 23688, "skylar": 27970, "1611": 28769, "[unused876]": 881, "blacks": 10823, "boo": 22017, "265": 20549, "mg": 11460, "nehru": 23556, "δ": 1158, "observation": 8089, "thoughtfully": 19897, "弘": 1843, "wi": 15536, "babylonian": 26990, "steaming": 19986, "[unused939]": 944, "##ٹ": 29838, "brothel": 27308, "continuing": 5719, "flaming": 19091, "hockey": 3873, "##idad": 27893, "susquehanna": 26361, "noctuidae": 24893, "natal": 17489, "inspecting": 29508, "brownish": 19437, "selangor": 28904, "alicia": 15935, "aggregate": 9572, "manners": 14632, "880": 26839, "therapist": 19294, "migrants": 16836, "yarmouth": 28792, "zip": 14101, "mint": 12927, "blackpool": 17444, "bordeaux": 16384, "forwards": 19390, "郎": 1958, "##ang": 5654, "collapsing": 22724, "surprisingly": 10889, "medallist": 28595, "berger": 16758, "invincible": 25018, "rated": 6758, "regard": 7634, "dietrich": 22567, "precinct": 18761, "##lity": 18605, "[unused41]": 42, "banjo": 16698, "biblical": 10213, "##making": 12614, "氏": 1891, "destroy": 6033, "accolades": 27447, "huddersfield": 19715, "shadowy": 22801, "where": 2073, "##rand": 13033, "##tead": 14565, "unknown": 4242, "thriving": 20319, "authorised": 19256, "bros": 10243, "gaze": 3657, "##kal": 12902, "cracks": 15288, "##ods": 20620, "[unused166]": 171, "upgrade": 12200, "##ལ": 29971, "religion": 4676, "neptune": 21167, "##old": 11614, "##rmin": 27512, "bing": 17620, "mergers": 28585, "ʃ": 1130, "passengers": 5467, "劉": 1777, "focuses": 7679, "##dhi": 19114, "investment": 5211, "morrow": 19084, "breeze": 9478, "electron": 10496, "##dana": 25917, "iraqi": 8956, "miami": 5631, "tormented": 29026, "background": 4281, "hostilities": 17601, "ք": 1239, "outline": 12685, "[unused170]": 175, "abuse": 6905, "shouting": 11273, "unpleasant": 16010, "venezuela": 8326, "##zation": 9276, "departments": 7640, "[unused117]": 122, "bland": 20857, "cbn": 21824, "friar": 25287, "ball": 3608, "[unused834]": 839, "royalty": 16664, "ruling": 6996, "structural": 8332, "theorem": 9872, "andres": 15614, "elements": 3787, "inched": 25330, "destroyed": 3908, "davis": 4482, "maker": 9338, "peers": 12746, "binds": 20817, "dammit": 20878, "bowler": 14999, "century": 2301, "pain": 3255, "stretches": 14082, "outlawed": 29131, "##sily": 26863, "##gp": 21600, "demanding": 9694, "##iss": 14643, "lehigh": 23241, "milling": 22491, "sticking": 13423, "公": 1772, "sucked": 8631, "abbreviated": 12066, "backbone": 21505, "cost": 3465, "emotionally": 14868, "proponents": 20401, "flick": 17312, "looted": 27775, "行": 1945, "costumes": 12703, "enormous": 8216, "im": 10047, "linger": 26577, "##dar": 7662, "moe": 22078, "conservatoire": 29233, "christchurch": 15880, "cultures": 8578, "ں": 1306, "apt": 26794, "crow": 11465, "nowadays": 13367, "sawmill": 24744, "euros": 19329, "fortifications": 14507, "pearl": 7247, "ferreira": 26135, "##ł": 18818, "##bang": 25153, "advances": 9849, "ʲ": 1141, "albany": 10283, "thou": 15223, "sparhawk": 13709, "joy": 6569, "investigating": 11538, "noelle": 22336, "discussing": 10537, "##xx": 20348, "mexican": 4916, "##eration": 16754, "[unused874]": 879, "scorpion": 22015, "星": 1866, "##ae": 6679, "##ales": 23266, "1903": 5778, "1930": 4479, "paces": 24785, "plc": 15492, "splinter": 27546, "als": 25520, "sauce": 12901, "membrane": 10804, "connections": 7264, "$": 1002, "history": 2381, "mole": 16709, "priorities": 18402, "##notes": 20564, "statements": 8635, "bitter": 8618, "[unused859]": 864, "ʳ": 1142, "##zong": 13150, "stack": 9991, "exploring": 11131, "##ars": 11650, "wreath": 29586, "##“": 30058, "ezio": 23043, "expressed": 5228, "obeyed": 22665, "screamed": 7210, "##yler": 20853, "##gata": 26589, "half": 2431, "##veda": 28614, "亻": 1757, "##া": 29914, "##ﬂ": 30511, "employee": 7904, "mickey": 11021, "np": 27937, "distributor": 16632, "##anal": 27953, "##taro": 28160, "optimistic": 21931, "##tched": 28265, "##ᅲ": 30016, "exhibits": 10637, "guidelines": 11594, "prospects": 16746, "ɕ": 1113, "reinforce": 19444, "mgm": 15418, "[unused249]": 254, "establishes": 21009, "dal": 17488, "##iny": 24300, "armenian": 7508, "##ppel": 27877, "conferences": 9281, "hall": 2534, "laugh": 4756, "さ": 1656, "##ico": 11261, "ா": 1395, "johnstone": 24160, "##ulla": 22187, "usable": 24013, "oceans": 17401, "airship": 27636, "drastically": 21040, "blurred": 18449, "##houses": 15666, "bis": 20377, "markets": 6089, "that": 2008, "kitchens": 26051, "##ological": 10091, "surrendered": 10795, "violent": 6355, "blah": 27984, "testified": 14914, "pattern": 5418, "co": 2522, "slack": 19840, "neared": 20832, "319": 26499, "[unused200]": 205, "finishing": 5131, "readings": 15324, "competitive": 6975, "##oda": 13390, "chronicle": 9519, "daly": 18509, "brunette": 27261, "band": 2316, "civilians": 9272, "botanical": 13194, "reginald": 14435, "[unused749]": 754, "going": 2183, "##mes": 7834, "##ʒ": 29704, "compartments": 27998, "secretaries": 23660, "involves": 7336, "from": 2013, "lucas": 6326, "motivation": 14354, "ponds": 16879, "[unused297]": 302, "elected": 2700, "wedge": 17632, "久": 1748, "hussain": 20093, "spare": 8622, "##rchy": 29389, "[unused625]": 630, "permission": 6656, "demise": 13614, "##ত": 29898, "orchards": 22976, "throws": 11618, "reserves": 8269, "perceptions": 23271, "crude": 13587, "⅓": 1581, "feminism": 20050, "fashion": 4827, "marshes": 19257, "龍": 1982, "##carriage": 21539, "cases": 3572, "epa": 19044, "rival": 6538, "##olis": 20872, "nikolay": 28494, "abby": 9460, "##orous": 25373, "characteristics": 6459, "estadio": 14143, "inmate": 24467, "mosquito": 22529, "negative": 4997, "flexed": 24244, "sonata": 14681, "wilmington": 17025, "54": 5139, "吉": 1793, "910": 27743, "accepts": 13385, "unprecedented": 15741, "22": 2570, "westfield": 26584, "consulted": 17535, "visitor": 10367, "シ": 1706, "chances": 9592, "groves": 21695, "##written": 15773, "##nsor": 29577, "primitive": 10968, "toulon": 27160, "wishing": 10261, "##უ": 29990, "pulpit": 23134, "antagonist": 17379, "delicately": 28814, "remorse": 23124, "##roud": 21332, "##suit": 28880, "footballer": 4362, "##haya": 26115, "emotion": 7603, "##rily": 11272, "mortal": 9801, "##sons": 23345, "[unused46]": 47, "mod": 16913, "maize": 21154, "新": 1862, "[unused189]": 194, "offset": 16396, "rampage": 29216, "gr": 24665, "[unused738]": 743, "dialect": 9329, "heller": 25038, "simone": 14072, "shelton": 22230, "barrett": 12712, "dumb": 12873, "gunner": 14850, "weekdays": 19759, "ল": 1373, "persist": 29486, "founding": 4889, "breadth": 25291, "stampede": 29375, "handled": 8971, "choral": 14564, "##bra": 10024, "doha": 26528, "musically": 21385, "slice": 14704, "heroes": 7348, "1768": 19793, "echoing": 17142, "##門": 30494, "republished": 24476, "differentiated": 24374, "greeting": 14806, "##pio": 22071, "professor": 2934, "contractor": 13666, "babu": 20948, "##ulio": 24825, "forthcoming": 16875, "##প": 29903, "offenders": 19591, "platforms": 7248, "shown": 3491, "antibodies": 22931, "seventeenth": 15425, "noticed": 4384, "linen": 17517, "ـ": 1290, "mcmillan": 27436, "bilbao": 25427, "fine": 2986, "fits": 16142, "illuminating": 27816, "righteous": 19556, "ze": 27838, "bellevue": 26756, "refers": 5218, "chord": 13924, "##ery": 7301, "regulators": 25644, "writings": 7896, "xl": 28712, "##inal": 13290, "stale": 26729, "leverage": 21155, "##kson": 26579, "according": 2429, "biennale": 21140, "premier": 4239, "guerrillas": 26955, "##ize": 4697, "##nsen": 29428, "groundbreaking": 23222, "camped": 27077, "consumers": 10390, "tilt": 17010, "rests": 16626, "libretto": 17621, "songwriter": 6009, "decade": 5476, "彳": 1845, "who": 2040, "場": 1806, "[unused652]": 657, "sperm": 18047, "jesus": 4441, "entitled": 4709, "soldiers": 3548, "possibilities": 12020, "uses": 3594, "##eers": 22862, "bsc": 23533, "truncated": 25449, "747": 25374, "##si": 5332, "dubbed": 9188, "glee": 18874, "opener": 16181, "gu": 19739, "paralympics": 15600, "slumped": 14319, "wasp": 19411, "historian": 5272, "1758": 16832, "##tf": 24475, "equals": 19635, "vancouver": 6930, "pending": 14223, "##yles": 26274, "celtics": 23279, "lithuanian": 10333, "miracles": 17861, "##text": 18209, "##tar": 7559, "actively": 8851, "mellon": 22181, "hadley": 21681, "1766": 21410, "##iously": 19426, "underwent": 9601, "purity": 18433, "crusade": 16282, "50th": 12951, "##国": 30325, "coulter": 28293, "laird": 21964, "和": 1796, "accomplishment": 24718, "confirmation": 13964, "patton": 18090, "estimation": 24155, "ely": 20779, "liberia": 18039, "[unused425]": 430, "delay": 8536, "franz": 8965, "hog": 27589, "[unused316]": 321, "skull": 7412, "##§": 29650, "singing": 4823, "lunged": 17755, "1688": 24082, "subjects": 5739, "menacing": 24060, "##nin": 11483, "clawed": 22544, "technician": 16661, "strewn": 25259, "move": 2693, "##aid": 14326, "salon": 11090, "bestowed": 17398, "viewed": 7021, "[unused556]": 561, "educators": 19156, "##ogen": 23924, "vocabulary": 16188, "massage": 21881, "ot": 27178, "clash": 13249, "copies": 4809, "compressed": 16620, "##ennial": 22929, "conflicts": 9755, "invisible": 8841, "sixteen": 7032, "quarterback": 9074, "##や": 30208, "1500": 10347, "forcibly": 20951, "h₂o": 24833, "och": 28166, "ho": 7570, "hardware": 8051, "jasper": 14791, "##lez": 28060, "##海": 30428, "exceed": 13467, "concerto": 10405, "id": 8909, "angie": 14835, "sid": 15765, "arlington": 13929, "threatens": 17016, "##ine": 3170, "enhancement": 22415, "1963": 3699, "thierry": 26413, "gunpowder": 22220, "defender": 8291, "passed": 2979, "fergus": 21023, "##rn": 6826, "17th": 5550, "equipped": 6055, "##ject": 20614, "##nged": 21558, "woken": 22795, "recording": 3405, "representation": 6630, "loaded": 8209, "collaboration": 5792, "yusuf": 23495, "saxons": 28267, "dharma": 20669, "term": 2744, "[unused11]": 12, "[unused109]": 114, "diplomatic": 8041, "wished": 6257, "localities": 19664, "clubhouse": 22067, "foraging": 26912, "information": 2592, "poisoning": 16149, "##swell": 19228, "toe": 11756, "compares": 22963, "start": 2707, "northamptonshire": 21367, "##zquez": 22938, "sundays": 14803, "affiliated": 6989, "chips": 11772, "laurence": 10883, "ɹ": 1125, "camel": 19130, "stockton": 19161, "sailors": 11279, "camping": 13215, "##ization": 3989, "construct": 9570, "##cuit": 28168, "austrians": 28439, "lena": 14229, "crop": 10416, "liturgical": 19246, "##kou": 24861, "acceptable": 11701, "adams": 5922, "mall": 6670, "mistakenly": 20706, "-": 1011, "bait": 17395, "recognized": 3858, "mattered": 13836, "##zee": 23940, "memories": 5758, "wellington": 8409, "ی": 1309, "twilight": 13132, "urged": 9720, "rebecca": 9423, "emancipation": 22656, "explore": 8849, "laval": 26205, "grounds": 5286, "moi": 25175, "blown": 10676, "piercing": 14628, "scowled": 17474, "audio": 5746, "brow": 8306, "pilasters": 26752, "vibe": 21209, "##ga": 3654, "humour": 17211, "[unused300]": 305, "overnight": 11585, "##town": 4665, "abstracts": 29474, "##hine": 14014, "republican": 3951, "rousseau": 26868, "jill": 10454, "mondays": 28401, "##rke": 25074, "##version": 27774, "[unused767]": 772, "dame": 8214, "##hiff": 25798, "privilege": 14293, "baku": 16807, "calcium": 13853, "concerns": 5936, "iata": 9833, "nagoya": 24425, "retirement": 5075, "dresden": 12983, "responsive": 26651, "##lag": 17802, "accountants": 29114, "crisis": 5325, "mater": 16289, "recurring": 10694, "praise": 8489, "147": 16471, "shimmering": 22349, "flourishing": 29571, "onboard": 27120, "trembling": 10226, "groove": 14100, "ʉ": 1131, "journalists": 8845, "volume": 3872, "sanjay": 29590, "lambert": 12838, "pond": 8644, "proponent": 22488, "##hawks": 16043, "ruled": 5451, "い": 1647, "millimetres": 13388, "rejection": 13893, "##₹": 30104, "analogous": 19639, "evidenced": 21328, "[unused5]": 6, "jenna": 13504, "repeatedly": 8385, "doubts": 13579, "1776": 13963, "muffled": 15783, "26th": 14935, "junctions": 27169, "##貝": 30478, "psi": 17816, "loretta": 28493, "ba": 8670, "correct": 6149, "us": 2149, "carmichael": 23537, "click": 11562, "lincolnshire": 16628, "televised": 13762, "##}": 29642, "anglo": 7819, "elections": 3864, "saul": 16897, "##akh": 27573, "abbas": 17532, "horse": 3586, "architecture": 4294, "##ev": 6777, "vicki": 25424, "##can": 9336, "mans": 16042, "impromptu": 29213, "blockade": 15823, "dormitory": 21538, "breakaway": 26321, "inform": 12367, "##50": 12376, "##user": 20330, "realization": 12393, "loads": 15665, "artifacts": 10471, "boroughs": 21413, "286": 24921, "##lene": 11474, "boca": 22765, "hesitantly": 24626, "synod": 15374, "hidden": 5023, "थ": 1324, "事": 1751, "widespread": 6923, "piazza": 22463, "##balance": 26657, "telecommunication": 25958, "mounts": 19363, "indochina": 27053, "relationships": 6550, "amman": 25703, "plantation": 10065, "comparatively": 20172, "normal": 3671, "##isman": 20257, "kicks": 14590, "overseas": 6931, "gender": 5907, "##nets": 22781, "inhabit": 21490, "girlfriends": 27408, "anzac": 29224, "grill": 18651, "magnolia": 24659, "ε": 1159, "hilbert": 27434, "pantheon": 24152, "gain": 5114, "churning": 26765, "23rd": 13928, "##say": 24322, "eduard": 20424, "somalia": 14717, "surplus": 15726, "formula": 5675, "alongside": 4077, "mentor": 10779, "~": 1066, "cells": 4442, "outreach": 15641, "operation": 3169, "##lash": 27067, "沢": 1898, "[unused490]": 495, "shia": 20474, "refused": 4188, "##nk": 8950, "composed": 3605, "strictly": 9975, "mexico": 3290, "crest": 11146, "dallas": 5759, "forerunner": 23993, "how": 2129, "##〉": 30164, "campaigned": 16196, "mccall": 25790, "messages": 7696, "confederacy": 18179, "overtook": 28920, "##eft": 29218, "brooks": 8379, "surfaced": 15791, "[unused325]": 330, "[unused705]": 710, "##acle": 18630, "[unused315]": 320, "collective": 7268, "cornered": 25878, "##fulness": 20938, "##haus": 13821, "invention": 11028, "promises": 10659, "neighbour": 20065, "skies": 15717, "angela": 10413, "thirty": 4228, "families": 2945, "##₍": 30087, "impaired": 18234, "љ": 1215, "messenger": 11981, "cast": 3459, "bold": 7782, "improvements": 8377, "##宇": 30345, "##rini": 22612, "styling": 20724, "##犬": 30434, "closer": 3553, "##ania": 13241, "##hide": 26100, "##nction": 27989, "ɴ": 1124, "secluded": 27044, "##cy": 5666, "spielberg": 28740, "marble": 7720, "##on": 2239, "photographers": 17008, "milky": 21582, "nepali": 23418, "cop": 8872, "##:": 29627, "confused": 5457, "wat": 28194, "##liner": 20660, "furnishings": 23127, "continuation": 13633, "sirius": 23466, "##urst": 29402, "stormy": 24166, "##mmel": 29033, "##tore": 19277, "kimberly": 23729, "cancer": 4456, "france": 2605, "chewed": 18362, "##less": 3238, "##⁺": 12744, "feeder": 21429, "plunging": 29059, "clearance": 14860, "##н": 18947, "ɪ": 1119, "laurie": 16450, "badge": 10780, "lose": 4558, "trigger": 9495, "##gers": 15776, "birth": 4182, "convoy": 9549, "communists": 13009, "impatiently": 19951, "##eki": 26576, "divides": 20487, "[unused552]": 557, "##biotic": 26591, "##ece": 26005, "honorary": 5756, "splitting": 14541, "liberties": 18271, "##cks": 10603, "codes": 9537, "celtic": 8730, "undermine": 25174, "maximilian": 18838, "death": 2331, "perpetrators": 27675, "talked": 5720, "mer": 21442, "sliding": 8058, "##₉": 30085, "##ii": 6137, "hub": 9594, "gleam": 24693, "adjustable": 26404, "discipline": 9009, "max": 4098, "romney": 19615, "##oga": 18170, "ransom": 16540, "##ffle": 18142, "imaging": 12126, "##ena": 8189, "cultivation": 13142, "brightly": 14224, "##hampton": 21946, "##hani": 23573, "fucking": 8239, "else": 2842, "flames": 7311, "rotherham": 27456, "##field": 3790, "naked": 6248, "tire": 12824, "needles": 17044, "##istles": 28738, "clenched": 8555, "storing": 23977, "##9th": 25660, "candy": 9485, "lexi": 16105, "vie": 20098, "½": 1092, "mound": 12048, "north": 2167, "ᄌ": 1464, "organise": 22933, "##jos": 19929, "bacteria": 10327, "rumored": 22710, "voss": 24878, "118": 12963, "★": 1620, "yates": 20356, "preventing": 10723, "##than": 21604, "floral": 18686, "wynn": 25328, "aquarium": 18257, "beverage": 19645, "comparable": 12435, "las": 5869, "pirates": 8350, "malmo": 23643, "florence": 7701, "garlic": 20548, "worthy": 11007, "epilogue": 24297, "artillery": 4893, "[unused493]": 498, "shut": 3844, "trade": 3119, "socialists": 21633, "trillion": 23458, "late": 2397, "emperors": 19655, "fatalities": 20871, "##paper": 23298, "##এ": 29887, "dail": 26181, "preserved": 6560, "australian": 2827, "ash": 6683, "elusive": 26475, "pocket": 4979, "stricken": 16654, "investigated": 10847, "uprising": 10138, "gardiner": 21143, "##ulent": 27581, "##powered": 27267, "hiroshi": 26882, "taluka": 29512, "document": 6254, "fails": 11896, "terra": 14403, "##uze": 20395, "broadcaster": 11995, "ramps": 24943, "attracting": 15411, "faith": 4752, "qaeda": 18659, "potion": 26722, "[unused326]": 331, "48": 4466, "unlike": 4406, "apologies": 25380, "attacking": 7866, "combustion": 16513, "[unused577]": 582, "tully": 25724, "amusement": 9778, "copenhagen": 9664, "tempest": 22553, "##vation": 21596, "sm": 15488, "bread": 7852, "##eased": 25063, "harvested": 22629, "##uting": 20807, "dominant": 7444, "georgian": 9166, "marlborough": 22830, "[unused951]": 956, "grouping": 19765, "kim": 5035, "##lton": 13947, "bryson": 26845, "enjoyed": 5632, "gasps": 23813, "rub": 14548, "phantom": 11588, "solicitor": 15468, "geologic": 22125, "bullying": 18917, "tomatoes": 12851, "皇": 1917, "kneeling": 16916, "plague": 11629, "futures": 17795, "dusty": 12727, "garth": 21523, "henrietta": 20775, "crank": 27987, "blinked": 7948, "irish": 3493, "insurrection": 27860, "relevance": 21923, "pinch": 18392, "##led": 3709, "initiation": 17890, "loft": 19459, "qc": 25196, "bust": 13950, "##エ": 30224, "possesses": 14882, "avoid": 4468, "[unused366]": 371, "clockwise": 22839, "karachi": 15381, "malibu": 29047, "quieter": 27486, "dam": 5477, "vatican": 12111, "##dp": 18927, "1658": 28944, "bloomington": 26372, "papa": 13008, "pupils": 7391, "##ep": 13699, "gladstone": 21765, "##fk": 24316, "kia": 27005, "##ucible": 21104, "strauss": 16423, "azure": 24296, "membership": 5779, "transmit": 19818, "mature": 9677, "venice": 7914, "宗": 1821, "men": 2273, "spain": 3577, "taipei": 14004, "contenders": 27236, "tucked": 9332, "##carbon": 26190, "##cea": 21456, "lahore": 15036, "expectation": 17626, "imprisoned": 8580, "instrumental": 6150, "wilderness": 9917, "creations": 20677, "spence": 22186, "desmond": 16192, "assassinated": 16370, "chris": 3782, "interred": 13917, "beach": 3509, "1762": 20827, "confines": 25722, "runes": 29161, "kristin": 25130, "lex": 17244, "executives": 12706, "##itating": 16518, "##ssee": 29522, "salvador": 10582, "##00": 8889, "battered": 17548, "fiction": 4349, "extent": 6698, "##culture": 14561, "scans": 27404, "unreliable": 23579, "1659": 28288, "[unused180]": 185, "[unused256]": 261, "alexander": 3656, "##lates": 26786, "receipt": 24306, "beckett": 20599, "reprise": 16851, "##sts": 12837, "vet": 29525, "##ground": 16365, "##ར": 29970, "perfection": 15401, "casper": 24602, "assist": 6509, "act": 2552, "hands": 2398, "organising": 21317, "צ": 1263, "puget": 27879, "households": 3911, "renal": 25125, "terrific": 27547, "ringing": 13060, "kinds": 7957, "muse": 18437, "moroccan": 17494, "##nut": 24072, "plato": 18858, "##en": 2368, "##nl": 20554, "color": 3609, "reckon": 29072, "represent": 5050, "121": 12606, "chapel": 4970, "democrat": 7672, "undone": 25757, "dispatch": 18365, "[unused793]": 798, "##cino": 21081, "alphabet": 12440, "ת": 1267, "##ᅢ": 30007, "dunn": 14145, "possibly": 4298, "experiencing": 13417, "[unused633]": 638, "[unused649]": 654, "##tori": 29469, "##nock": 18057, "department": 2533, "dread": 14436, "int": 20014, "##izing": 6026, "[unused268]": 273, "confusing": 16801, "herd": 14906, "launching": 12106, "mention": 5254, "[unused822]": 827, "9th": 6280, "[unused862]": 867, "propelled": 15801, "selfish": 14337, "matthias": 17885, "sarah": 4532, "rhodesia": 20340, "authoritarian": 27246, "referendum": 9782, "lamp": 10437, "manitoba": 10512, "उ": 1313, "1622": 28133, "drifted": 10070, "04": 5840, "hydro": 18479, "dorian": 16092, "eki": 23174, "partners": 5826, "m1": 23290, "##ka": 2912, "conical": 24750, "##lles": 20434, "clemens": 27277, "film": 2143, "##面": 30502, "involve": 9125, "became": 2150, "##xious": 25171, "##糹": 30460, "viola": 10482, "ballot": 10428, "goodwin": 19928, "confined": 12302, "bed": 2793, "fitted": 7130, "muster": 20327, "[unused860]": 865, "##ɲ": 29689, "apron": 20376, "##nburg": 22642, "concentrated": 8279, "counterpart": 13637, "outlaws": 23107, "##ка": 28598, "configuration": 9563, "input": 7953, "otago": 21831, "十": 1783, "cecilia": 18459, "ld": 25510, "minneapolis": 11334, "タ": 1709, "satisfying": 17087, "chaplin": 23331, "ী": 1380, "ufo": 24321, "[unused86]": 87, "decisions": 6567, "whitley": 27007, "##tein": 9589, "section": 2930, "manifest": 19676, "rosen": 21701, "rican": 13641, "therese": 25598, "parc": 27985, "perceive": 23084, "cactus": 23265, "targets": 7889, "egyptian": 6811, "88": 6070, "janata": 20308, "##belle": 25766, "##rland": 18324, "1921": 4885, ">": 1028, "271": 25103, "see": 2156, "smaller": 3760, "stemmed": 27674, "wildly": 13544, "guzman": 22789, "agrees": 10217, "##umb": 25438, "felicity": 27357, "judges": 6794, "receptions": 16466, "comprises": 8681, "porsche": 16099, "##ivism": 22486, "reg": 19723, "neue": 27713, "##ivo": 20984, "₹": 1576, "##ர": 29927, "##ping": 4691, "masters": 5972, "beige": 28799, "mad": 5506, "kathmandu": 28045, "their": 2037, "##over": 7840, "ltd": 5183, "1999": 2639, "secular": 10644, "trumpets": 26506, "goldstein": 25507, "innocent": 7036, "wherein": 16726, "tested": 7718, "susannah": 20471, "expenses": 11727, "300": 3998, "overrun": 24672, "1941": 3874, "reapers": 27733, "syrup": 23353, "walkover": 17495, "browne": 15005, "clan": 6338, "##lland": 26087, "rodriguez": 9172, "##hend": 22342, "sc": 8040, "alma": 11346, "esteem": 19593, "bays": 13933, "moments": 5312, "threaten": 15686, "##thesis": 25078, "averages": 20185, "##good": 24146, "[unused909]": 914, "yielding": 21336, "originated": 7940, "bowman": 19298, "crooked": 15274, "kaladin": 22588, "distance": 3292, "gough": 29124, "hamish": 28859, "##उ": 29849, "##rza": 24175, "421": 29403, "##ych": 17994, "cunningham": 13652, "sands": 13457, "croydon": 21838, "allegheny": 21192, "failure": 4945, "produces": 7137, "amongst": 5921, "providence": 11293, "profile": 6337, "##ie": 2666, "diffusion": 19241, "##lau": 17298, "hostages": 19323, "pictorial": 28304, "fencing": 15962, "poet": 4802, "[unused186]": 191, "ghent": 24202, "##gree": 28637, "##quist": 18331, "baghdad": 13952, "etat": 17997, "sockets": 27540, "##'": 29618, "bench": 6847, "selena": 19166, "wolverhampton": 20085, "##gne": 10177, "woke": 8271, "already": 2525, "wasting": 18313, "topic": 8476, "belonging": 7495, "##kr": 21638, "##eric": 22420, "warwickshire": 18430, "accidents": 13436, "##eti": 20624, "freeway": 10846, "1700": 16601, "##unes": 26639, "focusing": 7995, "##0": 2692, "##tadt": 18808, "gen": 8991, "sprint": 9043, "acquisitions": 19530, "trailed": 11145, "popcorn": 24593, "ד": 1244, "jacqueline": 17551, "sonar": 24609, "plural": 13994, "##bine": 16765, "dempsey": 28165, "##中": 30272, "summary": 12654, "earrings": 27212, "brief": 4766, "massachusetts": 4404, "risked": 22374, "communism": 15523, "fertile": 14946, "##gation": 12540, "complications": 12763, "1300": 19527, "cadet": 12738, "☉": 1622, "willem": 18811, "prefer": 9544, "epsilon": 28038, "rebuilt": 7183, "rendered": 10155, "mined": 21846, "050": 28714, "fractured": 21726, "paddle": 20890, "delightful": 26380, "diplomacy": 17610, "hurt": 3480, "##llan": 19036, "##ber": 5677, "northern": 2642, "302": 22060, "handsome": 8502, "direction": 3257, "[unused33]": 34, "theorist": 24241, "defeated": 3249, "fragile": 13072, "stifled": 27146, "म": 1331, "preston": 8475, "receive": 4374, "##mbling": 29256, "unearthed": 27422, "##otted": 26174, "economies": 18730, "trier": 25487, "flashback": 21907, "neumann": 22860, "##ically": 15004, "error": 7561, "vessel": 6258, "aside": 4998, "gust": 26903, "nadu": 10703, "advising": 23875, "এ": 1351, "rebelled": 25183, "understand": 3305, "##ions": 8496, "temporal": 15850, "cores": 25562, "800": 5385, "##rum": 6824, "kristina": 28802, "##par": 19362, "nightstand": 23135, "##rana": 16737, "survival": 7691, "obvious": 5793, "bases": 7888, "##lving": 25780, "##orough": 26388, "##’": 30056, "board": 2604, "impending": 17945, "iraq": 5712, "naturally": 8100, "verb": 12034, "ण": 1322, "##德": 30374, "pregnant": 6875, "johnnie": 27716, "wembley": 16538, "levin": 20206, "##erin": 23282, "333": 21211, "gemma": 19073, "##inae": 16414, "yep": 15624, "dong": 11947, "##tula": 28970, "##ப": 29924, "##jet": 15759, "vickers": 18571, "ready": 3201, "warnings": 16234, "alternating": 15122, "aide": 14895, "probe": 15113, "efficiently": 18228, "uniting": 26112, "##fighting": 22158, "##wes": 18192, "broadcasting": 5062, "##楊": 30409, "airmen": 29437, "reeling": 28515, "leads": 5260, "rural": 3541, "1603": 25625, "grasp": 10616, "riding": 5559, "##viere": 27087, "likewise": 10655, "##我": 30381, "providers": 11670, "revolutionary": 6208, "delilah": 23006, "galveston": 26630, "sweetie": 22872, "blossoms": 28766, "affirmative": 27352, "friction": 15012, "reasoning": 13384, "##mable": 24088, "buffet": 28305, "slovak": 12747, "149": 17332, "louis": 3434, "manifold": 19726, "upscale": 28276, "buying": 9343, "newtown": 26382, "rescues": 26001, "cassidy": 13737, "##hl": 7317, "infused": 29592, "dislike": 18959, "internship": 22676, "##ode": 10244, "shrugs": 23822, "₤": 1572, "dinosaur": 15799, "engagements": 20583, "cyclone": 11609, "pub": 9047, "representing": 5052, "vents": 28287, "burnt": 11060, "generating": 11717, "remarkably": 17431, "##vre": 12229, "nils": 27282, "traverse": 20811, "##チ": 30236, "compact": 9233, "three": 2093, "realizing": 9301, "suggestion": 10293, "loch": 14941, "♯": 1628, "slit": 18036, "regulates": 26773, "ciudad": 20759, "lanes": 10914, "addition": 2804, "cherry": 9115, "##ma": 2863, "descendant": 12608, "antigua": 26023, "dans": 18033, "basilica": 13546, "wigan": 15598, "主": 1747, "protect": 4047, "cbc": 13581, "##ares": 17933, "##grad": 16307, "##rre": 14343, "stern": 8665, "vegas": 7136, "[unused317]": 322, "developmental": 13908, "crimson": 11466, "offices": 4822, "toppled": 27251, "gabby": 27183, "##₤": 30100, "managers": 10489, "essay": 9491, "pressure": 3778, "pastry": 27060, "[unused123]": 128, "nicaragua": 15448, "##inate": 14776, "[unused243]": 248, "##ya": 3148, "fling": 27655, "scientists": 6529, "cupping": 25076, "debbie": 16391, "dramas": 16547, "crunch": 24514, "##rain": 21166, "differed": 19541, "belly": 7579, "relegated": 7049, "##ario": 16843, "martinez": 10337, "##uaries": 22579, "victor": 5125, "wavelengths": 29263, "anxious": 11480, "desires": 14714, "familiarity": 24666, "harmonica": 16527, "organisms": 11767, "##band": 12733, "disgusting": 19424, "learners": 26262, "##ₘ": 30096, "rust": 18399, "closest": 7541, "##キ": 30227, "450": 10332, "faulkner": 25109, "[unused84]": 85, "thomas": 2726, "antonia": 24272, "ll": 2222, "vowel": 12710, "##stone": 9221, "munster": 11348, "ridden": 15230, "inflicted": 17303, "kick": 5926, "penetration": 20015, "brandt": 19407, "##neer": 19755, "intensified": 15767, "rider": 7945, "subsidiaries": 20178, "francis": 4557, "##tops": 25181, "gangster": 20067, "gorge": 14980, "vibrant": 17026, "（": 1987, "mayfair": 28387, "blanket": 8768, "##ぬ": 30195, "chilly": 24222, "##berry": 9766, "containing": 4820, "excavation": 16456, "acquire": 9878, "avila": 29079, "ivy": 7768, "arrow": 8612, "↔": 1587, "cycle": 5402, "inquiries": 27050, "jude": 12582, "utter": 14395, "##،": 29814, "matilda": 17981, "triad": 25355, "executed": 6472, "stated": 3090, "##56": 26976, "feature": 3444, "1980": 3150, "##itt": 12474, "##ß": 19310, "pounder": 20091, "like": 2066, "uranium": 14247, "chandler": 13814, "sterling": 10933, "coinage": 25396, "[unused929]": 934, "topographic": 24254, "butcher": 14998, "[unused629]": 634, "ʑ": 1137, "##rford": 26430, "laborers": 23428, "seeing": 3773, "corresponding": 7978, "bernhard": 21432, "mu": 14163, "jaw": 5730, "corridors": 17506, "unnoticed": 22719, "##20": 11387, "flashed": 8373, "patted": 11930, "sweeps": 26981, "##ை": 29935, "exponential": 27258, "pipe": 8667, "00": 4002, "sequel": 8297, "signed": 2772, "comb": 22863, "framed": 10366, "increases": 7457, "জ": 1358, "385": 24429, "foliage": 19624, "1400": 20652, "nothin": 24218, "searched": 9022, "perspectives": 15251, "dimitri": 15953, "pedestrian": 14662, "township": 3545, "panting": 15601, "bricks": 14219, "educating": 25088, "leash": 26834, "craving": 26369, "##arina": 27943, "7th": 5504, "appointed": 2805, "duplicate": 24473, "##2": 2475, "contribute": 9002, "mandates": 25979, "digitally": 18397, "knowledge": 3716, "emerges": 19391, "refusing": 11193, "titanium": 23431, "##otho": 29288, "tennis": 5093, "hermit": 24308, "architectural": 6549, "16": 2385, "gallo": 25624, "jacques": 7445, "dominance": 13811, "homme": 26574, "angle": 6466, "marquess": 17391, "cb": 17324, "[unused698]": 703, "partnership": 5386, "[unused448]": 453, "escapes": 12976, "nelson": 5912, "##ual": 8787, "husky": 18758, "##ـ": 29832, "scored": 3195, "condemning": 28525, "secretary": 3187, "chopin": 25479, "predictions": 20932, "teens": 13496, "51": 4868, "paradigm": 20680, "fries": 22201, "tool": 6994, "octopus": 24318, "##riding": 21930, "responsibility": 5368, "repeats": 17993, "##cer": 17119, "stuff": 4933, "##lent": 16136, "carl": 5529, "purposes": 5682, "名": 1795, "##tler": 25091, "corridor": 7120, "junta": 22450, "poisoned": 17672, "##cion": 10446, "244": 24194, "reliance": 17975, "holt": 12621, "font": 15489, "cab": 9298, "and": 1998, "##burgh": 15496, "ingredient": 21774, "[unused423]": 428, "regardless": 7539, "##戸": 30383, "##laze": 24472, "##horpe": 22044, "guidance": 8606, "taped": 19374, "wayne": 6159, "dragged": 7944, "justice": 3425, "charities": 15430, "thor": 15321, "urge": 9075, "homeland": 10759, "sloppy": 28810, "abd": 19935, "tia": 27339, "walking": 3788, "deserted": 12768, "were": 2020, "infection": 8985, "honest": 7481, "pius": 14363, "254": 22234, "positively": 13567, "whitman": 21311, "invaders": 17347, "barked": 17554, "ended": 3092, "nor": 4496, "indonesian": 9003, "chili": 20238, "atop": 10234, "lethal": 12765, "make": 2191, "valid": 9398, "spells": 11750, "program": 2565, "ambassadors": 20986, "##see": 19763, "device": 5080, "##flow": 12314, "antigen": 28873, "##ₑ": 30090, "coded": 22402, "##mology": 20570, "harris": 5671, "waived": 16301, "##film": 23665, "lullaby": 29149, "urban": 3923, "villas": 27317, "tough": 7823, "instinct": 12753, "ł": 1105, "##chaft": 29043, "spaces": 7258, "span": 8487, "ascot": 29036, "237": 23297, "hilly": 22800, "orchard": 15623, "aiming": 13659, "breasts": 12682, "simon": 4079, "sq": 5490, "vomiting": 24780, "1893": 6489, "hissing": 26386, "majesty": 9995, "##horn": 9769, "theatrical": 8900, "1969": 3440, "##entes": 26933, "politics": 4331, "greasy": 26484, "horizon": 9154, "##astic": 20875, "##cast": 10526, "aziz": 21196, "##ku": 5283, "situation": 3663, "want": 2215, "swiftly": 12128, "[unused343]": 348, "che": 18178, "##♦": 30153, "regulate": 15176, "ා": 1408, "seater": 23392, "commercially": 11088, "known": 2124, "##ய": 29926, "##sius": 24721, "racism": 14398, "empirical": 17537, "seats": 4272, "##ship": 9650, "##llins": 26655, "##ɴ": 29690, "##ロ": 30261, "inferior": 14092, "erected": 7019, "pouch": 21445, "marie": 5032, "##chon": 24561, "attain": 18759, "electorate": 13694, "spared": 16891, "documenting": 23138, "entertaining": 14036, "evidence": 3350, "##pore": 26691, "apprenticeship": 20448, "francisco": 3799, "nick": 4172, "gangs": 18542, "##bro": 12618, "[unused720]": 725, "sculptor": 10160, "remind": 10825, "##mount": 20048, "##jun": 19792, "apple": 6207, "##ron": 4948, "supervising": 21238, "trio": 7146, "##kara": 16566, "verity": 22178, "hector": 10590, "sounded": 5015, "mystical": 17529, "sept": 17419, "attempts": 4740, "nottingham": 11331, "piston": 16733, "khmer": 19472, "slightest": 15989, "exports": 14338, "address": 4769, "broad": 5041, "owned": 3079, "hiv": 9820, "ी": 1342, "##omic": 22026, "maternity": 23676, "http": 8299, "laptop": 12191, "tracking": 9651, "malcolm": 8861, "flanks": 23547, "trusted": 9480, "energetic": 18114, "##kie": 11602, "mathews": 23287, "resemblance": 14062, "trim": 12241, "ذ": 1279, "flesh": 5771, "##woman": 10169, "##kov": 7724, "insanity": 19272, "uncomfortable": 8796, "夏": 1808, "truce": 18415, "##ified": 7810, "attention": 3086, "exchequer": 28889, "consequences": 8465, "comedian": 9971, "fool": 7966, "##ees": 10285, "##zd": 26494, "##za": 4143, "shout": 11245, "retreating": 17512, "michele": 15954, "ignacio": 22988, "southbound": 19751, "sportsman": 27168, "survive": 5788, "no": 2053, "criticism": 6256, "##cap": 17695, "fueled": 17999, "peugeot": 26385, "clube": 24852, "bronx": 14487, "logistical": 28961, "surname": 11988, "wrong": 3308, "molina": 25601, "kemp": 20441, "sasha": 14673, "winter": 3467, "occurrence": 14404, "paid": 3825, "supervisor": 12366, "rana": 22175, "116": 12904, "##sl": 14540, "beard": 10154, "depot": 8470, "eyre": 26975, "sewing": 22746, "[unused164]": 169, "ph": 6887, "someday": 13834, "##ois": 10054, "session": 5219, "scramble": 25740, "<": 1026, "##zes": 11254, "proteins": 8171, "vehicle": 4316, "##resh": 21898, "desperately": 9652, "ᆸ": 1488, "##illo": 10486, "movement": 2929, "ae": 29347, "scandinavian": 17660, "dreaming": 12802, "figuring": 23218, "concussion": 23159, "scarlet": 11862, "barley": 21569, "charity": 5952, "murder": 4028, "ernie": 14637, "##ute": 10421, "tatiana": 22725, "weakening": 22031, "ছ": 1357, "##ezer": 25733, "[unused777]": 782, "cosmos": 21182, "gambling": 12219, "wcw": 24215, "timeline": 17060, "rae": 14786, "##clusive": 23633, "kepler": 28219, "kari": 27356, "meg": 12669, "##ind": 22254, "##bol": 14956, "demonstrating": 14313, "manner": 5450, "raids": 11217, "farming": 7876, "limp": 14401, "sitcom": 13130, "dividing": 16023, "va": 12436, "leaned": 4016, "pts": 19637, "quietly": 5168, "shocked": 7135, "crews": 10604, "##xley": 20959, "##lta": 24458, "[unused210]": 215, "insert": 19274, "tt": 23746, "ctv": 28720, "schedule": 6134, "##fb": 26337, "periodically": 18043, "survived": 5175, "##gny": 19393, "##lab": 20470, "cynical": 26881, "regent": 11315, "caps": 9700, "clearing": 8430, "konstantin": 23989, "##ysis": 20960, "jewellery": 21545, "##ml": 19968, "brothers": 3428, "##hear": 26560, "##onale": 22823, "hollywood": 5365, "mysteriously": 29239, "exclaimed": 12713, "##yuan": 17236, "vigorously": 22400, "flame": 8457, "mt": 11047, "##layer": 24314, "##fied": 10451, "roundabout": 22831, "geese": 28519, "pins": 16300, "earls": 27371, "##yt": 22123, "multiplication": 24856, "warmly": 22775, "chunk": 20000, "##ocytes": 28788, "welles": 23447, "##ivation": 25761, "21": 2538, "conscience": 13454, "eli": 12005, "juniors": 16651, "bodied": 22549, "crops": 8765, "manifested": 24906, "hospitality": 15961, "your": 2115, "##emy": 26662, "##iji": 27821, "##ile": 9463, "見": 1948, "##with": 24415, "##person": 27576, "allies": 6956, "comforting": 16334, "longest": 6493, "##rug": 26549, "contests": 15795, "fibers": 16662, "abrupt": 18772, "festival": 2782, "whenever": 7188, "##ɡ": 29682, "##ラ": 30257, "guarded": 13802, "##mora": 22122, "concept": 4145, "renamed": 4096, "maj": 16686, "[unused177]": 182, "ao": 20118, "validity": 16406, "##sko": 21590, "basically": 10468, "termination": 18287, "[unused617]": 622, "mission": 3260, "##rai": 14995, "madras": 12993, "prom": 20877, "teams": 2780, "modification": 14080, "covers": 4472, "frustration": 9135, "##tions": 9285, "cork": 8513, "pilgrim": 21214, "doi": 9193, "wrinkled": 15968, "tackled": 26176, "ashley": 9321, "frightening": 17115, "assigns": 24022, "bubble": 11957, "brand": 4435, "nme": 23770, "baron": 5797, "hr": 17850, "passion": 6896, "formats": 11630, "##hm": 14227, "##athing": 22314, "callahan": 25668, "landmark": 8637, "versus": 6431, "[unused146]": 151, "1618": 29029, "[unused454]": 459, "webb": 10923, "hardin": 27522, "chart": 3673, "users": 5198, "intersecting": 27294, "⊆": 1611, "roanoke": 25899, "pavel": 18635, "peptide": 25117, "benito": 23595, "hydra": 26018, "pause": 8724, "nails": 10063, "1950": 3925, "ض": 1285, "cooked": 12984, "greeks": 13176, "##lston": 21540, "visionary": 28036, "presenter": 10044, "##ppa": 13944, "prism": 26113, "##imeters": 28136, "700": 6352, "inside": 2503, "182": 17691, "pale": 5122, "currie": 20667, "correspond": 17254, "backside": 25065, "matrix": 8185, "shawn": 13218, "expanse": 22944, "davidson": 12017, "##ය": 29940, "locke": 18343, "retorted": 24056, "陳": 1972, "ask": 3198, "elemental": 19529, "cnn": 13229, "colder": 21399, "laurent": 14718, "indus": 27746, "contestants": 10584, "ﬁ": 1984, "retrieve": 12850, "reasons": 4436, "glider": 18788, "ས": 1436, "watches": 12197, "abused": 16999, "##ɑ": 29677, "cum": 13988, "casting": 9179, "kiev": 12100, "suit": 4848, "districts": 4733, "##nage": 27031, "eye": 3239, "beirut": 15335, "fur": 6519, "[unused281]": 286, "lighting": 7497, "##ulsive": 23004, "peanuts": 27613, "wiggled": 26750, "biographer": 17121, "##ん": 30217, "##iest": 10458, "brig": 16908, "##ress": 8303, "arrogant": 15818, "muller": 12304, "generals": 11593, "sensitive": 7591, "triple": 6420, "theorists": 28442, "geneva": 9810, "guarantee": 11302, "panel": 5997, "liquids": 26820, "taken": 2579, "1744": 25846, "##nted": 14706, "##μ": 29728, "conor": 20545, "##kir": 23630, "maintaining": 8498, "stabbing": 21690, "amounted": 18779, "sparsely": 24961, "marketed": 11625, "nape": 23634, "leeds": 7873, "connect": 7532, "78": 6275, "caf": 24689, "colombian": 13598, "##aran": 20486, "explain": 4863, "inputs": 20407, "ledge": 18283, "##tonic": 25009, "ndp": 21915, "decides": 7288, "nationalism": 14594, "drew": 3881, "midst": 12930, "##thy": 16921, "##29": 24594, "saxophonist": 19977, "floyd": 12305, "sql": 29296, "drafting": 21168, "cornelius": 17354, "teasing": 12216, "##rh": 25032, "employers": 12433, "invite": 13260, "melody": 8531, "##ager": 17325, "bain": 28477, "245": 21005, "touches": 12817, "militias": 29271, "flat": 4257, "reception": 7684, "##kh": 10023, "carried": 3344, "corinne": 26879, "meantime": 12507, "barker": 12852, "##quet": 12647, "cappella": 23013, "grandpa": 15310, "cult": 8754, "allah": 16455, "turn": 2735, "macro": 26632, "1779": 17616, "confessions": 21444, "##州": 30362, "##yal": 21095, "##社": 30450, "erupted": 12591, "benevolent": 25786, "infrastructure": 6502, "shivers": 28464, "steering": 9602, "64": 4185, "##rz": 15378, "##vir": 21663, "divided": 4055, "[unused582]": 587, "heart": 2540, "##sd": 16150, "revelation": 11449, "##rem": 28578, "huff": 21301, "sunny": 11559, "##etz": 26327, "afford": 8984, "##cke": 19869, "defeat": 4154, "stream": 5460, "inch": 4960, "46": 4805, "per": 2566, "corruption": 7897, "scrolling": 28903, "##≤": 30135, "papers": 4981, "nak": 17823, "robyn": 28047, "freedoms": 22467, "index": 5950, "rhode": 9763, "[unused444]": 449, "annexed": 13291, "shea": 16994, "##illa": 9386, "##holder": 14528, "frs": 25188, "financially": 13732, "##jong": 21958, "bullet": 7960, "incident": 5043, "punt": 18975, "transvaal": 28336, "ornamental": 18200, "##₊": 30086, "ritchie": 20404, "##e": 2063, "aye": 13442, "soaking": 22721, "resin": 24604, "##der": 4063, "911": 19989, "fined": 16981, "incoming": 14932, "latin": 3763, "turning": 3810, "iss": 26354, "distinctions": 25995, "agree": 5993, "maroon": 22222, "developments": 8973, "sacrifices": 18502, "tyne": 17742, "##ona": 7856, "praises": 27128, "botany": 17018, "bea": 26892, "williams": 3766, "stir": 16130, "album": 2201, "generic": 12391, "blink": 12373, "regina": 12512, "inuit": 25179, "ウ": 1696, "jackie": 9901, "gem": 17070, "manufacturing": 5814, "mongolian": 17855, "shots": 7171, "palatine": 22202, "rosenthal": 29062, "minorities": 14302, "disturbed": 12491, "nominal": 15087, "michaels": 17784, "divisional": 14167, "rescued": 10148, "»": 1090, "authentic": 14469, "macau": 16878, "position": 2597, "qualify": 7515, "[unused49]": 50, "##ola": 6030, "scrambling": 25240, "staple": 18785, "espana": 20678, "sarajevo": 18354, "##lets": 13461, "##च": 29854, "anna": 4698, "moon": 4231, "shan": 17137, "bled": 23919, "sail": 9498, "centralized": 22493, "##lty": 24228, "tracy": 10555, "weapon": 5195, "ninja": 14104, "luton": 17807, "predator": 15267, "hints": 20385, "reply": 7514, "##uate": 20598, "erroneously": 29411, "##dor": 7983, "sooner": 10076, "kids": 4268, "zero": 5717, "##ibly": 17296, "##stems": 29189, "##poo": 24667, "debates": 14379, "##غ": 29831, "invented": 8826, "##li": 3669, "tuned": 15757, "##craft": 10419, "brains": 14332, "standing": 3061, "mated": 28795, "alberto": 12007, "edgar": 9586, "cinematic": 21014, "emory": 25853, "郡": 1959, "princes": 12000, "##rc": 11890, "pillow": 10005, "##my": 8029, "[unused798]": 803, "##陳": 30498, "jerking": 22387, "rafael": 10999, "shrewsbury": 18174, "##є": 29759, "##bari": 25990, "solely": 9578, "attempting": 7161, "milan": 6954, "adventurous": 29118, "mistaken": 13534, "cuff": 26450, "##gged": 15567, "valued": 11126, "14": 2403, "blessing": 13301, "##dee": 26095, "sect": 17831, "mixtape": 18713, "slogan": 14558, "##mmy": 18879, "dubois": 26258, "171": 18225, "25th": 10965, "##ζ": 29724, "[unused289]": 294, "anderson": 5143, "yeomanry": 26883, "##12": 12521, "linear": 7399, "60": 3438, "alignment": 12139, "ear": 4540, "gottingen": 23607, "happen": 4148, "rod": 8473, "sophomore": 13758, "buren": 29470, "campbell": 6063, "scarf": 18982, "teamed": 12597, "dragons": 8626, "##ox": 11636, "inverness": 22937, "gallon": 25234, "thesis": 9459, "supervision": 10429, "steered": 23424, "283": 25504, "arte": 16185, "shift": 5670, "##elt": 20042, "bremen": 16314, "aristocracy": 22706, "warriors": 6424, "academic": 3834, "##eries": 28077, "##zell": 24085, "rituals": 13549, "##bes": 12681, "seville": 18983, "##fest": 14081, "720": 22857, "stretch": 7683, "##ory": 10253, "angles": 12113, "sierra": 7838, "45": 3429, "radius": 12177, "guilt": 8056, "contact": 3967, "dracula": 18500, "pairs": 7689, "##uel": 16284, "garrett": 9674, "interchange": 8989, "marcos": 14810, "jefferson": 7625, "massacre": 9288, "pulitzer": 17618, "h": 1044, "pulling": 4815, "rotting": 22005, "production": 2537, "sally": 8836, "thursday": 9432, "##gin": 11528, "intrigued": 18896, "hooves": 28399, "retained": 6025, "elk": 18995, "##stle": 22516, "peruvian": 15432, "heidelberg": 16793, "520": 19611, "harassment": 16011, "pills": 15345, "フ": 1720, "mcguire": 23872, "bumper": 21519, "jensen": 14857, "displayed": 6913, "instrumentation": 16015, "[unused748]": 753, "##ik": 5480, "##escence": 28964, "augusto": 29085, "emergencies": 26360, "strip": 6167, "tam": 17214, "women": 2308, "##hop": 18471, "##tland": 19270, "[unused280]": 285, "fraudulent": 27105, "advocate": 8175, "indicates": 7127, "honoured": 15546, "47": 4700, "highlighting": 20655, "galerie": 17941, "##moto": 15319, "1790": 13393, "##8th": 28264, "kaiser": 15676, "santana": 21158, "scraped": 20378, "el": 3449, "lt": 8318, "chun": 20979, "##4": 2549, "##erving": 25164, "##xed": 19068, "tatar": 29241, "astronomers": 26357, "1908": 5316, "roasted": 28115, "intercept": 19115, "lines": 3210, "manhattan": 7128, "##stituting": 21532, "grabs": 13273, "fake": 8275, "caucus": 13965, "begun": 5625, "##var": 10755, "specific": 3563, "##pon": 26029, "bowling": 9116, "westphalia": 22952, "##tting": 13027, "head": 2132, "patriot": 16419, "vectors": 19019, "controlling": 9756, "sibling": 22941, "1867": 7517, "pinyin": 9973, "[unused253]": 258, "happily": 11361, "vinegar": 29387, "##cic": 19053, "##事": 30277, "joshua": 9122, "doc": 9986, "exact": 6635, "gould": 14913, "##tage": 26702, "miniseries": 13612, "aquino": 24183, "swallow": 10577, "treason": 14712, "geographically": 20969, "thud": 20605, "landmarks": 16209, "proximity": 10039, "##break": 23890, "[unused979]": 984, "estonian": 12029, "nam": 15125, "insistent": 29204, "categorized": 20427, "pepsi": 27237, "pontiac": 24538, "po": 13433, "##ucci": 16835, "grinning": 11478, "marek": 29318, "len": 18798, "##rigue": 27611, "##uated": 16453, "bewildered": 24683, "##bad": 9024, "[unused42]": 43, "domains": 13100, "##dict": 29201, "cardinal": 7185, "anthem": 11971, "##ᄃ": 29993, "baseline": 26163, "brahms": 28419, "bombed": 18897, "acton": 28794, "including": 2164, "perry": 6890, "gerald": 9659, "harassed": 28186, "poses": 22382, "bursts": 19239, "##lized": 28931, "distinction": 7835, "##corp": 24586, "striking": 8478, "[unused181]": 186, "doe": 18629, "г": 1183, "dundee": 14252, "treat": 7438, "##ando": 28574, "referencing": 28789, "sociology": 11507, "odi": 21045, "hurts": 13403, "manipulate": 17708, "superiors": 22983, "##swick": 27720, "kendall": 14509, "[unused535]": 540, "ryan": 4575, "cai": 29080, "leaning": 6729, "wta": 21925, "##combe": 14149, "dorothy": 9984, "ھ": 1307, "elisabeth": 12877, "israel": 3956, "##ₜ": 30099, "keeping": 4363, "unnamed": 13294, "##anum": 27975, "##unced": 22392, "##sler": 20590, "absorbed": 9063, "motive": 15793, "reissued": 14805, "##eux": 20860, "conversion": 7584, "fatally": 26292, "alex": 4074, "prejudice": 18024, "fortunately": 14599, "granada": 16553, "lieutenant": 3812, "##dal": 9305, "roosevelt": 8573, "kristen": 22435, "joking": 16644, "八": 1771, "##tma": 29418, "fog": 9666, "ट": 1320, "##cci": 14693, "##kawa": 13069, "down": 2091, "syndicated": 13889, "##sp": 13102, "looking": 2559, "serbs": 16757, "standings": 11869, "##itte": 27100, "islamist": 27256, "##unk": 16814, "jays": 18930, "广": 1842, "bum": 26352, "##r": 2099, "deadline": 15117, "##uance": 26620, "banner": 9484, "societal": 23382, "cherokee": 13796, "##後": 30372, "medal": 3101, "nacional": 10718, "cummings": 20750, "nuns": 16752, "depressed": 14777, "london": 2414, "bear": 4562, "##urian": 29091, "celine": 24550, "identities": 15702, "##ק": 29810, "cavalry": 5945, "juicy": 28900, "rahman": 14364, "connects": 8539, "grant": 3946, "##oat": 16503, "coe": 24873, "rus": 22949, "wilfred": 26026, "nissan": 16509, "captivity": 16187, "aqueduct": 24016, "[unused204]": 209, "cheer": 15138, "##gang": 24930, "benny": 11945, "load": 7170, "paranoid": 19810, "jaya": 24120, "owens": 14824, "demographics": 28321, "condor": 29260, "[unused833]": 838, "possibility": 6061, "[unused387]": 392, "145": 13741, "publicized": 24928, "ו": 1246, "donovan": 12729, "pollen": 22482, "##nio": 27678, "endemic": 7320, "cooler": 14976, "champagne": 12327, "##uan": 13860, "##定": 30348, "barry": 6287, "lung": 11192, "gives": 3957, "ellen": 9155, "kern": 22762, "##অ": 29883, "designations": 26672, "economically": 15318, "390": 20024, "renewal": 14524, "revolutionaries": 24517, "complementary": 21053, "license": 6105, "##hya": 17915, "odin": 26195, "badger": 24186, "##zz": 13213, "banners": 23562, "cavern": 16679, "##gpur": 25758, "##tila": 26065, "##feit": 21156, "holidays": 11938, "##ack": 8684, "vaudeville": 19698, "unaffected": 24720, "asserting": 27644, "grossed": 17500, "[unused327]": 332, "##wy": 18418, "complex": 3375, "surveyor": 17169, "topping": 22286, "advertised": 17099, "banco": 28678, "relies": 16803, "mountain": 3137, "##bourg": 20431, "scheduled": 5115, "consent": 9619, "leisure": 12257, "##tral": 21493, "fis": 27424, "winner": 3453, "vuelta": 21441, "hayes": 10192, "state": 2110, "resident": 6319, "awards": 2982, "campaigning": 18524, "##द": 29861, "waistband": 27553, "tank": 4951, "##ᄑ": 30004, "breed": 8843, "facade": 8508, "[unused823]": 828, "intern": 25204, "1629": 27882, "elector": 20374, "spitting": 24307, "easton": 21636, "[unused706]": 711, "hayward": 21506, "stout": 18890, "symphony": 6189, "also": 2036, "snapped": 5941, "##ntal": 15758, "honourable": 17164, "costa": 6849, "grid": 8370, "年": 1840, "stephens": 15037, "unexpected": 9223, "minnie": 26188, "f1": 20069, "1854": 8421, "revenge": 7195, "achilles": 23167, "polish": 3907, "bangladeshi": 24267, "careers": 10922, "##л": 29436, "longed": 23349, "subordinate": 15144, "331": 27533, "droplets": 27126, "radiant": 23751, "tri": 13012, "monkey": 10608, "mustered": 21900, "trilogy": 11544, "paths": 10425, "decorative": 11584, "curious": 8025, "ferris": 23202, "denny": 14465, "navarre": 21260, "corresponds": 14788, "airport": 3199, "torn": 7950, "activation": 13791, "##א": 29788, "castes": 26254, "[unused555]": 560, "##landa": 24448, "tyrone": 18770, "hind": 17666, "borrowing": 23733, "requiem": 21199, "south": 2148, "undertaken": 10607, "戸": 1857, "##7th": 27506, "algebra": 11208, "manipulating": 26242, "313": 22997, "巿": 1837, "clans": 16411, "patrick": 4754, "lithuania": 9838, "mammals": 11993, "weekly": 4882, "helm": 16254, "gallery": 3916, "nunez": 28454, "blackened": 25788, "emerson": 12628, "##ther": 12399, "racer": 14878, "judas": 25326, "ᶜ": 1511, "☆": 1621, "##uses": 25581, "##nies": 15580, "1781": 16788, "##writer": 15994, "adriatic": 23400, "belmont": 17449, "simplicity": 17839, "oblique": 20658, "symphonies": 29355, "ulysses": 22784, "misty": 15167, "auditory": 28042, "nwa": 15737, "flyer": 23821, "kang": 16073, "press": 2811, "smacked": 19203, "christ": 4828, "fabio": 25616, "viceroy": 19007, "penetrating": 22391, "combatants": 26622, "##geny": 17487, "offensive": 5805, "wentworth": 20572, "ท": 1412, "##シ": 30232, "charming": 11951, "abstract": 10061, "dietary": 23444, "announcements": 25674, "alaska": 7397, "parlor": 18746, "respecting": 27818, "ditch": 14033, "##dilly": 28832, "movie": 3185, "bribes": 29117, "shipbuilding": 16802, "exeter": 12869, "pillar": 14809, "gasp": 12008, "##type": 13874, "groan": 13001, "weasel": 29268, "##kers": 11451, "[unused576]": 581, "1835": 10150, "chihuahua": 28480, "descent": 6934, "aubrey": 18961, "booker": 16674, "curiously": 16484, "resembles": 12950, "[unused124]": 129, "snake": 7488, "thrusting": 21468, "taut": 21642, "johnny": 5206, "powered": 6113, "voting": 6830, "##len": 7770, "penultimate": 25512, "utilized": 12550, "astrid": 27376, "possessive": 22105, "canal": 5033, "[unused587]": 592, "bacterium": 24024, "inventor": 12235, "md": 9108, "avenge": 24896, "despised": 26626, "movements": 5750, "competitor": 12692, "roof": 4412, "##linger": 23101, "trombone": 13914, "##aith": 22465, "hartman": 26766, "attaining": 26615, "sumner": 23922, "〈": 1637, "earn": 7796, "wants": 4122, "##ray": 9447, "idiots": 28781, "##nat": 19833, "commerce": 6236, "demand": 5157, "innocence": 12660, "soon": 2574, "doo": 20160, "applause": 20737, "assurance": 16375, "barney": 15377, "richie": 14411, "示": 1923, "superintendent": 9133, "##isan": 29196, "gustav": 13430, "eggs": 6763, "strait": 11195, "guiana": 23568, "availability": 11343, "[unused406]": 411, "modulation": 25502, "consecutive": 5486, "montenegrin": 24099, "higher": 3020, "topography": 21535, "plum": 22088, "##ctors": 24817, "wah": 22894, "##ibe": 20755, "##balls": 18510, "##vos": 19862, "cereal": 20943, "##bank": 9299, "##य": 29868, "##〜": 30171, "[unused758]": 763, "clothed": 24963, "inspector": 7742, "##jevic": 26782, "nation": 3842, "britannia": 24677, "philips": 19087, "crimes": 6997, "industrial": 3919, "sometimes": 2823, "represented": 3421, "##ו": 29792, "envy": 21103, "spilling": 18054, "harold": 7157, "homogeneous": 24854, "coalition": 6056, "hush": 20261, "##nche": 26091, "##忄": 30376, "nielsen": 13188, "##trust": 24669, "も": 1681, "bible": 6331, "scholars": 5784, "shelf": 11142, "garfield": 20170, "##heard": 26362, "evaluation": 9312, "maintains": 9319, "utilities": 16548, "##ganj": 22738, "doug": 8788, "wells": 7051, "groans": 27778, "##zzo": 12036, "76": 6146, "journals": 9263, "ᄃ": 1457, "smuggling": 19535, "dripping": 14309, "encoded": 12359, "franklin": 5951, "##la": 2721, "batsman": 13953, "but": 2021, "basic": 3937, "venetian": 15510, "##ʰ": 29706, "##mi": 4328, "[unused657]": 662, "friend": 2767, "garden": 3871, "kelvin": 24810, "das": 8695, "single": 2309, "indicating": 8131, "belgrade": 10291, "cougars": 26317, "sinn": 26403, "fifteenth": 16249, "exotic": 12564, "##ogical": 20734, "sutra": 26567, "##dley": 14232, "compose": 17202, "##500": 29345, "gomez": 12791, "83": 6640, "soft": 3730, "##rier": 16252, "##ean": 11219, "##lls": 12718, "arena": 5196, "settings": 10906, "##sle": 25016, "##wl": 13668, "afghan": 12632, "standardized": 16367, "retains": 14567, "slits": 29199, "dan": 4907, "dimly": 25361, "[unused646]": 651, "##any": 19092, "gall": 26033, "##$": 29615, "dangerously": 20754, "returned": 2513, "gardening": 21529, "##m": 2213, "##¢": 29645, "##gence": 17905, "berries": 22681, "raked": 22438, "utilizes": 21852, "volunteered": 14382, "beijing": 7211, "narrator": 11185, "condemn": 28887, "credible": 23411, "quran": 21288, "struggling": 8084, "##將": 30354, "backgrounds": 15406, "horticultural": 26235, "beit": 28236, "limo": 23338, "##ccus": 27631, "##etic": 16530, "ட": 1384, "immune": 11311, "matches": 3503, "##艹": 30465, "[unused662]": 667, "##tery": 20902, "certificate": 8196, "como": 18609, "cupboard": 25337, "scully": 25686, "##sk": 6711, "##tur": 20689, "buttons": 11287, "ceramic": 14692, "varies": 9783, "##ﬁ": 30510, "week": 2733, "incurred": 22667, "global": 3795, "mccormick": 23213, "ness": 23384, "grover": 25242, "provide": 3073, "larvae": 9673, "marley": 20326, "[unused801]": 806, "monumental": 15447, "サ": 1705, "percussion": 6333, "narrower": 22546, "##dm": 22117, "ghana": 9701, "##rill": 24714, "96": 5986, "[unused948]": 953, "obedience": 22645, "sgt": 17001, "sprayed": 25401, "##′": 30066, "nap": 18996, "aspiring": 22344, "showers": 23442, "##kas": 13716, "475": 28245, "clarissa": 25260, "residential": 5647, "dq": 25410, "slope": 9663, "amplifier": 22686, "journalism": 8083, "nose": 4451, "explosion": 7738, "mermaid": 22322, "tail": 5725, "750": 9683, "virtue": 11870, "##ll": 3363, "carving": 18441, "102": 9402, "do": 2079, "demands": 7670, "rugged": 17638, "##meo": 26247, "640": 19714, "1649": 26538, "##cial": 13247, "[unused162]": 167, "schleswig": 21173, "dieter": 27976, "touching": 7244, "崎": 1834, "י": 1250, "fines": 21892, "shades": 13178, "abnormal": 19470, "rt": 19387, "##ding": 4667, "rented": 12524, "sloop": 24786, "sociologist": 25106, "swimmer": 13361, "adoption": 9886, "grants": 8624, "jurisdiction": 7360, "##90": 21057, "christianity": 7988, "refuge": 9277, "##fusion": 20523, "cousins": 12334, "det": 20010, "##東": 30405, "kan": 22827, "vantage": 27274, "wand": 23967, "cambridgeshire": 24197, "wight": 20945, "saturated": 23489, "cricket": 4533, "fay": 23201, "##ⁱ": 30072, "##rie": 7373, "1946": 3918, "quarries": 27069, "##rase": 23797, "[unused947]": 952, "##ces": 9623, "messina": 27270, "managed": 3266, "swarm": 21708, "##ption": 16790, "##仁": 30284, "##burn": 8022, "wide": 2898, "padded": 20633, "priesthood": 17911, "equestrian": 19191, "1920": 4444, "##che": 5403, "##lom": 21297, "1949": 4085, "oneself": 25763, "goodnight": 22708, "racks": 27259, "recipe": 17974, "baldwin": 10970, "garnered": 13056, "jiangsu": 28091, "roland": 8262, "stereotypes": 22807, "epstein": 26646, "##uba": 19761, "acclaim": 10761, "alderman": 18977, "extremely": 5186, "##une": 9816, "negotiated": 13630, "sectional": 27197, "##oun": 23709, "noble": 7015, "##lbert": 23373, "##ħ": 29672, "relieve": 15804, "superstructure": 28391, "vendor": 21431, "ability": 3754, "classrooms": 12463, "handling": 8304, "venus": 11691, "smug": 20673, "courses": 5352, "##no": 3630, "courier": 18092, "nadia": 14942, "reliable": 10539, "1682": 29478, "acre": 7456, "jimi": 27624, "[unused480]": 485, "##islaus": 25678, "##lip": 15000, "##fting": 26169, "sullivan": 7624, "vortex": 23463, "281": 22955, "consumed": 10202, "flicked": 12777, "[unused813]": 818, "words": 2616, "donegal": 25415, "stacy": 18566, "т": 1197, "hospitals": 8323, "meter": 8316, "when": 2043, "deutschland": 28668, "∞": 1601, "##ored": 19574, "disguise": 14249, "novelty": 21160, "fare": 13258, "fluent": 19376, "rails": 15168, "tried": 2699, "##ა": 29974, "monuments": 10490, "regimental": 17604, "##vor": 14550, "soprano": 10430, "woven": 17374, "imagined": 8078, "constituencies": 13315, "wiley": 18825, "##ta": 2696, "derbyshire": 15207, "descended": 9287, "[unused516]": 521, "violins": 25877, "lindsey": 17518, "betrayed": 12056, "underwear": 14236, "halftime": 22589, "##nta": 12380, "##巿": 30363, "framework": 7705, "return": 2709, "##arth": 22425, "vega": 15942, "exterior": 8829, "notification": 26828, "##ᵖ": 30040, "trois": 25527, "##inga": 28234, "encryption": 21999, "kira": 15163, "syndication": 26973, "sas": 21871, "critique": 16218, "ft": 3027, "[unused968]": 973, "gotta": 10657, "arbitration": 18010, "chapters": 9159, "goals": 3289, "region": 2555, "##bard": 21458, "##bach": 7693, "##tate": 12259, "[unused756]": 761, "disaster": 7071, "bowl": 4605, "majestic": 22337, "emir": 23434, "wolverine": 22162, "agnes": 11166, "rc": 22110, "##bala": 25060, "91": 6205, "acceleration": 16264, "1855": 8492, "silently": 8601, "staircase": 10714, "cancellation": 16990, "orient": 16865, "sails": 17553, "blind": 6397, "davy": 23255, "policemen": 19809, "people": 2111, "biplane": 28686, "matched": 10349, "consolation": 24831, "spokesperson": 15974, "succumbed": 25642, "##j": 3501, "gershwin": 25600, "voice": 2376, "bungalow": 27563, "berlin": 4068, "migration": 9230, "##tad": 17713, "alvaro": 24892, "fae": 17282, "##22": 19317, "punjab": 9213, "秋": 1929, "they": 2027, "[unused694]": 699, "##う": 30174, "quest": 8795, "ordinance": 16692, "examined": 8920, "##ホ": 30248, "prix": 5431, "shouted": 6626, "napoleonic": 18813, "victory": 3377, "persians": 27229, "converts": 19884, "progress": 5082, "bulgarian": 7643, "undergone": 17215, "xvi": 16855, "iced": 28248, "scouts": 10158, "detention": 12345, "ladies": 6456, "[unused932]": 937, "embankment": 22756, "rudder": 24049, "migrated": 13447, "hazy": 26710, "japanese": 2887, "child": 2775, "dil": 29454, "fitz": 27706, "bearer": 20905, "hose": 21290, "manufactured": 7609, "wu": 8814, "czechoslovak": 21282, "grooves": 25880, "terrain": 9291, "massive": 5294, "##apes": 29040, "connectivity": 20831, "ensemble": 7241, "rna": 12987, "credits": 6495, "exodus": 16388, "reunited": 11653, "mae": 11530, "sip": 10668, "##kki": 24103, "brows": 11347, "##age": 4270, "47th": 28243, "functionality": 15380, "competent": 17824, "resided": 12427, "slowly": 3254, "·": 1087, "rotten": 11083, "##due": 20041, "##ped": 5669, "whole": 2878, "entire": 2972, "captives": 21496, "##χ": 29737, "##rch": 11140, "sundance": 20140, "1800s": 19878, "filmfare": 25648, "stefano": 19618, "postgraduate": 15438, "camps": 7958, "ya": 8038, "strangely": 13939, "initiative": 6349, "fredrik": 25454, "neighborhoods": 11681, "dogs": 6077, "sorcerer": 23324, "tor": 17153, "forcing": 6932, "plank": 24000, "mechanism": 7337, "stiffened": 16090, "francaise": 18427, "theory": 3399, "##isto": 20483, "##koto": 24886, "1907": 5528, "queensland": 5322, "wig": 24405, "gp": 14246, "downwards": 28457, "marathon": 8589, "manifesto": 17124, "cinematography": 16434, "injection": 13341, "bodies": 4230, "europe": 2885, "aston": 14327, "ordeal": 23304, "naive": 15743, "talents": 11725, "guantanamo": 23094, "goaltender": 21437, "withdrew": 6780, "concord": 16557, "##med": 7583, "reviewers": 15814, "sioux": 16615, "slowing": 18068, "southernmost": 21787, "whistling": 24350, "ɫ": 1120, "##wig": 16279, "ortega": 25859, "##›": 30068, "710": 27671, "dora": 21008, "rouge": 12801, "mysore": 20761, "appropriate": 6413, "wardrobe": 17828, "thoughtful": 16465, "wedding": 5030, "expenditures": 22697, "30th": 13293, "[unused112]": 117, "bowls": 15220, "species": 2427, "march": 2233, "compliment": 19394, "ー": 1739, "[unused668]": 673, "troopers": 26246, "castle": 3317, "unacceptable": 21873, "##з": 29744, "risking": 26875, "##gol": 24141, "bromwich": 27888, "birthday": 5798, "mathew": 25436, "encourages": 16171, "trucks": 9322, "##arney": 25831, "bags": 8641, "catchment": 22865, "francais": 22357, "anthologies": 25675, "gymnast": 25055, "handbook": 14812, "1540": 27536, "forewings": 13211, "necessarily": 9352, "し": 1657, "officially": 3985, "defaulted": 17265, "list": 2862, "朝": 1874, "##list": 9863, "abel": 16768, "hazel": 14015, "conde": 24707, "##mmon": 24521, "parcels": 28998, "##ndi": 16089, "somewhere": 4873, "2013": 2286, "##hre": 28362, "##坂": 30329, "258": 24398, "token": 19204, "spartans": 24293, "hiatus": 14221, "usc": 15529, "jimmy": 5261, "##ffe": 16020, "involving": 5994, "mrna": 28848, "spouse": 18591, "besieged": 17923, "labelled": 18251, "##eck": 11012, "emmanuel": 14459, "∩": 1604, "dreadful": 21794, "crowned": 10249, "keepers": 24018, "douglas": 5203, "advisor": 8619, "newspapers": 6399, "santo": 11685, "impression": 8605, "sighs": 19906, "ᆫ": 1485, "langdon": 15232, "organist": 16397, "pitching": 14696, "georgia": 4108, "##bian": 15599, "[unused712]": 717, "countdown": 18144, "spying": 22624, "seizing": 24681, "restrictions": 9259, "instituted": 14948, "deafening": 28840, "##uki": 14228, "propped": 16863, "འ": 1433, "aiding": 24791, "ノ": 1717, "##安": 30346, "am": 2572, "fix": 8081, "chromosomes": 26874, "constabulary": 23791, "diesel": 7937, "beside": 3875, "[unused491]": 496, "shipped": 12057, "intercourse": 23198, "##ab": 7875, "##fu": 11263, "lb": 6053, "46th": 27990, "february": 2337, "canning": 24549, "newport": 9464, "devoid": 22808, "yuan": 11237, "tend": 7166, "eileen": 20495, "##tablished": 28146, "stroked": 11699, "dissemination": 28170, "##efe": 27235, "coaster": 16817, "##rama": 14672, "##amen": 27245, "banks": 5085, "audition": 14597, "bankrupt": 17482, "employees": 5126, "##ching": 8450, "gypsy": 16006, "reacts": 27325, "converting": 16401, "rites": 17105, "identifiable": 27800, "pigment": 28815, "[unused57]": 58, "##δ": 29722, "dealings": 24069, "trained": 4738, "vanity": 18736, "guilty": 5905, "##jar": 16084, "seam": 25180, "1797": 14112, "##iac": 20469, "larger": 3469, "610": 19827, "fossils": 11954, "maritime": 7803, "[unused142]": 147, "strongly": 6118, "[unused766]": 771, "##von": 17789, "[unused955]": 960, "lowered": 6668, "balkan": 17581, "obsolete": 15832, "soy": 25176, "format": 4289, "##gative": 26792, "hardened": 15015, "chaired": 12282, "##rita": 17728, "replay": 15712, "##hism": 23108, "mars": 7733, "unsure": 12422, "benedict": 12122, "reprinted": 13603, "##ceae": 9071, "[unused643]": 648, "adler": 17969, "emerald": 14110, "homosexual": 15667, "frenchman": 26529, "mainly": 3701, "theaters": 12370, "##es": 2229, "jane": 4869, "paradise": 9097, "satisfaction": 9967, "pornography": 19378, "##ddy": 14968, "verified": 20119, "affiliates": 18460, "bet": 6655, "newly": 4397, "lit": 5507, "##ƒ": 29675, "##sities": 24279, "lure": 17256, "algerian": 16953, "antics": 27440, "consecrated": 12299, "snaps": 20057, "factions": 13815, "cloudy": 24706, "critics": 4401, "mystery": 6547, "andrei": 18125, "sells": 15187, "gazes": 23514, "salle": 18005, "ru": 21766, "##son": 3385, "twist": 9792, "council": 2473, "bobby": 6173, "package": 7427, "##ddled": 28090, "##ي": 14498, "blocking": 10851, "mccarthy": 12584, "##ttes": 14581, "stalls": 19753, "strawberry": 16876, "lionel": 14377, "kahn": 19361, "toned": 27604, "curses": 23897, "colonies": 8355, "glaciers": 21193, "picture": 3861, "##ย": 29952, "nuts": 12264, "shanghai": 8344, "ʐ": 1136, "alberta": 7649, "chooses": 15867, "shitty": 28543, "drop": 4530, "adequate": 11706, "diverted": 18356, "musicals": 20103, "pac": 14397, "inversion": 28527, "agricultural": 4910, "losers": 23160, "jia": 25871, "commencing": 25819, "goats": 17977, "superhero": 16251, "##orin": 28741, "psychedelic": 18147, "supplemental": 27024, "informal": 11900, "taxi": 10095, "##ost": 14122, "hearst": 25419, "bingo": 27137, "##naut": 24619, "tractors": 28292, "cuthbert": 24583, "galleries": 11726, "willis": 12688, "##w": 2860, "caught": 3236, "vols": 18709, "affluent": 22666, "juliana": 24157, "partnerships": 13797, "picnic": 12695, "##oping": 17686, "koppen": 20139, "##千": 30310, "lying": 4688, "[unused708]": 713, "##urai": 24804, "fraternity": 13577, "hiroshima": 20168, "blast": 8479, "horses": 5194, "inherit": 22490, "screened": 12238, "##eaux": 25639, "subdivided": 15369, "[unused875]": 880, "##պ": 29780, "[unused248]": 253, "print": 6140, "volunteers": 7314, "°f": 8157, "வ": 1394, "antrim": 24142, "barnsley": 25139, "belinda": 24574, "##meral": 28990, "##hole": 11484, "alba": 18255, "anchorage": 21086, "##48": 18139, "taller": 12283, "oklahoma": 5858, "yourselves": 25035, "ends": 4515, "mort": 22294, "written": 2517, "chords": 18495, "flavors": 26389, "[unused106]": 111, "exclusively": 7580, "breaking": 4911, "##oof": 21511, "##ca": 3540, "[unused78]": 79, "guo": 22720, "retire": 11036, "blushed": 19370, "##hri": 26378, "##lani": 21141, "##schen": 23796, "backed": 6153, "flash": 5956, "trolls": 27980, "recital": 25521, "louisiana": 5773, "recognition": 5038, "terri": 26568, "##osi": 20049, "ᴺ": 1494, "beyond": 3458, "flora": 10088, "[unused522]": 527, "smallpox": 25765, "##inton": 27028, "##cana": 28621, "level": 2504, "##ingham": 16445, "belarus": 12545, "genetic": 7403, "park": 2380, "##tique": 28437, "intricate": 17796, "pin": 9231, "command": 3094, "notions": 21951, "contender": 20127, "rhodes": 10588, "crowns": 24364, "shattering": 21797, "gee": 20277, "marianne": 19887, "dwelling": 13160, "joe": 3533, "##土": 30327, "appleton": 26050, "eliminating": 15349, "neglected": 15486, "elisa": 29490, "flush": 13862, "scuba": 28651, "tajikistan": 23538, "っ": 1663, "lori": 18669, "armies": 8749, "admiralty": 14179, "strife": 27865, "##ains": 28247, "##rize": 25709, "##personal": 28823, "1920s": 6641, "fen": 21713, "##ographic": 13705, "belongings": 20033, "thrusts": 25842, "asahi": 29465, "jordan": 5207, "prior": 3188, "tombstone": 26671, "regression": 26237, "##etti": 18319, "sin": 8254, "##10": 10790, "ascension": 18071, "dryly": 20825, "decomposition": 22511, "last": 2197, "##‖": 30054, "danzig": 26669, "##so": 6499, "conscious": 9715, "accuse": 26960, "fifteen": 5417, "offered": 3253, "dams": 17278, "3": 1017, "##《": 30165, "sparks": 12300, "##onda": 29067, "##mis": 15630, "lava": 13697, "stranded": 15577, "shutter": 28180, "caldwell": 16589, "##anov": 25417, "hierarchy": 12571, "an": 2019, "unfortunately": 6854, "harness": 17445, "tag": 6415, "##lka": 26518, "moaned": 12557, "##vili": 21661, "sealing": 23038, "adele": 17623, "joaquin": 16877, "ripple": 24644, "内": 1773, "##iance": 28335, "spirituality": 21244, "##usly": 27191, "liaison": 14975, "rhino": 24091, "vi": 6819, "duchy": 11068, "postdoctoral": 29272, "cobb": 17176, "##rons": 28212, "priest": 5011, "seven": 2698, "75th": 25092, "cory": 18342, "travelers": 15183, "payne": 13470, "continues": 4247, "ralph": 6798, "averaged": 11398, "retail": 7027, "scientology": 23845, "thereafter": 6920, "forehead": 6130, "##pts": 22798, "##morphic": 18078, "respective": 7972, "scope": 9531, "cried": 6639, "differently": 11543, "tornadoes": 22668, "peeling": 28241, "モ": 1727, "##irs": 18894, "##⁹": 30078, "##zi": 5831, "##zuka": 22968, "[unused774]": 779, "gail": 18576, "saxony": 13019, "premises": 10345, "bathrooms": 28942, "##力": 30304, "demonstrate": 10580, "photography": 5855, "##⊕": 30139, "bared": 23485, "##rge": 20800, "madeline": 16974, "cardinals": 9310, "gil": 13097, "##ق": 29834, "american": 2137, "##ien": 9013, "examples": 4973, "actually": 2941, "mozambique": 16274, "julius": 10396, "happy": 3407, "pump": 10216, "observed": 5159, "textual": 25304, "vidal": 29259, "1896": 6306, "hoop": 27669, "tortured": 12364, "unbearable": 24257, "##е": 15290, "centre": 2803, "annexation": 18985, "ethnicity": 18240, "nerves": 10627, "barrister": 19805, "lgbt": 12010, "minerals": 13246, "participation": 6577, "trailers": 21389, "scheduling": 19940, "inactive": 16389, "proficient": 27029, "engulfed": 24692, "overcome": 9462, "四": 1798, "doctors": 7435, "##fully": 7699, "pneumonia": 18583, "##ised": 5084, "expansive": 25145, "footage": 8333, "##т": 22919, "[unused784]": 789, "chatter": 24691, "[unused27]": 28, "viewing": 10523, "##pala": 19636, "##kowski": 15449, "amore": 26297, "auckland": 8666, "hepburn": 22004, "##uz": 17040, "20th": 3983, "##boro": 12691, "underworld": 13607, "գ": 1221, "sadness": 12039, "cracking": 15729, "##rys": 24769, "laude": 21602, "##sies": 14625, "gestured": 11574, "rourke": 24400, "door": 2341, "ل": 1294, "##walk": 17122, "pits": 14496, "fade": 12985, "greenville": 20967, "bryn": 19904, "horatio": 27752, "tin": 9543, "crafted": 19275, "hit": 2718, "odisha": 21874, "cans": 18484, "misleading": 22369, "sax": 19656, "counties": 5721, "symbolic": 12613, "##dog": 16168, "looks": 3504, "ethernet": 26110, "nic": 27969, "pitt": 15091, "##lc": 15472, "##points": 26521, "painters": 12499, "source": 3120, "sumatra": 18262, "##tension": 29048, "##rade": 13662, "1772": 17483, "occupying": 13992, "boss": 5795, "chronological": 23472, "niagara": 15473, "prevailed": 19914, "qualifications": 15644, "nordic": 13649, "smiling": 5629, "##rao": 25667, "nsw": 11524, "special": 2569, "openings": 16556, "precisely": 10785, "graeme": 21840, "##ے": 29846, "##ye": 6672, "sudden": 5573, "vaults": 28658, "lakeside": 28701, "debuted": 6006, "enactment": 26465, "##⊗": 30140, "男": 1912, "effectively": 6464, "tingle": 25792, "rocks": 5749, "reflected": 7686, "thirteenth": 14725, "yale": 7996, "parish": 3583, "##ere": 7869, "artists": 3324, "coordinator": 10669, "andrew": 4080, "unchanged": 15704, "computed": 24806, "galway": 14370, "hundred": 3634, "triggering": 29170, "boar": 24187, "adapt": 15581, "##key": 14839, "defending": 6984, "further": 2582, "##™": 30108, "interests": 5426, "##ary": 5649, "necessity": 13185, "seen": 2464, "held": 2218, "##евич": 22646, "standalone": 26609, "ported": 27650, "locker": 12625, "##न": 29863, "galaxies": 21706, "295": 21679, "##inia": 23309, "##<": 29629, "hirsch": 28127, "=": 1027, "livingston": 14109, "needs": 3791, "sec": 10819, "externally": 27223, "murdoch": 19954, "blame": 7499, "imposed": 9770, "wc": 15868, "##cc": 9468, "1830": 9500, "я": 1210, "declared": 4161, "##kell": 18690, "company": 2194, "origins": 7321, "briefing": 27918, "stitches": 25343, "establish": 5323, "reset": 25141, "sweetly": 22557, "myles": 27056, "dex": 20647, "priestess": 27677, "corvette": 22687, "brody": 19631, "dorchester": 27252, "##bation": 23757, "climbing": 8218, "electrical": 5992, "protections": 28548, "##ened": 6675, "multimedia": 14959, "accumulated": 14830, "entertainer": 21751, "otter": 22279, "concurrently": 15442, "execute": 15389, "static": 10763, "births": 18250, "hadn": 2910, "lime": 14123, "##izes": 10057, "commune": 5715, "should": 2323, "stamp": 11359, "##a": 2050, "[unused973]": 978, "expedition": 5590, "josephine": 16117, "##ations": 10708, "protesting": 21248, "406": 27433, "[unused488]": 493, "thankfully": 16047, "procurement": 21423, "##oli": 10893, "cubic": 11919, "stripes": 13560, "advantages": 12637, "##rri": 18752, "##ilde": 23891, "73": 6421, "bother": 8572, "##ignon": 24796, "continuum": 22961, "manipulation": 16924, "##ythe": 26688, "coefficients": 21374, "emeritus": 12372, "pathways": 16910, "tavi": 24283, "fm": 4718, "gregory": 7296, "1736": 28192, "stumbling": 19730, "denis": 11064, "wavy": 23098, "recalled": 7383, "ahl": 18347, "wetlands": 16630, "##dge": 11818, "##nco": 15305, "offended": 15807, "₅": 1552, "trout": 13452, "[unused355]": 360, "bard": 22759, "edited": 5493, "relaxed": 8363, "con": 9530, "excelled": 23081, "##ol": 4747, "nostrils": 15325, "dye": 18554, "prague": 8634, "replication": 21647, "privately": 9139, "mutter": 23457, "panic": 6634, "##quay": 25575, "##chet": 20318, "lai": 21110, "supplies": 6067, "##play": 13068, "reference": 4431, "##py": 7685, "[unused517]": 522, "##ille": 10484, "1701": 26059, "[unused294]": 299, "engraver": 27771, "football": 2374, "fruits": 10962, "野": 1963, "recover": 8980, "presently": 12825, "methodology": 16134, "shillings": 29332, "certainty": 15855, "subset": 16745, "river": 2314, "[unused849]": 854, "fin": 10346, "recommends": 26021, "і": 1213, "ミ": 1724, "covert": 19813, "wake": 5256, "studios": 4835, "records": 2636, "##bling": 9709, "##↓": 30114, "850": 15678, "201": 16345, "[unused390]": 395, "doesn": 2987, "spun": 7455, "lesbian": 11690, "fishes": 21995, "perhaps": 3383, "limiting": 14879, "##hos": 15006, "relation": 7189, "confirming": 19195, "newscast": 20306, "george": 2577, "union": 2586, "inland": 9514, "genocide": 14052, "artificial": 7976, "failing": 7989, "æ": 1097, "1877": 7557, "tools": 5906, "##lver": 26229, "##yeh": 25673, "##rac": 22648, "eliot": 16292, "restored": 5854, "submarines": 12622, "healthy": 7965, "##lein": 19856, "yanked": 10963, "fragment": 15778, "mainz": 19876, "22nd": 13816, "ʾ": 1147, "pajamas": 27621, "enforce": 16306, "##mura": 16069, "512": 24406, "annum": 28907, "quentin": 15969, "pilgrims": 17992, "##60": 16086, "unavailable": 20165, "cardiff": 10149, "lunatic": 26594, "theodor": 21448, "presented": 3591, "##able": 3085, "lei": 26947, "296": 27200, "led": 2419, "cecil": 11978, "prohibition": 13574, "pouring": 13053, "woods": 5249, "‚": 1522, "crashing": 12894, "infrared": 14611, "##aki": 8978, "##num": 19172, "pace": 6393, "wei": 11417, "roaring": 17197, "dd": 20315, "underneath": 7650, "demographic": 15982, "coined": 13279, "lucien": 11732, "80s": 16002, "##uke": 15851, "incomplete": 12958, "##pad": 15455, "meanings": 15383, "albert": 4789, "shocking": 16880, "spray": 12509, "clown": 15912, "favourites": 28271, "populous": 20151, "alliance": 4707, "wanted": 2359, "eagle": 6755, "##თ": 29980, "licenses": 15943, "redesign": 25136, "taught": 4036, "－": 1990, "##sfield": 15951, "##tish": 24788, "ʰ": 1140, "rather": 2738, "alternatively": 14084, "divisions": 5908, "1910": 4976, "[unused917]": 922, "poorer": 27196, "##maid": 28478, "robertson": 9923, "island": 2479, "bee": 10506, "salisbury": 13817, "hurting": 11878, "sonic": 12728, "elijah": 14063, "helena": 10269, "cruz": 8096, "##hir": 11961, "clement": 12223, "flashes": 16121, "##tera": 14621, "chance": 3382, "grange": 18203, "knicks": 27817, "##meric": 25531, "pass": 3413, "spanish": 3009, "layers": 9014, "tiffany": 14381, "interpretation": 7613, "provisional": 10864, "bulldogs": 15120, "##heimer": 18826, "manuscripts": 10485, "yellowish": 17804, "##ᄊ": 29998, "##typic": 23186, "veteran": 8003, "collaborative": 12317, "undercover": 16382, "bc": 4647, "consequence": 9509, "mala": 28935, "yoga": 13272, "wince": 29585, "##evich": 16277, "liu": 8607, "monster": 6071, "binary": 12441, "##pling": 14353, "##rger": 25858, "liberty": 7044, "require": 5478, "acquainted": 19056, "marcelo": 24984, "##earing": 27242, "continuity": 13717, "##.": 29625, "din": 11586, "aircraft": 2948, "endurance": 14280, "1807": 13206, "willard": 19138, "sheath": 21867, "##fur": 27942, "##pin": 8091, "fellow": 3507, "value": 3643, "crawley": 28854, "despair": 13905, "##rata": 14660, "av": 20704, "##士": 30333, "κ": 1164, "[unused674]": 679, "snakes": 12971, "##ctuated": 25638, "》": 1640, "315": 22904, "wrenched": 26971, "##holes": 19990, "must": 2442, "electromagnetic": 17225, "sunset": 10434, "tyler": 7482, "ladder": 10535, "barony": 19365, "##chio": 23584, "##目": 30444, "sung": 7042, "##uron": 21017, "to": 2000, "guild": 9054, "tension": 6980, "##え": 30175, "forgive": 9641, "territories": 6500, "brewery": 12161, "##arts": 20591, "[unused34]": 35, "jordanian": 26276, "terminology": 18444, "strain": 10178, "scandinavia": 20612, "academia": 16926, "1846": 9244, "cutler": 24975, "houses": 3506, "monsieur": 21380, "shuddered": 13937, "rhymes": 24468, "ξ": 1168, "##ache": 15395, "capita": 8353, "##hic": 16066, "[unused993]": 998, "nerve": 9113, "州": 1836, "##bah": 24206, "lebanon": 8341, "yo": 10930, "groceries": 26298, "meeting": 3116, "raped": 15504, "kidnapped": 11364, "##rnik": 26437, "helmet": 10412, "π": 1170, "patterson": 12424, "shove": 14738, "buses": 7793, "convoys": 23083, "gaped": 23832, "##gb": 18259, "symbolism": 22050, "executing": 23448, "##₅": 30081, "##cker": 9102, "wylie": 29152, "bridges": 7346, "numbers": 3616, "script": 5896, "times": 2335, "##lay": 8485, "luxury": 9542, "##qual": 26426, "##eda": 11960, "1769": 20663, "loosened": 22456, "punching": 19477, "[unused911]": 916, "[unused825]": 830, "amos": 13744, "mobilized": 27526, "guys": 4364, "dispersed": 15484, "##raine": 26456, "levels": 3798, "##finger": 20349, "ab": 11113, "##erine": 24226, "291": 27173, "united": 2142, "backyard": 16125, "slaughter": 14574, "feed": 5438, "osborn": 26999, "tae": 22297, "zheng": 20985, "1887": 6837, "atrium": 26204, "crowley": 20748, "extract": 14817, "authorship": 26324, "spear": 12341, "[unused75]": 76, "boyd": 12164, "299": 25926, "glared": 9400, "##hui": 20552, "’": 1521, "stability": 9211, "গ": 1355, "mozart": 13177, "pistons": 24399, "##iens": 24836, "pursue": 7323, "participated": 4194, "under": 2104, "catfish": 23723, "wandered": 13289, "iowa": 5947, "coverage": 6325, "harvest": 11203, "ochreous": 23474, "##cm": 27487, "##tangled": 27898, "&": 1004, "tinted": 25577, "unlock": 19829, "##京": 30281, "riddle": 21834, "£5": 27813, "bridget": 19218, "##ai": 4886, "orthodoxy": 26582, "ox": 23060, "##hoot": 23416, "##nov": 16693, "magnesium": 24983, "zen": 16729, "substantive": 27737, "##mad": 25666, "landowners": 20152, "##ovic": 9142, "trembled": 14823, "verandah": 26153, "australia": 2660, "fracture": 19583, "recreation": 8640, "cautious": 17145, "storm": 4040, "terrace": 11134, "handicap": 15822, "launch": 4888, "eighteenth": 12965, "##rosis": 29166, "##anne": 20147, "pie": 11345, "##lass": 27102, "anybody": 10334, "bilateral": 17758, "duran": 22959, "leagues": 8121, "barnett": 20073, "observer": 9718, "passports": 19494, "##rp": 14536, "##olt": 27914, "afforded": 22891, "##24": 18827, "directorial": 21635, "stiffly": 27499, "airfield": 9087, "с": 1196, "##itic": 18291, "[unused563]": 568, "##ɣ": 29683, "unexpectedly": 14153, "musician": 5455, "flirt": 27978, "##ffen": 18032, "148": 16459, "gets": 4152, "wizards": 16657, "1930s": 5687, "prices": 7597, "[unused589]": 594, "##gren": 13565, "resolution": 5813, "thirst": 21810, "geography": 10505, "##gging": 12588, "cheng": 15898, "gloria": 10778, "##color": 18717, "viii": 9937, "italians": 16773, "noel": 10716, "korea": 4420, "sandra": 12834, "canvas": 10683, "versions": 4617, "weak": 5410, "jim": 3958, "recently": 3728, "##iques": 19516, "##ி": 29932, "polite": 13205, "##נ": 29803, "care": 2729, "difference": 4489, "empty": 4064, "##mani": 20799, "episodes": 4178, "helmut": 24515, "outstanding": 5151, "##out": 5833, "roadside": 25131, "skilled": 10571, "afc": 10511, "optical": 9380, "χ": 1177, "##！": 30512, "rig": 19838, "miniature": 12973, "sudbury": 26487, "##holm": 18884, "つ": 1664, "miner": 18594, "jed": 24401, "70": 3963, "mojo": 28017, "steven": 7112, "charlotte": 5904, "[unused889]": 894, "##ptic": 20746, "husbands": 19089, "blanchard": 26870, "##pping": 14853, "hu": 15876, "antarctica": 12615, "edna": 21051, "[unused51]": 52, "##lars": 28695, "mitochondrial": 23079, "##〈": 30163, "ி": 1396, "##rval": 26585, "drain": 12475, "##ulated": 8898, "##anger": 25121, "potato": 14557, "1746": 24507, "aligned": 13115, "tends": 12102, "tub": 14366, "morale": 19292, "symmetry": 14991, "##plin": 28296, "##enne": 24336, "tucker": 9802, "jaguar": 16490, "passive": 13135, "wireless": 9949, "##buro": 23670, "liverpool": 6220, "babe": 11561, "demolition": 12451, "hawk": 9881, "musique": 25784, "novels": 6002, "masonic": 21152, "##vs": 15088, "##wide": 22517, "##ety": 27405, "red": 2417, "伊": 1762, "gora": 26967, "ल": 1334, "##itung": 28813, "[unused606]": 611, "##uven": 27346, "artemis": 19063, "iihf": 26904, "sandwich": 11642, "disorders": 10840, "[unused961]": 966, "##ction": 7542, "anywhere": 5973, "momentum": 11071, "navigation": 9163, "suffix": 16809, "spill": 14437, "tremor": 27734, "larry": 6554, "##tted": 16190, "impatient": 17380, "##jm": 24703, "differentiate": 21032, "presumed": 14609, "census": 2883, "squeak": 29552, "finalized": 23575, "southampton": 11833, "endured": 16753, "##ifolia": 29244, "##ffled": 28579, "##■": 30144, "kilometers": 7338, "millennium": 10144, "poultry": 22468, "residing": 7154, "ᵐ": 1502, "1666": 27407, "tricked": 24929, "discreet": 29321, "slippery": 22274, "improved": 5301, "injury": 4544, "##board": 6277, "34th": 20460, "clade": 21697, "additions": 13134, "realities": 22213, "hallway": 6797, "piano": 3682, "##por": 17822, "##words": 22104, "automatic": 6882, "uploaded": 21345, "honesty": 16718, "boots": 6879, "halo": 17201, "1880s": 12751, "siegfried": 25948, "bearded": 23905, "docks": 15093, "sets": 4520, "##а": 10260, "##म": 29867, "brands": 9639, "crate": 27297, "whitaker": 27049, "イ": 1695, "flatly": 24295, "counters": 24094, "##mut": 28120, "admitting": 17927, "skulls": 21542, "marlins": 27055, "[unused330]": 335, "nearer": 20388, "18th": 4985, "seeded": 13916, "##cao": 20808, "lambda": 23375, "1665": 27676, "##joy": 24793, "[unused481]": 486, "archway": 28189, "dahl": 27934, "amazingly": 29350, "york": 2259, "burrows": 22009, "rob": 6487, "ballard": 21896, "tunnel": 5234, "reflections": 16055, "renovated": 10601, "deity": 12764, "item": 8875, "mused": 22335, "ronan": 18633, "##ight": 18743, "##llus": 20159, "1981": 3261, "cockpit": 13828, "##zon": 11597, "##郎": 30484, "newmarket": 22489, "patrol": 6477, "ہ": 1308, "##mans": 15154, "life": 2166, "humane": 23369, "##ια": 27432, "bolts": 19947, "##cin": 15459, "##ape": 24065, "duc": 26363, "modes": 11583, "₃": 1550, "vida": 19830, "swam": 16849, "second": 2117, "footprints": 24629, "fills": 17469, "##wald": 11191, "kade": 26159, "##ving": 6455, "##ware": 8059, "222": 19015, "vienna": 6004, "##ritan": 25279, "behalf": 6852, "evacuate": 22811, "mile": 3542, "protective": 9474, "fingernails": 21243, "gradual": 16612, "abu": 8273, "bertha": 25079, "salvation": 12611, "noise": 5005, "shenzhen": 26555, "tearing": 13311, "climbed": 6589, "unidentified": 20293, "unveiled": 11521, "idea": 2801, "##gnan": 28207, "odor": 19255, "##acious": 20113, "##ege": 24746, "##fia": 22749, "snatch": 23365, "xiii": 15031, "larsen": 20094, "[unused915]": 920, "blacksmith": 20987, "allow": 3499, "purchased": 4156, "leadership": 4105, "clasp": 23465, "enzymes": 16285, "##romatic": 23645, "different": 2367, "∇": 1595, "##nic": 8713, "arid": 17511, "[unused44]": 45, "penned": 17430, "appeals": 9023, "slovakia": 10991, "product": 4031, "##oue": 27872, "snack": 19782, "[unused686]": 691, "present": 2556, "calculus": 19276, "surprised": 4527, "georgetown": 12982, "##^": 29637, "longevity": 26906, "##メ": 30252, "##ional": 19301, "marshal": 8610, "creative": 5541, "##nary": 24041, "plotting": 20699, "mandal": 24373, "maui": 28566, "refreshing": 27150, "##front": 12792, "pilot": 4405, "[unused441]": 446, "judith": 12924, "enraged": 18835, "overs": 15849, "mrs": 3680, "##nched": 19282, "montagu": 26241, "forward": 2830, "disturbance": 16915, "brisbane": 7717, "robe": 11111, "ensembles": 21528, "1824": 11617, "contemporaries": 16682, "giving": 3228, "lighted": 26390, "sonny": 13584, "grassland": 20331, "##rva": 19146, "##nese": 14183, "vinnie": 24214, "broadcasters": 18706, "brigham": 22727, "engaging": 11973, "cleaning": 9344, "plagued": 17808, "stays": 12237, "tits": 25671, "eaten": 8828, "lone": 10459, "chaotic": 19633, "futuristic": 28971, "##icides": 22698, "fundamental": 8050, "clubs": 4184, "reflects": 11138, "assisting": 13951, "political": 2576, "[unused828]": 833, "spears": 13957, "sting": 12072, "ama": 25933, "canoe": 14347, "##ruff": 26919, "hawke": 24882, "batavia": 28917, "leyte": 27214, "symptoms": 8030, "##tius": 22638, "1st": 3083, "whilst": 5819, "critically": 11321, "reactivated": 28577, "##av": 11431, "informant": 28694, "##life": 15509, "1940s": 7675, "spelled": 11479, "##hunter": 25629, "maze": 15079, "playful": 18378, "shining": 9716, "strengthen": 12919, "andrea": 8657, "sparkling": 16619, "##uity": 18518, "##vern": 23062, "##buck": 24204, "mayor": 3664, "mumbled": 11567, "palestinian": 9302, "controlled": 4758, "##real": 22852, "##kota": 27380, "chevalier": 22019, "feedback": 12247, "tongues": 19677, "ظ": 1287, "dyer": 23494, "complexity": 11619, "windows": 3645, "##och": 11663, "##ю": 29757, "idiot": 10041, "ལ": 1435, "charted": 12568, "ら": 1685, "##set": 13462, "limit": 5787, "theatre": 3004, "exercising": 28428, "mp": 6131, "fever": 9016, "genuinely": 15958, "conservatives": 11992, "sagged": 26719, "nash": 10594, "asiatic": 23983, "undergo": 13595, "小": 1829, "shade": 8703, "##iling": 16281, "rowan": 14596, "universe": 5304, "messengers": 28938, "##tte": 4674, "invasion": 5274, "narrated": 17356, "seminal": 20603, "squid": 26852, "##pol": 18155, "acoustic": 6490, "##odes": 19847, "##ш": 29753, "harp": 14601, "painter": 5276, "##nge": 15465, "resides": 11665, "communion": 15661, "calculate": 18422, "♦": 1626, "deprived": 17676, "principally": 16552, "##54": 27009, "##rman": 14515, "[unused53]": 54, "apartment": 4545, "cluster": 9324, "golfer": 20601, "intelligent": 9414, "shepard": 22189, "##hman": 13890, "shaping": 20300, "[unused701]": 706, "nectar": 24816, "badly": 6649, "preference": 12157, "sphinx": 27311, "amend": 27950, "forearms": 27323, "t": 1056, "[unused76]": 77, "commandant": 15254, "raju": 25098, "master": 3040, "paolo": 14174, "champaign": 28843, "thereof": 21739, "ballet": 7250, "大": 1810, "naming": 10324, "ave": 13642, "pianos": 27864, "[unused914]": 919, "1730": 23272, "##uman": 19042, "calgary": 10112, "[unused536]": 541, "wounded": 5303, "[unused792]": 797, "adventurer": 29506, "rebel": 8443, "presses": 14616, "staying": 6595, "29th": 16318, "##ɬ": 29687, "angeles": 3349, "davies": 9082, "locations": 5269, "mora": 26821, "thinking": 3241, "良": 1938, "crushed": 10560, "dortmund": 23912, "compatibility": 21778, "exclusion": 15945, "##alic": 27072, "burst": 6532, "##pled": 21132, "##rbin": 27366, "jameson": 22324, "##mide": 24284, "##anu": 24076, "acquiring": 13868, "byzantine": 8734, "javelin": 23426, "##onia": 12488, "murderous": 25303, "concrete": 5509, "popping": 20095, "qb": 26171, "recommendations": 11433, "##rba": 28483, "amc": 21962, "sorts": 11901, "striker": 11854, "flaws": 21407, "scale": 4094, "##section": 29015, "13": 2410, "る": 1687, "villains": 16219, "influenza": 24442, "around": 2105, "hanna": 10579, "##mite": 23419, "lives": 3268, "##bate": 20179, "##icient": 20132, "##zy": 9096, "dancing": 5613, "routing": 16972, "nikki": 14470, "isabelle": 13942, "mariano": 22695, "audi": 20075, "relocated": 7448, "grips": 24758, "saxophone": 8283, "##ower": 25114, "treasures": 17605, "sensation": 8742, "lettering": 25782, "recent": 3522, "choose": 5454, "##？": 30520, "##dian": 11692, "bonuses": 29563, "traced": 9551, "∘": 1599, "croix": 18733, "##¾": 29665, "ending": 4566, "gymnasium": 11288, "veins": 9607, "harvard": 5765, "yong": 18999, "ₖ": 1565, "passing": 4458, "obstruction": 27208, "nina": 9401, "loaned": 13190, "malaysian": 11843, "wan": 14071, "##sław": 23305, "assists": 8456, "linnaeus": 21610, "moose": 17716, "##uru": 14129, "brunswick": 9192, "kanye": 29270, "##tones": 11115, "ch": 10381, "punched": 11696, "##aur": 21159, "discomfort": 17964, "stake": 8406, "##osing": 18606, "cavity": 17790, "3a": 23842, "ernesto": 22428, "##uca": 18100, "[unused307]": 312, "##pire": 20781, "48th": 27787, "commemorates": 25530, "##ischen": 24488, "infringement": 20701, "tunis": 25317, "used": 2109, "##brand": 23544, "marx": 13518, "beams": 13110, "spread": 3659, "266": 25162, "##att": 19321, "carmen": 11425, "spa": 12403, "fewer": 8491, "twin": 5519, "gable": 13733, "495": 29302, "purely": 11850, "waldo": 28806, "[unused856]": 861, "books": 2808, "dennis": 6877, "gotham": 22814, "madagascar": 11934, "specify": 20648, "analytics": 25095, "evacuation": 13982, "assumed": 5071, "##tree": 13334, "regularly": 5570, "restrain": 28467, "seton": 28796, "##ifying": 11787, "unitarian": 25477, "sindh": 20284, "pasta": 24857, "##you": 29337, "relocate": 20102, "michelangelo": 27701, "1747": 24522, "##øy": 27688, "600": 5174, "thousand": 4595, "aden": 16298, "##phobia": 24920, "badges": 23433, "innsbruck": 28914, "thom": 19438, "kappa": 16000, "eu": 7327, "1980s": 3865, "fearful": 19725, "joey": 9558, "pink": 5061, "sloane": 17558, "portrayal": 13954, "com": 4012, "##rly": 21194, "dali": 29095, "##fall": 13976, "##itz": 8838, "beverley": 29057, "##ח": 29794, "[unused870]": 875, "deliver": 8116, "alley": 8975, "aqua": 28319, "##ghton": 21763, "##manship": 21530, "weathered": 28445, "н": 1192, "福": 1926, "defective": 28829, "dynamic": 8790, "regime": 6939, "argue": 7475, "5000": 13509, "##bson": 27355, "bananas": 26191, "tap": 11112, "287": 23090, "upgraded": 9725, "1712": 28460, "##breakers": 27623, "party": 2283, "stacks": 20829, "sleeve": 10353, "emerge": 12636, "[unused228]": 233, "nope": 16780, "ostensibly": 23734, "2010s": 26817, "[unused546]": 551, "elevations": 18166, "jody": 27562, "purse": 8722, "stanley": 6156, "hardness": 23608, "ˤ": 1154, "interstate": 7553, "coroner": 22896, "feud": 13552, "##nir": 29339, "##relli": 22948, "seizure": 18634, "sienna": 20210, "jenkins": 11098, "ns": 24978, "netflix": 20907, "285": 21777, "##cini": 27085, "controversy": 6704, "##gizing": 28660, "galactic": 21375, "sixth": 4369, "##tone": 5524, "##lynn": 27610, "encompass": 25281, "jae": 22770, "configured": 26928, "1550": 26245, "barrels": 13826, "truck": 4744, "indexed": 25331, "wolf": 4702, "spade": 23288, "[unused802]": 807, "##udged": 27066, "##mber": 21784, "alexei": 21219, "lust": 11516, "hour": 3178, "##jean": 27687, "paw": 22195, "mitchell": 6395, "continually": 14678, "time": 2051, "mighty": 10478, "cobalt": 25627, "clarence": 11805, "compensate": 19079, "brethren": 17937, "parks": 6328, "##fles": 28331, "meyrick": 15228, "armor": 8177, "yard": 4220, "₀": 1547, "mor": 22822, "##rdan": 26992, "croatia": 8097, "bao": 25945, "lynx": 22636, "self": 2969, "4th": 4343, "wingspan": 9635, "commencement": 20561, "gripping": 13940, "supernatural": 11189, "matching": 9844, "heat": 3684, "740": 25833, "##nca": 20909, "exited": 15284, "haven": 4033, "minus": 15718, "ancient": 3418, "sherlock": 20052, "##phile": 24862, "##acio": 21361, "specifications": 15480, "1756": 22370, "ottomans": 17774, "purcell": 26429, "immensely": 24256, "luis": 6446, "pops": 16949, "[unused241]": 246, "cheerleading": 25721, "collection": 3074, "bianca": 18051, "city": 2103, "jars": 25067, "ு": 1397, "voted": 5444, "radicals": 23618, "immature": 26838, "##lette": 27901, "connected": 4198, "herbert": 7253, "check": 4638, "keyboardist": 20173, "rough": 5931, "[unused572]": 577, "additive": 29167, "##iidae": 15648, "730": 28004, "liquid": 6381, "download": 8816, "##ising": 9355, "##till": 28345, "exhibit": 8327, "horrible": 9202, "##彳": 30371, "neo": 9253, "enterprise": 6960, "dedicated": 4056, "implementing": 14972, "franchises": 22506, "observe": 11949, "##kle": 19099, "margot": 29210, "directorate": 13634, "melting": 13721, "sensible": 21082, "obtain": 6855, "##cene": 17968, "underlying": 10318, "##গ": 29891, "277": 25578, "marion": 10115, "numbering": 15200, "actors": 5889, "aix": 28443, "##長": 30493, "analog": 11698, "1815": 10679, "jurist": 22757, "proposes": 17146, "bias": 13827, "gao": 17377, "[unused255]": 260, "##ichi": 11319, "remington": 25282, "microsoft": 7513, "pork": 15960, "##張": 30370, "rat": 9350, "1884": 6988, "##ה": 29128, "monastic": 17361, "appropriated": 29223, "absence": 6438, "gan": 25957, "turret": 14493, "[unused190]": 195, "shell": 5806, "##vres": 24790, "challenges": 7860, "##isha": 24032, "[unused165]": 170, "indiana": 5242, "cupped": 13740, "shorter": 7820, "soap": 7815, "bret": 25626, "cameron": 7232, "trades": 14279, "ᄏ": 1466, "##ioned": 19798, "minimum": 6263, "digging": 10443, "foundations": 10100, "##ס": 29804, "ty": 5939, "##eman": 16704, "##ion": 3258, "meal": 7954, "sabrina": 21876, "portrait": 6533, "##dermott": 29370, "##quitable": 28298, "warning": 5432, "roommate": 18328, "##elis": 29282, "##opers": 27342, "limerick": 15679, "bravery": 16534, "feral": 18993, "stuffing": 28652, "apparatus": 14709, "##gate": 5867, "malone": 16321, "puppy": 17022, "twigs": 27964, "balcony": 11673, "prized": 25695, "##ents": 11187, "##ז": 29793, "ravi": 16806, "##₩": 30101, "albrecht": 25542, "##ট": 29895, "vernacular": 18485, "peanut": 21443, "##ᴰ": 30028, "strategy": 5656, "al": 2632, "apartheid": 17862, "flexible": 12379, "walled": 17692, "feather": 15550, "1795": 13397, "malacca": 28481, "mimic": 23150, "[unused160]": 165, "militant": 16830, "atp": 12649, "##dha": 17516, "peppers": 23582, "ultra": 11087, "##hot": 12326, "responsible": 3625, "kiara": 28870, "boundary": 6192, "tragic": 13800, "武": 1889, "[unused723]": 728, "##ε": 29723, "conventional": 7511, "declare": 13520, "ominous": 23504, "overwhelming": 10827, "champion": 3410, "john": 2198, "##lating": 22248, "gui": 26458, "insignificant": 27018, "nods": 11232, "panties": 12095, "official": 2880, "withdrawn": 9633, "tonnes": 11000, "dna": 6064, "jan": 5553, "##ista": 11921, "presumably": 10712, "scoop": 23348, "frenzy": 21517, "##y": 2100, "pick": 4060, "##zone": 15975, "eligible": 7792, "jamestown": 27435, "quantities": 12450, "rained": 28270, "1648": 22533, "##bag": 16078, "##ね": 30196, "stands": 4832, "proposed": 3818, "##ρ": 29732, "shopping": 6023, "turkic": 22926, "1767": 21502, "pitted": 25895, "##etano": 28752, "labrador": 18604, "lisa": 7059, "utopia": 26425, "341": 28358, "taliban": 16597, "ed": 3968, "intervention": 8830, "vh1": 26365, "reese": 15883, "bitterly": 19248, "pastures": 24813, "##gles": 17125, "##gating": 16961, "limitation": 22718, "residents": 3901, "enforcing": 27455, "##ple": 10814, "enterprises": 9926, "bleed": 19501, "nodes": 14164, "vain": 15784, "bailey": 8925, "math": 8785, "fault": 6346, "##rest": 28533, "fellowship": 7881, "##―": 30053, "indies": 9429, "piccolo": 29368, "sanctions": 17147, "doubled": 11515, "[unused742]": 747, "##ups": 22264, "turrets": 21088, "##cuting": 29163, "[unused977]": 982, "advisors": 18934, "marge": 25532, "billboard": 4908, "ring": 3614, "realized": 3651, "##olio": 29401, "floppy": 28491, "##urance": 25863, "accountable": 26771, "[unused58]": 59, "judah": 23022, "1904": 5692, "captures": 19566, "clare": 11152, "gear": 6718, "ก": 1409, "rays": 9938, "[unused362]": 367, "མ": 1432, "##roid": 22943, "preservation": 8347, "christi": 21359, "hedge": 17834, "image": 3746, "grammatical": 24402, "[unused984]": 989, "##hand": 11774, "wilkes": 20635, "[unused440]": 445, "turks": 12896, "##lin": 4115, "toys": 10899, "##us": 2271, "skipped": 16791, "stimulus": 19220, "wait": 3524, "emails": 22028, "1973": 3381, "judging": 13325, "contracting": 21012, "##23": 21926, "permitting": 24523, "bleak": 21657, "chung": 15972, "##gum": 22850, "sac": 17266, "brushes": 22569, "formally": 6246, "goodness": 15003, "sermon": 18408, "slavery": 8864, "leith": 29011, "andy": 5557, "[PAD]": 0, "[unused710]": 715, "leland": 27134, "##iot": 25185, "morales": 17103, "mic": 23025, "##lovic": 29356, "##和": 30322, "د": 1278, "₉": 1556, "rendition": 19187, "##lit": 15909, "hear": 2963, "m2": 25525, "marriage": 3510, "memory": 3638, "rafe": 15819, "##伊": 30288, "leader": 3003, "staggered": 14648, "monaco": 14497, "persecution": 14522, "snails": 13482, "xml": 20950, "##ms": 5244, "##ほ": 30202, "##eth": 11031, "lamb": 12559, "lawsuit": 9870, "carmel": 19443, "disapproval": 21406, "judge": 3648, "medina": 15761, "processor": 13151, "did": 2106, "concerning": 7175, "woodstock": 21028, "imagine": 5674, "##eu": 13765, "##ulate": 9869, "drummer": 7101, "##lvis": 28530, "turbulence": 29083, "entertain": 20432, "##ɹ": 29691, "##小": 30355, "integrated": 6377, "##vial": 18660, "goes": 3632, "##vard": 25911, "##tor": 4263, "##gible": 18507, "descends": 23328, "ג": 1243, "title": 2516, "##basket": 25351, "##id": 3593, "broken": 3714, "distracting": 25012, "leukemia": 25468, "stinging": 22748, "##ා": 29944, "##oslav": 23085, "[unused809]": 814, "lulu": 21744, "stalker": 23883, "endeavour": 26911, "sidney": 11430, "authorities": 4614, "mills": 6341, "##bour": 25127, "vitro": 25714, "grandmother": 7133, "arya": 26140, "##wed": 15557, "smiles": 8451, "callie": 20072, "polynomials": 28175, "allison": 10786, "2021": 25682, "advantage": 5056, "cassandra": 15609, "[unused36]": 37, "comprised": 11539, "hazardous": 17760, "matteo": 24713, "pubs": 23598, "##eia": 27958, "bracelet": 19688, "helplessly": 24942, "palma": 23985, "[unused976]": 981, "cox": 9574, "hinduism": 19632, "prakash": 22233, "##typical": 27086, "influencing": 25870, "ส": 1420, "doing": 2725, "cruiser": 10844, "backstroke": 28373, "activism": 16841, "animals": 4176, "##ante": 12956, "##lick": 25230, "blended": 19803, "consortium": 12360, "tak": 27006, "robbed": 20114, "convicts": 24948, "##lithic": 28508, "##mbe": 18552, "sacrificed": 20268, "paraguay": 13884, "refusal": 13948, "chad": 9796, "wooden": 4799, "pt": 13866, "wounds": 8710, "##hof": 14586, "##lth": 24658, "consumer": 7325, "santos": 11053, "fia": 19807, "173": 19410, "##word": 18351, "fortified": 13313, "indeed": 5262, "wiring": 27930, "##enburg": 12059, "compulsory": 14770, "engraved": 16328, "southland": 29121, "judo": 19083, "origin": 4761, "jamaican": 17851, "##iness": 9961, "refinery": 21034, "mandated": 16714, "orb": 19607, "spitfire": 28323, "lev": 23310, "selection": 4989, "[unused790]": 795, "flawless": 27503, "zhu": 15503, "curated": 17940, "[unused700]": 705, "estate": 3776, "morse": 17107, "remotely": 19512, "twitching": 25402, "[unused878]": 883, "soviets": 15269, "technology": 2974, "peel": 14113, "[unused584]": 589, "priced": 21125, "yellow": 3756, "implication": 25323, "##oked": 23461, "norms": 17606, "montenegro": 13018, "barefoot": 22985, "combat": 4337, "dissolved": 8314, "giuseppe": 12574, "illusions": 24883, "anthology": 9637, "##s": 2015, "##brates": 25258, "##ケ": 30229, "disciplined": 28675, "pope": 4831, "res": 24501, "disciplines": 12736, "spiritual": 6259, "##rry": 12244, "##sz": 17112, "thematic": 23539, "御": 1847, "[unused56]": 57, "financed": 13790, "pants": 6471, "wrapping": 12252, "subcommittee": 18052, "pegasus": 26606, "##kken": 24192, "[unused499]": 504, "cable": 5830, "1850s": 16488, "15": 2321, "spinal": 16492, "disclosure": 19380, "tatum": 25913, "dysfunction": 28466, "##or": 2953, "##ester": 20367, "##gm": 21693, "verona": 20197, "bounds": 19202, "kei": 26679, "[unused530]": 535, "ligue": 18374, "chile": 7029, "प": 1328, "example": 2742, "##弘": 30369, "gujarati": 26428, "khalifa": 27925, "anton": 9865, "pei": 26850, "swansea": 16085, "table": 2795, "myspace": 24927, "registering": 25719, "mahmud": 25886, "bang": 9748, "straightened": 11168, "##nberger": 28825, "##fat": 27753, "dark": 2601, "[unused227]": 232, "halifax": 10475, "外": 1809, "stanton": 15845, "meek": 28997, "whatever": 3649, "indians": 6505, "##horse": 23024, "business": 2449, "norm": 13373, "rocker": 24779, "skier": 21294, "powder": 9898, "##cek": 25368, "nuclear": 4517, "tito": 20712, "6": 1020, "motorway": 13119, "paz": 18183, "closeness": 28398, "ubiquitous": 28498, "##ug": 15916, "collect": 8145, "conduct": 6204, "diva": 25992, "says": 2758, "marriages": 12743, "human": 2529, "oregon": 5392, "vaccines": 28896, "bonfire": 28698, "[unused247]": 252, "320": 13710, "prophet": 12168, "revival": 6308, "##ten": 6528, "identifying": 12151, "parade": 7700, "##rus": 7946, "jarvis": 21072, "ezekiel": 28743, "causeway": 23336, "intercollegiate": 21587, "ton": 10228, "along": 2247, "factory": 4713, "maid": 10850, "painted": 4993, "choice": 3601, "cathy": 18305, "1874": 7586, "c": 1039, "sheer": 11591, "##hoff": 17896, "##rrigan": 28706, "redhead": 26705, "prediction": 17547, "##blood": 26682, "stony": 16104, "spectator": 21027, "tremendous": 14388, "##wives": 23744, "zach": 12397, "famine": 15625, "arousal": 18905, "violation": 11371, "hire": 10887, "beforehand": 25828, "stung": 19280, "##ers": 2545, "sammy": 14450, "cohen": 9946, "##eland": 25689, "##som": 25426, "nokia": 22098, "wheelchair": 13204, "congregation": 7769, "##eres": 18702, "##folding": 21508, "grassy": 22221, "athlete": 8258, "levant": 24485, "appearing": 6037, "pieter": 23759, "volta": 26089, "boone": 15033, "##lla": 4571, "##な": 30193, "suffered": 4265, "traditions": 7443, "darkness": 4768, "amplitude": 22261, "dispersal": 27602, "ₙ": 1568, "dependency": 24394, "facilitating": 25505, "lancashire": 9638, "workshops": 9656, "recovery": 7233, "maia": 23478, "##pton": 15857, "##ff": 4246, "eager": 9461, "treaties": 16013, "northwest": 4514, "reddish": 14182, "biggest": 5221, "circus": 9661, "aviation": 5734, "superstar": 18795, "##illon": 20343, "elle": 15317, "gogh": 26603, "daze": 28918, "930": 29359, "lausanne": 22256, "mm": 3461, "bandage": 24446, "clyde": 12085, "##liche": 27412, "obliged": 14723, "actresses": 19910, "##∧": 30129, "reluctantly": 11206, "tenor": 9534, "ₛ": 1570, "mckenzie": 18506, "##।": 29880, "##hit": 16584, "peck": 18082, "楊": 1883, "##yria": 20379, "ada": 15262, "##დ": 29977, "approached": 5411, "chest": 3108, "##vie": 13469, "##osity": 25949, "jong": 18528, "delegates": 10284, "[unused901]": 906, "hectare": 20406, "insulting": 23979, "deported": 17929, "muddy": 15405, "##quil": 26147, "##rid": 14615, "straight": 3442, "edwards": 7380, "prints": 11204, "##rasia": 27839, "##lk": 13687, "##uts": 16446, "##akes": 20060, "##ʲ": 29707, "[unused260]": 265, "draining": 19689, "differ": 11234, "bauer": 17838, "1788": 15622, "simulcast": 20525, "stress": 6911, "[unused129]": 134, "##usions": 22016, "fascination": 18987, "happened": 3047, "told": 2409, "王": 1909, "beloved": 11419, "incorporates": 12374, "##vinsky": 27704, "eugene": 8207, "hardcover": 20990, "tolerance": 13986, "##isches": 27239, "relay": 8846, "##pate": 17585, "chattanooga": 23351, "elimination": 9614, "zhang": 9327, "karl": 6382, "bernie": 15941, "bayer": 26367, "persian": 4723, "vertex": 19449, "##rent": 22787, "dude": 12043, "##rook": 25399, "buyers": 17394, "308": 24232, "mn": 24098, "288": 24841, "##rb": 15185, "##dorf": 11592, "##lor": 10626, "ventura": 21151, "hz": 22100, "humanoid": 28051, "31": 2861, "mocking": 19545, "##nism": 28113, "regimes": 25228, "butterfly": 9112, "astronauts": 25881, "ur": 24471, "##kic": 29493, "behavioral": 14260, "##auer": 21126, "##ivist": 21997, "contributes": 16605, "##գ": 29768, "average": 2779, "[unused60]": 61, "realizes": 10919, "whorls": 25637, "charred": 29030, "##tucket": 29315, "##active": 19620, "ripped": 9157, "springs": 6076, "1986": 3069, "1786": 17436, "subscription": 15002, "trivial": 20610, "wr": 23277, "##lastic": 28723, "1916": 4947, "[unused761]": 766, "accidentally": 9554, "enhance": 11598, "honor": 3932, "penetrate": 19136, "attained": 12754, "tx": 19067, "vichy": 29177, "³": 1083, "text": 3793, "centers": 6401, "liberated": 19553, "formidable": 18085, "chennai": 12249, "##loe": 26846, "compliance": 12646, "1621": 27037, "clerical": 23106, "flight": 3462, "##ی": 24830, "molecules": 10737, "rpg": 22531, "invading": 17657, "collaborated": 8678, "##shu": 14235, "fuji": 20933, "##rsk": 27472, "version": 2544, "1860": 7313, "marry": 5914, "versa": 18601, "[unused198]": 203, "ashore": 16145, "peculiar": 14099, "##stic": 10074, "sensations": 21378, "championed": 28683, "##orf": 16347, "##oop": 18589, "[unused922]": 927, "ව": 1407, "funds": 5029, "##世": 30271, "[unused549]": 554, "kills": 8563, "wraps": 19735, "sussex": 9503, "bare": 6436, "carts": 25568, "guillaume": 20061, "##cp": 21906, "believe": 2903, "##down": 7698, "walden": 24834, "licence": 11172, "332": 29327, "substitute": 7681, "##ess": 7971, "##holding": 23410, "##man": 2386, "##vich": 12933, "indo": 11424, "organizations": 4411, "##hin": 10606, "[unused759]": 764, "##iec": 23783, "cordoba": 17986, "florian": 29517, "met": 2777, "montane": 21704, "##β": 29720, "drum": 6943, "succeeds": 21645, "##partisan": 26053, "##pipe": 24548, "ki": 11382, "net": 5658, "residence": 5039, "anaheim": 20835, "##oese": 23379, "##nical": 20913, "kendra": 13812, "##plane": 11751, "depending": 5834, "1801": 12410, "hm": 20287, "##lford": 23211, "oppressive": 28558, "貝": 1952, "investor": 14316, "silvery": 21666, "##ell": 5349, "contest": 5049, "##gist": 24063, "poznan": 18320, "lids": 26122, "hungarian": 5588, "blankets": 15019, "व": 1335, "merritt": 26701, "workplace": 16165, "bomb": 5968, "##ening": 7406, "mortgage": 14344, "vocal": 5554, "crazy": 4689, "##space": 23058, "##lino": 25226, "josiah": 24461, "bullock": 25200, "temporarily": 8184, "grenade": 17038, "waterfall": 14297, "bundle": 14012, "##ral": 7941, "stark": 9762, "twins": 8178, "countries": 3032, "confidence": 7023, "pushing": 6183, "til": 18681, "cartoon": 9476, "shareholder": 18668, "conceived": 10141, "suspected": 6878, "columns": 7753, "rent": 9278, "##iga": 13340, "facility": 4322, "promptly": 13364, "coincidentally": 27542, "heinrich": 10952, "##class": 26266, "inactivated": 15663, "##ن": 15915, "runaway": 19050, "ς": 1172, "ල": 1406, "windsor": 10064, "illicit": 25049, "lecturer": 9162, "eastwood": 24201, "drowned": 12805, "kendrick": 25341, "##war": 9028, "boulevard": 8459, "centimeters": 18119, "[unused537]": 542, "##scoe": 28147, "##ease": 19500, "##grate": 22780, "jake": 5180, "rossi": 18451, "fischer": 13042, "##ashi": 12914, "obligation": 14987, "students": 2493, "ð": 1098, "finally": 2633, "ryu": 19367, "1919": 4529, "weed": 17901, "superhuman": 27061, "11": 2340, "##eller": 24038, "##rred": 20529, "sardinia": 21594, "clancy": 24530, "road": 2346, "##香": 30505, "loop": 7077, "sl": 22889, "##‚": 30057, "transforms": 21743, "[unused273]": 278, "gregg": 18281, "cramer": 29433, "rammed": 27653, "arcs": 29137, "##station": 20100, "##eles": 26741, "sato": 20251, "##mento": 23065, "gut": 9535, "turbine": 14027, "##thes": 24138, "implicated": 20467, "##ensis": 9911, "misconduct": 23337, "faust": 24021, "biographical": 16747, "flopped": 24723, "karin": 24537, "sega": 16562, "##hn": 7295, "madrid": 6921, "spur": 12996, "wicket": 12937, "crossed": 4625, "andover": 29463, "arthritis": 27641, "settlement": 4093, "licked": 11181, "appreciation": 12284, "8": 1022, "unreasonable": 29205, "kapoor": 17129, "690": 28066, "##guard": 18405, "processors": 18017, "brightest": 26849, "cold": 3147, "[unused550]": 555, "another": 2178, "otherwise": 4728, "taiwanese": 16539, "##ement": 13665, "mind": 2568, "devotees": 22707, "lush": 16299, "о": 1193, "ⁿ": 1546, "headache": 14978, "restoring": 16487, "rebuild": 14591, "saigon": 24001, "jerseys": 28772, "sprinted": 25156, "alonso": 17649, "cites": 17248, "against": 2114, "##tua": 26302, "runoff": 19550, "rotterdam": 15632, "आ": 1312, "tchaikovsky": 25900, "wears": 11651, "##logy": 6483, "229": 22777, "decide": 5630, "[unused894]": 899, "sneered": 28098, "suzy": 28722, "financial": 3361, "domes": 26193, "pba": 21563, "autonomous": 8392, "##lyn": 9644, "##cb": 27421, "1799": 13839, "[unused81]": 82, "fiat": 18550, "lawyer": 5160, "opens": 7480, "weaving": 15360, "inspections": 29589, "conclusions": 15306, "fishermen": 16532, "titled": 4159, "[unused270]": 275, "relational": 28771, "##imus": 19315, "ड": 1321, "##ons": 5644, "civic": 8388, "shoots": 11758, "utmost": 27917, "watery": 28259, "##iman": 18505, "frigates": 22833, "using": 2478, "##3d": 29097, "experienced": 5281, "pointed": 4197, "##原": 30313, "ducks": 14875, "judaism": 13725, "ethel": 19180, "##語": 30476, "teen": 9458, "vr": 27830, "aux": 19554, "falcons": 14929, "student": 3076, "storms": 12642, "2016": 2355, "katharine": 25739, "academie": 19669, "contrast": 5688, "neighboring": 8581, "scrolls": 23074, "##tituted": 29139, "wisdom": 9866, "##義": 30462, "##lou": 23743, "rigged": 25216, "patti": 22732, "represents": 5836, "prototype": 8773, "disused": 26958, "arthur": 4300, "futile": 24495, "[unused407]": 412, "walkway": 19467, "stalking": 20070, "dmitry": 22141, "philippines": 5137, "京": 1755, "##puram": 17809, "complexes": 15420, "sebastien": 28328, "wal": 24547, "##rik": 15564, "sir": 2909, "wry": 24639, "troops": 3629, "##jord": 24876, "##nett": 15361, "augustine": 14060, "##morphism": 19539, "lax": 27327, "pathogen": 26835, "##bby": 14075, "popularity": 6217, "discussions": 10287, "map": 4949, "alsace": 24922, "##yev": 17240, "kitchener": 27154, "samuel": 5212, "toured": 7255, "eta": 27859, "##entation": 19304, "rfc": 14645, "asher": 17243, "screenings": 25437, "##peration": 29487, "##tang": 26067, "figurative": 29407, "ptolemy": 23517, "##ি": 29915, "67": 6163, "dolores": 21544, "hodge": 23148, "221": 19594, "continent": 9983, "zimmerman": 27946, "exchanging": 25620, "aldo": 28163, "[unused461]": 466, "argus": 25294, "bottoms": 24196, "etched": 20286, "mcgraw": 24179, "egan": 27889, "nothing": 2498, "tal": 21368, "healer": 19783, "classmate": 23175, "seal": 7744, "ต": 1411, "1851": 8792, "juarez": 25398, "hyundai": 25983, "lynne": 26938, "silvia": 27827, "œ": 1107, "lloyd": 6746, "anticipating": 26481, "140": 8574, "threw": 4711, "colliery": 19462, "squirrels": 29384, "jets": 9924, "##lica": 19341, "##dhar": 25632, "##林": 30407, "abandoned": 4704, "oath": 11292, "phone": 3042, "connection": 4434, "researchers": 6950, "colony": 5701, "dixon": 11357, "are": 2024, "temper": 12178, "[unused2]": 3, "enjoys": 15646, "lilith": 25576, "musica": 21137, "reign": 5853, "triangle": 9546, "##torium": 24390, "complimented": 27175, "disturbing": 14888, "questioned": 8781, "governor": 3099, "[unused936]": 941, "wildlife": 6870, "stryker": 25429, "##hing": 12053, "##actic": 28804, "patented": 16719, "reduces": 13416, "##trom": 13887, "##omy": 16940, "##wala": 23877, "##witz": 15362, "##dent": 16454, "##suke": 16867, "cass": 16220, "confidently": 28415, "reserve": 3914, "tended": 11121, "stills": 26105, "albania": 10407, "export": 9167, "##aq": 20784, "jail": 7173, "communes": 16569, "##fold": 10371, "[unused38]": 39, "vaguely": 15221, "query": 23032, "reigning": 16323, "##thing": 20744, "gong": 17242, "lacey": 16355, "間": 1969, "##wara": 11872, "##aire": 14737, "exploited": 18516, "gustavo": 24801, "souza": 26598, "basha": 26074, "transformations": 21865, "michel": 8709, "eligibility": 11395, "chen": 8802, "リ": 1732, "waiting": 3403, "relied": 13538, "lao": 18805, "nuclei": 23767, "staten": 24161, "35": 3486, "profound": 13769, "•": 1528, "joints": 17651, "skill": 8066, "##dler": 21222, "et": 3802, "preacher": 14512, "##loading": 18570, "khz": 17737, "noir": 15587, "odyssey": 18735, "105": 8746, "##non": 8540, "preserving": 15224, "##di": 4305, "##ŋ": 29673, "pagoda": 27387, "platform": 4132, "harta": 26283, "alla": 25699, "hesitate": 16390, "monograph": 24039, "accompanied": 5642, "colon": 16844, "neck": 3300, "upland": 25770, "[unused107]": 112, "tired": 5458, "blazed": 25590, "teddy": 11389, "experimentation": 21470, "render": 17552, "third": 2353, "judiciary": 14814, "precedence": 23359, "ownership": 6095, "sobbing": 20040, "inquired": 24849, "automated": 12978, "decreases": 17913, "kyushu": 25885, "1983": 3172, "subsided": 26588, "tastes": 16958, "dissatisfaction": 28237, "immediately": 3202, "achieving": 10910, "goodbye": 9119, "##ike": 17339, "choirs": 24743, "tighter": 12347, "antarctic": 10227, "glory": 8294, "viruses": 18191, "coarse": 20392, "resolutions": 18853, "[unused486]": 491, "jurisdictions": 17370, "klan": 26613, "##k": 2243, "##lins": 24412, "[unused155]": 160, "equatorial": 21333, "plates": 7766, "##ot": 4140, "si": 9033, "drafts": 28967, "ւ": 1238, "wilde": 18575, "pursuant": 27081, "sodium": 13365, "suffer": 9015, "councillors": 13189, "ridiculous": 9951, "celia": 18020, "culturally": 20547, "solitary": 14348, "##vc": 25465, "##elial": 24587, "evacuated": 13377, "##vine": 20534, "ff": 21461, "lizzie": 15860, "attachment": 14449, "alternate": 6585, "motorola": 29583, "parked": 9083, "engineers": 6145, "[unused616]": 621, "##oric": 29180, "retaining": 12823, "slammed": 7549, "visiting": 5873, "spanned": 18212, "rim": 11418, "consistency": 18700, "portals": 27388, "serviced": 22858, "contributing": 8020, "seize": 15126, "##ech": 15937, "measure": 5468, "synthesizers": 22211, "п": 1194, "au": 8740, "notices": 14444, "apples": 18108, "apr": 19804, "equity": 10067, "stagecoach": 26025, "valerie": 14264, "tunnels": 10633, "polka": 29499, "ultimate": 7209, "horsemen": 25431, "attic": 14832, "compound": 7328, "##ossa": 21842, "anonymous": 10812, "beatty": 27305, "athens": 7571, "recognize": 6807, "relegation": 9591, "curling": 11599, "[unused884]": 889, "##ungen": 23239, "##¦": 29649, "melanie": 13286, "metabolic": 21453, "##い": 30173, "defend": 6985, "rattling": 26347, "binoculars": 29549, "後": 1846, "grimm": 24287, "satin": 19412, "blinds": 28279, "##sdale": 15145, "bingham": 24579, "[unused158]": 163, "desirable": 16166, "lehman": 28444, "meath": 26856, "parades": 26635, "greens": 15505, "gauge": 7633, "companions": 11946, "cute": 10140, "hip": 5099, "ᵏ": 1501, "basel": 14040, "convention": 4680, "bikes": 18105, "acknowledges": 28049, "thornton": 14630, "##ison": 10929, "##eca": 19281, "##jali": 28948, "salmon": 11840, "question": 3160, "hmm": 17012, "actions": 4506, "##vity": 24872, "cocked": 13179, "circuits": 13782, "##ibar": 26656, "admission": 9634, "[unused866]": 871, "luc": 12776, "regret": 9038, "£": 1069, "possessing": 18840, "selling": 4855, "gundam": 26152, "spirited": 24462, "utrecht": 18361, "##ept": 23606, "barnet": 26864, "##shi": 6182, "deploy": 21296, "barons": 21487, "¢": 1068, "cadets": 15724, "下": 1743, "frog": 10729, "nicholas": 6141, "[unused161]": 166, "penthouse": 22855, "##tham": 22536, "ல": 1392, "glare": 10982, "村": 1878, "traitor": 17328, "propeller": 15692, "tea": 5572, "prohibit": 23469, "327": 28469, "bridge": 2958, "dating": 5306, "##rated": 9250, "prison": 3827, "[unused619]": 624, "predicted": 10173, "##vita": 28403, "[unused320]": 325, "italics": 19408, "swiss": 5364, "wii": 16568, "[unused108]": 113, "{": 1063, "##14": 16932, "##ᅭ": 30013, "##ј": 29761, "rumors": 11256, "activists": 10134, "suppress": 16081, "⇌": 1590, "¥": 1071, "weekends": 13499, "owners": 5608, "digital": 3617, "doors": 4303, "ingram": 23231, "khorasan": 23225, "academics": 15032, "##backs": 12221, "philosopher": 9667, "kicking": 10209, "##美": 30461, "scholarships": 15691, "##sson": 7092, "##rity": 15780, "assessments": 20794, "##bia": 11607, "extremes": 28800, "raceway": 23018, "##cend": 23865, "##幸": 30367, "[unused681]": 686, "[unused747]": 752, "₂": 1549, "##lved": 26832, "cube": 14291, "singular": 13048, "##oran": 18842, "scientist": 7155, "dictionary": 9206, "qualifying": 6042, "hangar": 18284, "meaning": 3574, "outing": 26256, "vase": 18781, "##ʑ": 29703, "##miento": 28883, "madison": 7063, "phd": 8065, "lobby": 9568, "##ath": 8988, "##～": 30521, "antibiotics": 24479, "frustrated": 10206, "threatening": 8701, "ios": 16380, "[unused472]": 477, "##hony": 27629, "bunk": 25277, "[unused184]": 189, "forested": 15205, "least": 2560, "interval": 13483, "strengthened": 13949, "介": 1759, "writer": 3213, "pondered": 28347, "claudius": 25017, "dona": 24260, "terminated": 12527, "database": 7809, "acronym": 20137, "removed": 3718, "compilation": 6268, "63": 6191, "add": 5587, "ホ": 1722, "##nnis": 27803, "##uli": 15859, "sneaking": 20727, "##aria": 10980, "book": 2338, "discourse": 15152, "occupy": 11494, "email": 10373, "ensuring": 12725, "hacking": 23707, "houghton": 21234, "allergic": 27395, "swamp": 11963, "transforming": 17903, "narrowing": 21978, "##yer": 10532, "##birds": 12887, "##tlement": 24007, "granddaughter": 12787, "secession": 22965, "##ག": 29962, "mag": 23848, "adrian": 7918, "##食": 30504, "geschichte": 28299, "##cock": 13959, "norfolk": 7735, "[unused312]": 317, "##bush": 22427, "[unused299]": 304, "yugoslav": 12292, "fluorescent": 22184, "metaphysical": 29081, "hatfield": 26853, "cents": 16653, "mother": 2388, "proclamation": 16413, "sikhs": 26697, "crosby": 14282, "seduce": 23199, "mori": 22993, "bound": 5391, "ec": 14925, "eden": 10267, "feasibility": 24010, "⺩": 1632, "sandstone": 11694, "puts": 8509, "campo": 22339, "##nr": 16118, "flank": 12205, "##sari": 22740, "restrained": 19868, "##sions": 27466, "lund": 21860, "electricity": 6451, "controller": 11486, "[unused543]": 548, "[unused888]": 893, "##eria": 11610, "##orestation": 25794, "##fera": 27709, "sesame": 23605, "negotiating": 18875, "pierced": 16276, "squinting": 29156, "leading": 2877, "liege": 17766, "##aks": 29243, "benedictine": 21139, "constitute": 12346, "eyeing": 19285, "口": 1788, "aero": 18440, "justified": 15123, "##ふ": 30200, "##ow": 5004, "ャ": 1728, "##rwin": 27349, "wetland": 22217, "##ake": 13808, "我": 1855, "neighborhood": 5101, "ecstasy": 19069, "impressive": 8052, "sciences": 4163, "appalled": 29279, "christina": 12657, "wheel": 5217, "scanned": 11728, "survivors": 8643, "proportional": 14267, "maximus": 21692, "herds": 28822, "persuaded": 11766, "unit": 3131, "discover": 7523, "pavement": 14271, "sharing": 6631, "rancho": 18123, "##ע": 29805, "calves": 28023, "disabilities": 13597, "chinatown": 22321, "sense": 3168, "requires": 5942, "distraction": 14836, "##火": 30432, "lever": 15929, "##crest": 25313, "isa": 18061, "southport": 27494, "tu": 10722, "pop": 3769, "someplace": 24956, "gm": 13938, "degree": 3014, "globalization": 24370, "sinister": 16491, "##wood": 3702, "##eon": 10242, "ang": 17076, "malaysia": 6027, "##iting": 15402, "uniquely": 20640, "[unused574]": 579, "mmm": 25391, "##く": 30179, "glistening": 25203, "rebounds": 11049, "sofia": 8755, "maintained": 5224, "vulnerability": 18130, "pee": 21392, "gore": 13638, "cafe": 7668, "##er": 2121, "##ay": 4710, "reconstruction": 8735, "poking": 21603, "##cit": 26243, "replacements": 23936, "feeding": 8521, "sorrow": 14038, "##eva": 13331, "##戦": 30382, "carvings": 22838, "debating": 20767, "##que": 4226, "blankly": 26344, "portraying": 17274, "rei": 24964, "spectacular": 12656, "tile": 14090, "##jected": 24455, "pivotal": 20369, "##+": 29622, "chained": 22075, "##tious": 20771, "july": 2251, "martha": 9246, "upside": 14961, "own": 2219, "thunder": 8505, "[unused804]": 809, "silky": 18848, "examinations": 14912, "mirza": 18366, "##ball": 7384, "rallied": 24356, "sentinel": 16074, "1800": 9807, "##¼": 29664, "damned": 9636, "##face": 12172, "within": 2306, "external": 6327, "inexperienced": 26252, "食": 1978, "troupe": 16017, "prop": 17678, "clutch": 15357, "coldly": 24745, "rehab": 24497, "enamel": 29484, "hamlet": 8429, "payment": 7909, "saddle": 12279, "scrutiny": 17423, "capitals": 15433, "authentication": 27280, "comprehend": 22346, "donaldson": 23164, "##world": 11108, "tentatively": 19325, "biting": 12344, "museo": 19713, "##ach": 6776, "steamer": 18027, "##ver": 6299, "imposing": 16625, "ji": 10147, "pandora": 19066, "powers": 4204, "spd": 23772, "tess": 15540, "venues": 9356, "extension": 5331, "malley": 25271, "holding": 3173, "stares": 14020, "##vani": 27760, "ts": 24529, "[unused508]": 513, "[unused627]": 632, "407": 28941, "rejecting": 21936, "nr": 17212, "bottom": 3953, "bought": 4149, "richardson": 9482, "violinist": 16609, "合": 1792, "questioning": 11242, "membranes": 24972, "expanding": 9186, "pomerania": 18631, "yoon": 24863, "incline": 27461, "taft": 19911, "proud": 7098, "responded": 5838, "##ddle": 20338, "midday": 22878, "towns": 4865, "asserts": 19514, "aristotle": 17484, "##igan": 10762, "403": 28203, "bump": 16906, "donna": 10972, "federally": 20892, "ァ": 1692, "tentative": 19943, "##ite": 4221, "quivering": 26012, "plastic": 6081, "##nam": 13129, "arctic": 10162, "niccolo": 27033, "proposing": 21991, "seized": 8243, "slamming": 15209, "wolff": 23498, "##sworth": 12255, "##tri": 18886, "mixture": 8150, "ensign": 19890, "honeymoon": 19227, "tan": 9092, "##ieving": 25587, "confidential": 18777, "defended": 8047, "implementation": 7375, "upgrades": 18739, "[unused238]": 243, "##anus": 20849, "neighbours": 14754, "orderly": 23589, "kaplan": 22990, "[unused239]": 244, "[unused683]": 688, "narrow": 4867, "encouraged": 6628, "enthusiastic": 14727, "nrl": 20686, "advise": 18012, "goa": 15244, "henley": 20768, "weapons": 4255, "travel": 3604, "larkin": 25570, "politely": 16954, "disco": 12532, "nets": 16996, "employing": 15440, "questionable": 21068, "progressing": 27673, "clearly": 4415, "##ople": 27469, "ashby": 28729, "cipher": 27715, "newcomers": 24159, "models": 4275, "vernon": 11447, "##sei": 20240, "praised": 5868, "kidney": 14234, "propellers": 23405, "originate": 21754, "accommodated": 28959, "record": 2501, "missionaries": 11743, "syracuse": 11736, "127": 13029, "##石": 30448, "##ag": 8490, "metis": 26057, "[unused484]": 489, "##encies": 15266, "春": 1867, "##ule": 9307, "##hc": 16257, "vanish": 25887, "transaction": 12598, "339": 28977, "##oll": 14511, "flowed": 13230, "denotes": 14796, "allowance": 21447, "punished": 14248, "##ams": 13596, "disregard": 27770, "builds": 16473, "smart": 6047, "##cian": 14483, "##ʾ": 29713, "sevens": 19463, "##gawa": 21188, "louise": 8227, "legendary": 8987, "toilets": 21674, "##ort": 11589, "northwards": 27592, "hormone": 18714, "earlier": 3041, "bmg": 24499, "cleric": 29307, "motions": 15323, "next": 2279, "furious": 9943, "elevation": 6678, "cullen": 19925, "catalog": 12105, "downloadable": 26720, "ant": 14405, "lore": 19544, "ministries": 16410, "carla": 17081, "£10": 26812, "constructing": 15696, "[unused688]": 693, "hoping": 5327, "ms": 5796, "argues": 9251, "##economic": 23035, "turnout": 15512, "##stock": 14758, "rabbis": 25602, "##abia": 29039, "ecology": 13517, "duffy": 17971, "heading": 5825, "##ব": 29904, "xv": 15566, "##san": 8791, "realise": 19148, "##ward": 7652, "flows": 6223, "##夫": 30339, "concordia": 24982, "observatory": 9970, "rollins": 23502, "pol": 14955, "vague": 13727, "draws": 9891, "170": 10894, "newest": 14751, "subsidiary": 7506, "municipality": 3250, "ף": 1260, "##bau": 27773, "indicators": 20390, "##lage": 20679, "logs": 15664, "pretty": 3492, "slipping": 11426, "##sms": 19230, "industry": 3068, "smoothed": 17966, "worried": 5191, "attorneys": 16214, "supreme": 4259, "gorilla": 23526, "erie": 13374, "##wave": 16535, "daily": 3679, "install": 16500, "volga": 26459, "##ference": 25523, "negatively": 19762, "eminent": 14953, "##bri": 23736, "flores": 17343, "amnesia": 29222, "bubbles": 17255, "zu": 16950, "yearning": 29479, "##et": 3388, "##ller": 10820, "[unused613]": 618, "doris": 15467, "marxist": 15511, "shelves": 15475, "fingerprints": 27556, "jade": 12323, "reservation": 11079, "##oped": 24174, "damaged": 5591, "darmstadt": 28381, "kw": 6448, "brooklyn": 6613, "possessions": 13689, "rebellion": 7417, "glowing": 10156, "[unused99]": 104, "meadows": 13524, "solved": 13332, "##vio": 25500, "##worth": 5172, "##llation": 20382, "##tu": 8525, "escalated": 26814, "grow": 4982, "##bbly": 24200, "##£": 29646, "reactions": 9597, "##tok": 18715, "showing": 4760, "v8": 15754, "aggravated": 25817, "[unused529]": 534, "chatting": 22331, "[unused569]": 574, "#": 1001, "##ford": 3877, "inclusion": 10502, "neville": 14871, "##aries": 12086, "odessa": 19693, "##fle": 21031, "testify": 19919, "lamar": 19756, "clarified": 20485, "embroidered": 23590, "herbs": 17561, "officer": 2961, "aleksandr": 24020, "##ited": 17572, "pickering": 27078, "android": 11924, "と": 1666, "domain": 5884, "instrument": 6602, "rivalry": 10685, "[unused93]": 94, "##∈": 30124, "show": 2265, "suite": 7621, "mutations": 14494, "##₎": 30088, "##bing": 10472, "ancestors": 10748, "sergei": 14543, "cinema": 5988, "dickson": 22076, "infirmary": 23453, "judgments": 26186, "##hra": 13492, "yahoo": 20643, "##kur": 18569, "boosted": 28043, "##ices": 23522, "weiss": 17889, "##止": 30413, "blaze": 15347, "directional": 20396, "professionally": 12145, "##vill": 26548, "[unused937]": 942, "##away": 9497, "hostess": 22566, "##diment": 21341, "jakarta": 14426, "portrayed": 6791, "archived": 9749, "reminding": 15906, "farther": 8736, "พ": 1414, "arrive": 7180, "canons": 21975, "##শ": 29910, "columnist": 13317, "arsenal": 9433, "mustard": 23187, "affair": 6771, "converted": 4991, "##ill": 8591, "##ᴮ": 30027, "substrate": 16305, "diagonal": 19754, "dentist": 24385, "unsuccessfully": 11551, "brings": 7545, "recommended": 6749, "darting": 24567, "zee": 23727, "training": 2731, "##nne": 10087, "##wear": 16689, "mclaren": 18590, "containers": 16143, "explosive": 11355, "night": 2305, "##wani": 29092, "envelope": 11255, "nod": 7293, "redesigned": 17051, "developer": 9722, "sv": 17917, "##quent": 15417, "cleopatra": 22003, "cyclists": 21912, "fulbright": 26695, "inscribed": 14551, "sings": 10955, "acts": 4490, "establishments": 17228, "antwerp": 14003, "limestone": 9771, "cambodia": 12899, "[unused672]": 677, "courage": 8424, "sincerely": 25664, "dickinson": 17590, "##ट": 29856, "神": 1925, "await": 26751, "1872": 7572, "153": 16710, "##ʀ": 29693, "1892": 6527, "##cheon": 28099, "survey": 5002, "layne": 22452, "jian": 29214, "hs": 26236, "##uni": 19496, "##oke": 11045, "archaeologists": 19254, "##lowe": 27663, "container": 11661, "elise": 14251, "gigantic": 20193, "₁": 1548, "propaganda": 10398, "schooling": 14118, "##eran": 23169, "developed": 2764, "wa": 11333, "1634": 28502, "homeless": 11573, "##gel": 12439, "excessive": 11664, "arrives": 8480, "enabled": 9124, "cubs": 12469, "scattering": 17501, "overhaul": 18181, "##eri": 11124, "performance": 2836, "tau": 19982, "costello": 21015, "prize": 3396, "ধ": 1365, "cradled": 23774, "acres": 4631, "purchases": 17402, "sirens": 20675, "chiba": 27368, "depend": 12530, "diplomats": 23473, "linguistic": 12158, "terminate": 20320, "himself": 2370, "galloway": 22372, "domingo": 15586, "stalin": 13125, "interpreted": 10009, "##idal": 16975, "clay": 5726, "##lik": 18393, "found": 2179, "suddenly": 3402, "##cum": 24894, "##right": 15950, "pulsing": 23139, "sequences": 10071, "[unused980]": 985, "prolific": 12807, "novo": 24576, "reddy": 18998, "caucasian": 23368, "breaths": 12938, "spoiled": 19582, "gradually": 6360, "projects": 3934, "cheated": 22673, "hamas": 22129, "ζ": 1160, "sorbonne": 28452, "##tling": 15073, "diversified": 24908, "interaction": 8290, "##nga": 13807, "nw": 22064, "compete": 5566, "nude": 15287, "imports": 17589, "archaeological": 7611, "presenting": 10886, "##elles": 22869, "lend": 18496, "zeke": 18270, "##dda": 25062, "##yne": 9654, "##haw": 14238, "sahara": 19604, "vitamin": 17663, "bellamy": 25544, "bergen": 12674, "qing": 13282, "lens": 10014, "revolves": 19223, "en": 4372, "node": 13045, "petitioned": 22527, "ま": 1677, "hurled": 24025, "sample": 7099, "mcgill": 17919, "traffic": 4026, "##hesis": 24124, "catches": 11269, "##ese": 6810, "tradition": 4535, "edition": 3179, "##bor": 12821, "mainstream": 7731, "shepherd": 11133, "##hus": 9825, "41": 4601, "colossal": 29523, "montpellier": 28153, "mistakes": 12051, "honneur": 28197, "1670": 26253, "lock": 5843, "dell": 12418, "guardians": 14240, "usl": 22448, "superficial": 23105, "##cat": 11266, "precious": 9062, "##g": 2290, "benefit": 5770, "##│": 30143, "##eto": 18903, "##shin": 17426, "[unused59]": 60, "##uing": 25165, "forty": 5659, "##ud": 6784, "##mir": 14503, "jase": 18626, "speculative": 23250, "alexandre": 16971, "1737": 26738, "routinely": 19974, "##ா": 29931, "jammu": 21433, "##he": 5369, "##yle": 12844, "##don": 5280, "##分": 30301, "dependent": 7790, "breaststroke": 28164, "frederic": 15296, "##sg": 28745, "watching": 3666, "eps": 20383, "crescent": 13152, "lodged": 20451, "ⁱ": 1537, "because": 2138, "loomed": 24358, "transformation": 8651, "ₚ": 1569, "regulars": 24945, "carriers": 11363, "##/": 29626, "outdoor": 7254, "institution": 5145, "tasked": 13487, "upstate": 29530, "##din": 8718, "[unused291]": 296, "generates": 19421, "##uw": 25974, "stimuli": 22239, "totaling": 21798, "bradley": 8981, "dissolution": 12275, "[unused372]": 377, "disciples": 17102, "191": 19871, "disastrous": 16775, "impressions": 19221, "fritz": 12880, "mean": 2812, "##sphere": 23874, "over": 2058, "##rating": 15172, "siberian": 21822, "sort": 4066, "ecosystems": 20440, "coincidence": 16507, "##lch": 29358, "deaf": 12419, "mas": 16137, "343": 27810, "rushes": 18545, "##des": 6155, "cfl": 18830, "intuitive": 29202, "metre": 7924, "nix": 23330, "accuracy": 10640, "##ия": 23483, "fluid": 8331, "stairway": 21952, "vintage": 13528, "injunction": 22928, "mortimer": 17416, "beg": 11693, "##bola": 24290, "##uga": 16377, "six": 2416, "tears": 4000, "£1": 14534, "tanzania": 11959, "console": 10122, "nanny": 19174, "sums": 20571, "chalk": 16833, "vikings": 13468, "##nad": 25389, "ina": 27118, "##iful": 18424, "advance": 5083, "eliminated": 5892, "moaning": 22653, "nara": 27544, "semi": 4100, "pottery": 11378, "##lga": 27887, "growls": 27825, "rides": 12271, "hurst": 26405, "##iers": 10136, "wits": 25433, "あ": 1646, "flooded": 10361, "##道": 30483, "sera": 26358, "gabriel": 6127, "seeking": 6224, "lane": 4644, "##lim": 17960, "rosary": 28291, "[unused470]": 475, "serbia": 7238, "cheshire": 13789, "bubbling": 25054, "gin": 18353, "household": 4398, "მ": 1448, "contempt": 17152, "⋅": 1614, "donated": 6955, "ย": 1416, "feudal": 16708, "had": 2018, "##cope": 16186, "strength": 3997, "is": 2003, "quiver": 29049, "bibliography": 24751, "orphans": 21478, "[unused637]": 642, "drink": 4392, "narcotics": 27290, "香": 1979, "##lita": 27606, "##tracted": 24301, "prima": 21111, "scott": 3660, "##iad": 28665, "synonymous": 22594, "aft": 16638, "surely": 7543, "[unused4]": 5, "crimea": 21516, "seemed": 2790, "scratching": 20291, "meyer": 11527, "system": 2291, "##ticus": 29587, "retiring": 9150, "viking": 12886, "shaved": 20665, "wreckage": 21056, "borneo": 15688, "[unused347]": 352, "then": 2059, "ni": 9152, "shadows": 6281, "##iche": 17322, "divorce": 8179, "twain": 24421, "tampa": 9925, "##ワ": 30262, "cho": 16480, "ɯ": 1122, "##lma": 19145, "through": 2083, "crystal": 6121, "hooker": 17074, "##dern": 25888, "television": 2547, "rusty": 13174, "mass": 3742, "simultaneous": 17424, "gruff": 27038, "##aj": 13006, "##保": 30292, "[unused35]": 36, "excitedly": 23885, "gt": 14181, "inevitably": 21268, "rhea": 24775, "saxe": 24937, "merchandise": 16359, "##tered": 14050, "¿": 1094, "##roving": 22046, "flared": 14937, "eton": 21687, "translucent": 22897, "rallies": 22867, "refurbishment": 24478, "ritter": 23168, "globe": 7595, "ike": 25209, "comparisons": 18539, "mafia": 13897, "##mium": 27759, "victorian": 6652, "knees": 5042, "[unused211]": 216, "depended": 17292, "##opa": 29477, "##yon": 14001, "palestinians": 21524, "##21": 17465, "##ono": 17175, "[unused736]": 741, "oaxaca": 26923, "tracey": 25984, "music": 2189, "fluttered": 18360, "macy": 20914, "legislators": 22680, "litigation": 15382, "drinks": 8974, "isaiah": 18850, "犬": 1908, "junior": 3502, "communist": 4750, "detective": 6317, "##icz": 18682, "emission": 15760, "##fixed": 23901, "cafes": 23812, "‡": 1527, "##eit": 20175, "##awan": 25903, "poured": 8542, "timeless": 27768, "coca": 16787, "lyricist": 19489, "supporter": 10129, "crusader": 25237, "even": 2130, "rustling": 29188, "[unused538]": 543, "ग": 1317, "wrongly": 29116, "enzyme": 9007, "rip": 10973, "buys": 23311, "eighty": 12021, "stockings": 26412, "musee": 18070, "[unused209]": 214, "[unused956]": 961, "brittany": 12686, "precise": 10480, "networks": 6125, "palace": 4186, "stalled": 20659, "spire": 19823, "snacks": 27962, "deposit": 12816, "##±": 29657, "caledonia": 19305, "coventry": 13613, "sikh": 17246, "exceeded": 14872, "##erted": 28728, "archaeologist": 18821, "favour": 7927, "##agh": 17988, "polynomial": 17505, "analyze": 17908, "##dium": 12811, "pot": 8962, "318": 27003, "##bria": 21556, "##ø": 16415, "credit": 4923, "nawab": 26543, "preceding": 11003, "historically": 7145, "hewitt": 19482, "tech": 6627, "grumbled": 17030, "尚": 1830, "##kushima": 24917, "[unused725]": 730, "##abas": 27537, "##mates": 15416, "rooted": 15685, "sufficient": 7182, "inadequate": 14710, "相": 1919, "##ᅴ": 30018, "krakow": 14576, "tyson": 19356, "1100": 22096, "134": 15170, "[unused420]": 425, "##ero": 10624, "##tie": 9515, "nazi": 6394, "kirby": 15129, "pr": 10975, "tying": 15233, "[unused7]": 8, "commendation": 23039, "trident": 26515, "yamamoto": 28318, "carp": 29267, "stretching": 10917, "pony": 15606, "##vocation": 19152, "##青": 30501, "rectangular": 10806, "##arty": 23871, "distortion": 20870, "lifelong": 13506, "¶": 1086, "boris": 11235, "advocates": 13010, "bmw": 13154, "chan": 9212, "seriousness": 27994, "gothenburg": 22836, "prick": 24858, "camille": 16675, "ko": 12849, "griffin": 9258, "rwanda": 17591, "cut": 3013, "gdansk": 21942, "bedfordshire": 28430, "files": 6764, "mosques": 21922, "##eb": 15878, "hunger": 9012, "necklace": 13016, "hokkaido": 20826, "є": 1212, "garbage": 13044, "scented": 25738, "##ང": 29963, "waivers": 28654, "##val": 10175, "emil": 16243, "##piece": 11198, "##tten": 25970, "historians": 7862, "signifies": 27353, "timothy": 10805, "##rice": 17599, "seek": 6148, "signing": 6608, "[unused125]": 130, "assaulted": 17536, "##ook": 14659, "1753": 23810, "##graph": 14413, "##ki": 3211, "scores": 7644, "guide": 5009, "##pas": 19707, "[unused990]": 995, "ニ": 1716, "mar": 9388, "tonga": 20188, "##mah": 25687, "morocco": 9835, "nt": 23961, "hardly": 6684, "spawning": 27957, "associations": 8924, "grateful": 8794, "ground": 2598, "cindy": 15837, "finger": 4344, "carrier": 6839, "wild": 3748, "restructuring": 18322, "elsewhere": 6974, "wearing": 4147, "tara": 10225, "⁹": 1543, "vis": 25292, "[unused385]": 390, "apologized": 17806, "repealed": 21492, "##fect": 25969, "somerville": 27209, "estates": 8707, "fatigue": 16342, "squads": 20191, "1816": 12357, "adjunct": 20621, "meridian": 17984, "sylvester": 20016, "[unused607]": 612, "mom": 3566, "[unused185]": 190, "omar": 13192, "##late": 13806, "transformed": 8590, "moscow": 4924, "uttered": 20947, "##boarding": 21172, "ncaa": 5803, "shall": 4618, "beneath": 4218, "##…": 30064, "rash": 23438, "##adan": 26335, "##100": 18613, "reality": 4507, "symmetric": 19490, "frescoes": 23360, "lebanese": 12592, "trousers": 15292, "キ": 1701, "mark": 2928, "groaned": 9655, "vamps": 24064, "congresses": 24460, "ripping": 17039, "carson": 9806, "tyres": 24656, "##yr": 12541, "modifying": 29226, "archipelago": 13888, "assets": 7045, "##koff": 26126, "larson": 21213, "perceived": 8690, "133": 14506, "traps": 16735, "regan": 16964, "sultan": 7544, "growth": 3930, "cc": 10507, "poetic": 13805, "##cted": 10985, "##″": 30067, "holds": 4324, "##nti": 16778, "instructed": 10290, "behaviors": 15592, "stronger": 6428, "lasted": 6354, "##hyl": 29598, "prayer": 7083, "peas": 26072, "letters": 4144, "outpost": 21080, "nodded": 3368, "ecclesiastical": 12301, "warden": 13745, "expressive": 22570, "[unused497]": 502, "racial": 5762, "##path": 15069, "##nas": 11649, "individually": 14258, "mediterranean": 7095, "pipeline": 13117, "pioneered": 16193, "lucan": 20764, "raged": 28374, "licking": 17033, "returning": 4192, "cops": 10558, "draper": 23641, "dress": 4377, "tammy": 19971, "nest": 9089, "afternoon": 5027, "[unused693]": 698, "overwhelmingly": 24783, "rear": 4373, "guard": 3457, "putting": 5128, "り": 1686, "##ص": 29826, "##khand": 25910, "comic": 5021, "hill": 2940, "hot": 2980, "清": 1903, "factual": 25854, "##mei": 26432, "[unused405]": 410, "employed": 4846, "swaying": 21826, "unitary": 22127, "idaho": 9795, "middlesex": 13654, "brood": 25565, "shielding": 25553, "agra": 29542, "receivers": 19278, "##ე": 29978, "upgrading": 25925, "forecast": 19939, "cite": 21893, "isbn": 3175, "gazed": 11114, "##shed": 14740, "barbarians": 28056, "##dridge": 21482, "celebrity": 8958, "peters": 12420, "saline": 28413, "shen": 21882, "psychiatrist": 18146, "q": 1053, "urges": 23876, "legitimacy": 22568, "augsburg": 24362, "mart": 20481, "心": 1849, "plantations": 14979, "backdrop": 18876, "baskets": 25946, "ा": 1340, "opinion": 5448, "puebla": 27452, "munich": 7469, "##lley": 25105, "deciduous": 22411, "success": 3112, "##erence": 20935, "##ನ": 29936, "##rt": 5339, "repetitive": 23563, "log": 8833, "punta": 27377, "##mos": 15530, "##=": 29630, "1710": 23841, "pharmaceuticals": 24797, "##ज": 29855, "1948": 3882, "kazakh": 25907, "belief": 6772, "asserted": 13647, "caden": 23600, "santiago": 8728, "jupiter": 13035, "chilean": 12091, "highest": 3284, "itself": 2993, "ب": 1271, "cell": 3526, "比": 1890, "economists": 22171, "sanskrit": 11353, "1982": 3196, "ス": 1707, "persuasion": 27577, "##vao": 24682, "jack": 2990, "watched": 3427, "drummond": 19266, "virus": 7865, "privileged": 21598, "##fl": 10258, "dentistry": 26556, "ha": 5292, "##ning": 5582, "歌": 1886, "##analysis": 25902, "composure": 23619, "##chuk": 26516, "meters": 5563, "cyprus": 9719, "rey": 12569, "[unused259]": 264, "##sitor": 28307, "announce": 14970, "barron": 23594, "±": 1081, "cannons": 17138, "pages": 5530, "sans": 20344, "track": 2650, "##´s": 21932, "beginnings": 16508, "tune": 8694, "sucker": 26476, "decisive": 13079, "madly": 29179, "maitland": 25511, "gorman": 25693, "ukrainian": 5969, "275": 17528, "glint": 25263, "semiconductor": 20681, "1899": 6166, "sank": 7569, "aachen": 29093, "altar": 9216, "##mament": 28119, "hoffman": 15107, "metaphor": 19240, "gazing": 16448, "breuning": 18177, "relics": 16712, "rejects": 19164, "##স": 29912, "alps": 13698, "mandatory": 10915, "firms": 9786, "sire": 15785, "mia": 8764, "staples": 24533, "##oise": 23565, "annapolis": 24889, "##raphic": 20721, "##lean": 20898, "office": 2436, "shores": 13312, "[unused194]": 199, "giorgio": 17697, "swiped": 24452, "1958": 3845, "alexa": 24969, "statutes": 18574, "[unused751]": 756, "davenport": 16273, "##para": 28689, "##llar": 17305, "本": 1876, "unsigned": 27121, "##bc": 9818, "entertained": 21474, "grasslands": 26183, "negotiation": 19905, "##vez": 26132, "umpire": 20887, "##nology": 21020, "accelerate": 23306, "heinz": 17655, "##urs": 9236, "hygiene": 19548, "jaime": 14519, "astonishment": 23819, "flynn": 13259, "##セ": 30234, "raced": 8255, "75": 4293, "##outs": 12166, "##rar": 19848, "designation": 8259, "lopez": 8685, "charms": 24044, "defendants": 16362, "sovereign": 11074, "##sion": 10992, "millennia": 27620, "##oides": 25064, "1704": 27769, "227": 21489, "kits": 18628, "subsequently": 3525, "true": 2995, "billion": 4551, "##xie": 16898, "bulge": 23708, "annoyance": 17466, "specialised": 17009, "russians": 12513, "vita": 19300, "ح": 1276, "wallis": 24029, "align": 25705, "paving": 28007, "communication": 4807, "disorder": 8761, "retailer": 20196, "uzbekistan": 17065, "1902": 5774, "efficacy": 21150, "##yang": 12198, "lingered": 17645, "ruin": 10083, "##ᅪ": 30012, "crossings": 20975, "hk": 22563, "mushrooms": 23827, "smirked": 18775, "employ": 12666, "juniper": 29425, "moffat": 28528, "##cars": 20745, "enhancing": 20226, "rutherford": 18472, "cadence": 23620, "incidents": 10444, "cushion": 22936, "sick": 5305, "grabbed": 4046, "canada": 2710, "emerged": 6003, "##iol": 20282, "shrub": 15751, "##enberg": 11029, "froze": 10619, "surgical": 11707, "[unused468]": 473, "distances": 12103, "regeneration": 20045, "stimulate": 23216, "##ane": 7231, "deployment": 10813, "##eer": 11510, "lamps": 14186, "warming": 12959, "##lika": 25421, "भ": 1330, "##use": 8557, "richly": 26502, "intercity": 20651, "elton": 19127, "crashed": 8007, "audible": 19525, "tehsil": 20751, "upbringing": 24615, "1994": 2807, "[unused110]": 115, "stubborn": 14205, "##keeper": 13106, "posterior": 15219, "theta": 23963, "willow": 11940, "wound": 6357, "υ": 1175, "[unused474]": 479, "daniels": 13196, "ja": 14855, "mono": 18847, "♭": 1627, "countess": 11716, "arizona": 5334, "bernardino": 21370, "past": 2627, "patna": 29565, "astonished": 22741, "converse": 23705, "currents": 14731, "decreed": 28447, "mahal": 27913, "companion": 7452, "med": 19960, "napoleon": 8891, "herb": 12810, "tossing": 15021, "##sume": 23545, "##post": 19894, "jealousy": 14225, "##fp": 22540, "273": 25371, "radiation": 8249, "##ノ": 30243, "kurdistan": 23627, "extraordinary": 9313, "prepare": 7374, "lifted": 4196, "tango": 17609, "quinn": 8804, "[unused561]": 566, "[unused221]": 226, "sustaining": 22663, "lease": 10084, "darcy": 17685, "nov": 13292, "boiling": 16018, "##uk": 6968, "serialized": 27289, "condemnation": 26248, "fowler": 14990, "##th": 2705, "dvd": 4966, "##zu": 9759, "restless": 15035, "stephane": 26624, "##47": 22610, "##ricting": 28827, "sheldon": 19369, "house": 2160, "dictatorship": 18944, "oscar": 7436, "rhine": 10950, "1876": 7326, "[unused845]": 850, "applying": 11243, "stressed": 13233, "aidan": 12643, "conjunction": 9595, "coup": 8648, "survives": 13655, "fierce": 9205, "mortality": 13356, "chefs": 27828, "consultation": 16053, "spat": 14690, "##qa": 19062, "mare": 11941, "##》": 30166, "protein": 5250, "680": 23944, "##宿": 30352, "irene": 12855, "tandem": 18231, "amidst": 17171, "dragging": 11920, "mammal": 25476, "insult": 15301, "tones": 12623, "bam": 25307, "denying": 16039, "worry": 4737, "##king": 6834, "yugoslavia": 8936, "##weiler": 22384, "preschool": 23655, "[unused505]": 510, "everywhere": 7249, "sly": 18230, "doherty": 23798, "childless": 26983, "##roller": 26611, "##ves": 6961, "##wall": 9628, "quoting": 27394, "thirties": 26313, "[unused304]": 309, "enhanced": 9412, "akron": 22735, "feast": 9831, "##proof": 18907, "thrown": 6908, "notation": 14869, "enchanted": 22454, "fan": 5470, "sui": 24086, "│": 1616, "##vat": 22879, "##eil": 24359, "liking": 16663, "ernest": 8471, "qualified": 4591, "pia": 24624, "refuses": 10220, "gertrude": 18734, "palais": 22113, "wikipedia": 16948, "##wal": 13476, "him": 2032, "定": 1822, "celebrations": 12035, "##け": 30180, "church": 2277, "mechanical": 6228, "painting": 4169, "eighties": 27690, "pistol": 8779, "1862": 6889, "masks": 15806, "methane": 24481, "gaines": 28645, "making": 2437, "hanoi": 24809, "assembled": 9240, "german": 2446, "difficulties": 8190, "5th": 4833, "litter": 19070, "pang": 20657, "panama": 8515, "halls": 9873, "##kee": 20553, "prompting": 15870, "yourself": 4426, "democrats": 8037, "exams": 13869, "louvre": 25110, "nik": 23205, "##oco": 24163, "colleen": 28385, "##ppet": 29519, "pete": 6969, "##sight": 25807, "promotions": 15365, "roared": 14242, "leicester": 11258, "₄": 1551, "##rained": 27361, "amphibious": 16182, "##ier": 3771, "tha": 22794, "depth": 5995, "セ": 1708, "##hp": 22269, "##lana": 16695, "luftwaffe": 17740, "exhaust": 15095, "institute": 2820, "respond": 6869, "##ᶠ": 30047, "##sso": 24137, "chelsea": 9295, "plants": 4264, "##ution": 13700, "negotiate": 13676, "231": 20304, "vertebrae": 25517, "mosaic": 16061, "rowe": 20538, "shot": 2915, "1827": 12309, "##roved": 26251, "granted": 4379, "rv": 27634, "decks": 19963, "retreated": 11672, "monique": 26194, "##zal": 16739, "adventures": 7357, "bathing": 17573, "##tson": 25656, "plant": 3269, "wai": 23701, "##bered": 22408, "jerome": 11120, "##ʃ": 29696, "dei": 14866, "managing": 6605, "##bone": 14417, "tickets": 9735, "##frame": 15643, "1953": 4052, "forgetting": 17693, "herring": 22103, "trials": 7012, "boer": 19945, "minimize": 18478, "nickelodeon": 20814, "1782": 16890, "revealing": 8669, "##lman": 12624, "los": 3050, "olga": 15585, "bethany": 16559, "[unused676]": 681, "##vil": 14762, "bose": 21299, "library": 3075, "##irus": 26013, "##6": 2575, "mutually": 20271, "polytechnic": 14466, "##gration": 29397, "##ente": 15781, "distillery": 24870, "sha": 21146, "59": 5354, "alto": 10766, "solitude": 22560, "transmitted": 11860, "conditioned": 22442, "##rky": 15952, "##po": 6873, "##ey": 3240, "battleships": 21327, "opposite": 4500, "##tow": 18790, "1861": 6863, "reindeer": 29495, "[unused220]": 225, "moral": 7191, "detector": 19034, "commuted": 26704, "consul": 11801, "[unused969]": 974, "raining": 24057, "seminole": 28909, "lama": 18832, "wednesday": 9317, "consort": 13440, "ь": 1207, "##sch": 11624, "pays": 12778, "croft": 28983, "thigh": 10120, "ʻ": 1145, "scent": 6518, "zurich": 10204, "leroy": 19103, "coupe": 15130, "mane": 23055, "lanka": 7252, "missiles": 10815, "iconic": 14430, "farmers": 6617, "##iography": 26535, "terror": 7404, "compatible": 11892, "wildcats": 19495, "##holz": 28094, "[SEP]": 102, "bulk": 9625, "fulton": 17049, "tonic": 28157, "center": 2415, "cambodian": 24417, "carpathian": 26349, "homemade": 25628, "hut": 12570, "repairs": 10315, "##ila": 11733, "warrant": 10943, "computers": 7588, "gesturing": 22317, "##h": 2232, "parrot": 22530, "pledge": 16393, "艹": 1939, "fastest": 7915, "rely": 11160, "##gai": 23805, "[unused893]": 898, "geographical": 10056, "ions": 15956, "##qu": 28940, "##rous": 13288, "670": 25535, "objective": 7863, "##vite": 25217, "cy": 22330, "##tite": 23096, "##smith": 21405, "[unused545]": 550, "##drive": 23663, "hari": 21291, "packers": 15285, "nebula": 25677, "glued": 22805, "truth": 3606, "dancer": 8033, "cora": 17195, "daring": 15236, "hilda": 21589, "recaptured": 23838, "katie": 9734, "1913": 5124, "##kari": 20224, "virgil": 17270, "blood": 2668, "sergey": 22703, "ramp": 13276, "##ս": 29781, "icc": 16461, "acknowledged": 8969, "witnessed": 9741, "1976": 3299, "##lled": 11001, "chamberlain": 13904, "に": 1668, "lansing": 22304, "##physical": 23302, "skirts": 18184, "swami": 20087, "hydrogen": 9732, "memo": 24443, "purification": 28406, "mansion": 7330, "##ene": 8625, "##hawk": 17998, "hooper": 23717, "##「": 30167, "##tz": 5753, "dictated": 23826, "##ntine": 26730, "linden": 22066, "header": 20346, "composer": 4543, "explode": 15044, "duel": 14216, "boy": 2879, "[unused786]": 791, "##hwa": 18663, "##ko": 3683, "armada": 25306, "dictator": 21237, "smoothly": 15299, "suns": 19352, "likened": 28834, "pricing": 20874, "maximal": 29160, "##ull": 18083, "##nel": 11877, "rue": 13413, "simmons": 13672, "pistols": 18248, "##cola": 26289, "distinctly": 19517, "addicted": 23042, "batch": 14108, "##yk": 15922, "##lten": 29005, "253": 23254, "bulletin": 13146, "bundled": 24378, "mixed": 3816, "soccer": 4715, "synchronized": 25549, "finely": 22126, "biochemistry": 22419, "nationalists": 17934, "step": 3357, "ana": 9617, "語": 1950, "tease": 18381, "palestine": 8976, "driven": 5533, "milne": 24377, "##iable": 19210, "##ulia": 20922, "queer": 19483, "pillars": 13766, "andersen": 18308, "diagram": 16403, "procedures": 8853, "##ego": 20265, "shetland": 25552, "zealand": 3414, "##bl": 16558, "trumpet": 9368, "grit": 24842, "##wyl": 27740, "francs": 24313, "bred": 13680, "furnished": 19851, "arguably": 15835, "hounds": 27772, "taylor": 4202, "verve": 29230, "industrialist": 21691, "##hian": 14204, "##kata": 29123, "specimens": 9908, "##table": 10880, "dozens": 9877, "accountability": 17842, "establishment": 5069, "1720": 23535, "enjoy": 5959, "##mate": 8585, "lc": 29215, "albans": 26311, "##八": 30297, "##ches": 8376, "campaign": 3049, "ellie": 10707, "irrigation": 12442, "outright": 13848, "teaching": 4252, "##内": 30299, "dec": 11703, "hurricanes": 17035, "sock": 28407, "enlarged": 11792, "limited": 3132, "##llo": 7174, "[unused176]": 181, "obstacle": 18355, "ligament": 25641, "easier": 6082, "თ": 1444, "coasts": 20266, "leah": 14188, "tun": 27112, "##tute": 24518, "sacks": 14918, "##vision": 17084, "1645": 26081, "conferred": 15186, "among": 2426, "411": 27517, "hairy": 15892, "irina": 25404, "noodles": 27130, "guise": 21980, "twinned": 25901, "padua": 24941, "harlow": 22545, "iec": 24940, "cooperate": 17654, "##eus": 10600, "occupies": 14133, "justify": 16114, "congestion": 20176, "advertisements": 14389, "release": 2713, "gathering": 7215, "sale": 5096, "hers": 5106, "ethnic": 5636, "##ingly": 15787, "fades": 26784, "overall": 3452, "scenarios": 16820, "hannah": 8410, "##wright": 26460, "supper": 15264, "moved": 2333, "20": 2322, "و": 1298, "baffled": 29088, "endorsed": 11763, "wellness": 25860, "##lide": 24198, "britten": 29429, "[unused69]": 70, "austrian": 6161, "messy": 18307, "hoffmann": 24437, "flowers": 4870, "penal": 18476, "##rta": 13320, "ش": 1283, "deemed": 8357, "hearing": 4994, "##ʐ": 29702, "##gara": 24864, "conducts": 17976, "fremont": 22550, "enduring": 16762, "leighton": 26873, "performed": 2864, "##marine": 21966, "posed": 13686, "meadow": 13244, "accelerating": 29494, "sadie": 21330, "abortion": 11324, "##back": 5963, "##lice": 13231, "paige": 17031, "speaking": 4092, "##oration": 21223, "wallace": 7825, "##core": 17345, "[unused82]": 83, "braking": 24427, "nmi": 22484, "rosa": 9508, "م": 1295, "accomplishments": 17571, "territorial": 7894, "blanca": 27538, "savings": 10995, "weaker": 15863, "criminals": 12290, "##₂": 8229, "poor": 3532, "restricted": 7775, "vampire": 4393, "sparse": 20288, "tattoos": 18395, "##urse": 28393, "chloe": 9318, "sealed": 10203, "dipped": 13537, "dupont": 22848, "combines": 13585, "jem": 24193, "##ssi": 18719, "1752": 24736, "ives": 23945, "##llon": 22179, "##ographer": 26145, "##উ": 29886, "gutierrez": 20836, "brant": 29182, "reeve": 20726, "set": 2275, "[unused135]": 140, "hail": 16889, "maud": 21696, "journey": 4990, "installed": 5361, "accumulation": 20299, "1813": 12169, "revolver": 17863, "cheltenham": 18763, "courts": 5434, "阿": 1971, "suggests": 6083, "##jhl": 29001, "323": 25392, "[unused835]": 840, "##ret": 13465, "sixteenth": 14683, "nationalities": 24904, "candles": 14006, "crotch": 28629, "ruben": 19469, "[unused284]": 289, "greek": 3306, "twice": 3807, "wed": 21981, "##urrent": 29264, "banning": 21029, "amplified": 26986, "章": 1932, "threshold": 11207, "truly": 5621, "1661": 24046, "1705": 29326, "dir": 16101, "czechoslovakia": 12833, "[unused895]": 900, "##gies": 17252, "coats": 15695, "dresser": 16641, "introduced": 3107, "##pro": 21572, "practised": 20439, "##arus": 29133, "##eving": 23559, "skopje": 29255, "vans": 21994, "forbidden": 10386, "edmond": 21773, "condom": 20910, "marker": 12115, "##sas": 20939, "jericho": 17309, "1978": 3301, "afterwards": 5728, "chargers": 18649, "inquiry": 9934, "unfamiliar": 16261, "rotate": 24357, "[unused575]": 580, "added": 2794, "1938": 4260, "sour": 14768, "victoria": 3848, "zenith": 28672, "##verse": 16070, "sustainability": 15169, "temples": 8436, "##ase": 11022, "hugging": 17662, "##ouk": 27967, "loans": 10940, "wren": 16255, "fl": 13109, "##sen": 5054, "arabs": 14560, "##lists": 27103, "bruno": 10391, "##erie": 17378, "drown": 19549, "jens": 25093, "pow": 23776, "midtown": 27219, "non": 2512, "##rgos": 22280, "outlook": 17680, "rochelle": 25649, "##yl": 8516, "ck": 23616, "##ord": 8551, "breaker": 24733, "administered": 8564, "hushed": 24033, "letter": 3661, "soviet": 3354, "favorably": 27597, "juris": 27551, "striped": 17983, "##16": 16048, "entry": 4443, "philippe": 11169, "stucco": 27443, "spectacle": 21177, "##サ": 30231, "##vish": 24968, "##ada": 8447, "phrases": 15672, "[unused900]": 905, "bow": 6812, "joanna": 15730, "[unused206]": 211, "celebrates": 21566, "speeches": 13867, "ワ": 1736, "file": 5371, "arterial": 25543, "##լ": 29773, "juveniles": 25406, "cpu": 17368, "mitch": 11857, "billions": 25501, "thayer": 25563, "ore": 10848, "johnson": 3779, "sport": 4368, "，": 1989, "knitting": 26098, "straightforward": 19647, "##ъ": 29755, "²": 1082, "forbid": 27206, "compass": 16681, "scout": 7464, "lagoon": 15825, "alright": 10303, "##ency": 11916, "1728": 26833, "incense": 28647, "ding": 22033, "concacaf": 22169, "denim": 26762, "##movable": 25661, "##wr": 13088, "bel": 19337, "##ɨ": 29684, "[unused234]": 239, "coma": 16571, "haunt": 24542, "operative": 12160, "[unused727]": 732, "##ᅵ": 30019, "anterior": 15099, "baroness": 21479, "newark": 12948, "##pac": 19498, "rebirth": 22785, "[unused171]": 176, "charlton": 17821, "ribbon": 10557, "##ories": 18909, "1852": 8784, "firearm": 23646, "tanker": 20135, "ramirez": 15206, "pleased": 7537, "missouri": 5284, "##gno": 26745, "fountain": 9545, "humming": 20364, "crowds": 12783, "ella": 11713, "##frey": 22586, "compelled": 15055, "##eptive": 22048, "##onte": 28040, "decreasing": 16922, "##sar": 10286, "visions": 12018, "1809": 12861, "quick": 4248, "relief": 4335, "##bbling": 15343, "riverside": 12497, "scranton": 26123, "waves": 5975, "ithaca": 27939, "resort": 7001, "pearce": 19560, "residency": 14079, "foolish": 13219, "folks": 12455, "morrison": 9959, "##tea": 27058, "brooke": 11535, "happier": 19366, "endless": 10866, "edible": 21006, "谷": 1951, "lenin": 17497, "infantry": 3939, "##je": 6460, "##ᵇ": 30033, "misunderstood": 28947, "sony": 8412, "sw": 25430, "bloc": 15984, "tables": 7251, "diane": 12082, "##ης": 29155, "prefect": 19402, "##mer": 5017, "dodgers": 13391, "##umble": 26607, "lays": 19764, "belgarath": 21256, "##tium": 16398, "casino": 9270, "##trix": 29184, "##井": 30280, "[unused684]": 689, "days": 2420, "raf": 7148, "ing": 13749, "telescope": 12772, "escorting": 23831, "fabrication": 25884, "disappearance": 13406, "surrey": 9948, "poole": 19107, "trap": 8132, "##nosis": 27109, "[unused133]": 138, "uncomfortably": 22502, "maiden": 10494, "[unused151]": 156, "arun": 28217, "afb": 16909, "afi": 28697, "derby": 7350, "jang": 23769, "characterised": 17253, "6000": 25961, "gains": 12154, "ju": 18414, "[unused68]": 69, "cottage": 9151, "unlimited": 14668, "pictured": 15885, "bass": 3321, "enthusiasts": 20305, "##gling": 18483, "##forth": 15628, "##₄": 17004, "decorated": 7429, "fold": 10671, "skimmed": 28862, "coastal": 5780, "entrances": 18084, "properties": 5144, "prem": 26563, "boon": 23264, "donetsk": 29151, "李": 1877, "snarled": 15022, "everyday": 10126, "silesian": 20453, "plaza": 8232, "geoffrey": 11023, "erika": 24900, "mantle": 16019, "orientation": 10296, "darwin": 11534, "##տ": 29783, "staffed": 21121, "ন": 1366, "sucking": 13475, "wheeler": 12819, "wilson": 4267, "stockport": 26284, "##biology": 21685, "hopper": 20517, "pinned": 11807, "richards": 9712, "extracted": 15901, "archdeacon": 21742, "##minate": 19269, "##umen": 27417, "stimulated": 25194, "alabama": 6041, "##同": 30320, "erotic": 14253, "ill": 5665, "junk": 18015, "plunged": 16687, "gibraltar": 12272, "##toy": 29578, "monstrous": 21668, "##ந": 29922, "bathurst": 21897, "imam": 17189, "recalls": 17722, "vault": 11632, "র": 1372, "##oom": 17650, "華": 1942, "long": 2146, "##26": 23833, "janeiro": 11497, "acceptance": 9920, "proposals": 10340, "stomach": 4308, "faults": 19399, "himalayas": 26779, "quarterfinal": 29380, "##tters": 24168, "hospice": 29277, "##կ": 29774, "kicker": 22652, "reputation": 5891, "##17": 16576, "lower": 2896, "[unused789]": 794, "##har": 8167, "attend": 5463, "progressively": 20519, "strips": 12970, "##baum": 14898, "via": 3081, "them": 2068, "lectures": 8921, "##eering": 20550, "elastic": 21274, "trimmed": 21920, "trusts": 20278, "window": 3332, "scala": 26743, "systematically": 23087, "consensus": 10465, "creek": 3636, "browning": 18778, "lagos": 16738, "scooted": 24289, "webber": 19861, "noting": 9073, "##ldon": 19932, "999": 25897, "braid": 24148, "firefighters": 21767, "lockheed": 17646, "marketplace": 18086, "chip": 9090, "premiere": 6765, "##ental": 21050, "ke": 17710, "protests": 8090, "imprisonment": 10219, "բ": 1220, "exiled": 14146, "方": 1863, "bartender": 15812, "precision": 11718, "##mist": 23738, "applications": 5097, "magdalene": 26890, "##tos": 13122, "##sor": 21748, "э": 1208, "knocks": 21145, "disabled": 9776, "titan": 16537, "##ड": 29857, "1773": 19916, "##hon": 8747, "##ntes": 17340, "wage": 11897, "cooled": 12981, "##nem": 25832, "friars": 24037, "servants": 8858, "85": 5594, "frost": 10097, "campos": 26925, "##武": 30415, "##yat": 26139, "commandos": 25144, "##с": 29747, "offshore": 12195, "##bf": 29292, "plasma": 12123, "rouen": 27030, "contacted": 11925, "1804": 13140, "lsu": 21849, "dull": 10634, "dazzling": 28190, "squadrons": 11435, "fortress": 7841, "mouthful": 28462, "##c": 2278, "conversely": 18868, "##end": 10497, "コ": 1704, "consider": 5136, "acquired": 3734, "cautiously": 15151, "miriam": 16925, "##hair": 26227, "tipperary": 17333, "uh": 7910, "00pm": 27995, "yorkshire": 7018, "circled": 14867, "loss": 3279, "amino": 13096, "disperse": 28736, "[unused335]": 340, "andersson": 28643, "composition": 5512, "states": 2163, "itv": 11858, "keating": 25865, "##cards": 17965, "2012": 2262, "[unused658]": 663, "democracy": 7072, "##ा": 29876, "yen": 18371, "vox": 29450, "carries": 7883, "gerhard": 21037, "##tees": 28313, "100": 2531, "committees": 9528, "cheney": 23745, "1709": 28955, "respondents": 25094, "vastly": 24821, "##rma": 17830, "##400": 29537, "clair": 17936, "interest": 3037, "##overs": 24302, "frigate": 15437, "[unused877]": 882, "sad": 6517, "salazar": 25315, "assertion": 23617, "##om": 5358, "真": 1921, "montreal": 5548, "505": 28952, "beef": 12486, "accommodation": 11366, "##alia": 22786, "don": 2123, "ₕ": 1564, "##gard": 13444, "##utter": 26878, "elvis": 12280, "pcs": 27019, "analyses": 16478, "##fahan": 28975, "gerais": 29220, "howie": 28211, "person": 2711, "carriage": 9118, "mechanized": 23387, "attempt": 3535, "plaintiffs": 23953, "alf": 24493, "##hope": 26441, "hours": 2847, "maps": 7341, "moons": 23377, "##uria": 27703, "##bo": 5092, "##ե": 29770, "bio": 16012, "sampson": 22041, "trickle": 26027, "ভ": 1369, "sprinter": 19938, "unpaid": 23850, "##wan": 7447, "notoriety": 23215, "sexual": 4424, "deserve": 10107, "busch": 15840, "closely": 4876, "worries": 15508, "merging": 16468, "filly": 22062, "hume": 20368, "someone": 2619, "##ntly": 20630, "southwest": 4943, "though": 2295, "warmth": 8251, "138": 15028, "maintain": 5441, "chilled": 23362, "contrasting": 22133, "most": 2087, "balloon": 13212, "##church": 22743, "##rts": 21217, "casinos": 27300, "kicked": 6476, "roots": 6147, "faulty": 28927, "stab": 17079, "generations": 8213, "committee": 2837, "tipping": 25486, "##ald": 19058, "windy": 27370, "oakland": 9182, "desperate": 7143, "makeshift": 19368, "small": 2235, "governed": 9950, "uruguayan": 23464, "havre": 28890, "knowles": 22815, "demonstration": 10467, "##_": 29638, "finland": 6435, "##inen": 21820, "iii": 3523, "ᅢ": 1471, "##也": 30276, "skating": 10080, "##ტ": 29989, "##的": 30442, "haiti": 12867, "batteries": 10274, "maya": 9815, "untouched": 22154, "romanian": 7056, "##kka": 15714, "exhaled": 16242, "ப": 1388, "##ado": 9365, "labourers": 24043, "ellis": 8547, "##ro": 3217, "875": 27658, "specialized": 7772, "emile": 17127, "[unused245]": 250, "agreeing": 16191, "##osed": 24768, "duet": 11979, "founded": 2631, "voyager": 23493, "有": 1873, "##ido": 13820, "pines": 17527, "armagh": 24678,
[...]
