{"clerical": 23106, "raiding": 23530, "grotesque": 27707, "madeleine": 19324, "humanist": 24464, "##hd": 14945, "##*": 29621, "bookstore": 21785, "[unused932]": 937, "valves": 17355, "葉": 1943, "alexia": 21683, "produce": 3965, "aj": 19128, "carpenter": 10533, "patrol": 6477, "blackpool": 17444, "ancient": 3418, "bulb": 20581, "bohemia": 16799, "sponsorship": 12026, "##aur": 21159, "brands": 9639, "shifting": 9564, "870": 28864, "somalia": 14717, "##gm": 21693, "ducks": 14875, "anxiety": 10089, "azure": 24296, "digitally": 18397, "hysteria": 29004, "lebanese": 12592, "##ウ": 30222, "lock": 5843, "liza": 20503, "##eet": 15558, "someplace": 24956, "fei": 24664, "##nies": 15580, "edged": 13011, "latino": 7402, "platform": 4132, "##ntial": 19909, "windshield": 19521, "cynical": 26881, "##yl": 8516, "one": 2028, "exercising": 28428, "ts": 24529, "277": 25578, "contenders": 27236, "tombs": 16623, "##an": 2319, "force": 2486, "lecturer": 9162, "子": 1816, "politician": 3761, "##ania": 13241, "invaded": 10836, "carlos": 5828, "##sts": 12837, "motorsports": 20711, "mecklenburg": 22007, "crossover": 16335, "##ಾ": 29938, "[unused760]": 765, "opposes": 29158, "range": 2846, "undo": 25672, "zheng": 20985, "ᅥ": 1472, "accepting": 10564, "csa": 27804, "，": 1989, "autumn": 7114, "desk": 4624, "poses": 22382, "philanthropy": 29291, "adulthood": 20480, "shapiro": 24630, "terribly": 16668, "caledonia": 19305, "wai": 23701, "##ciency": 29125, "sounding": 9391, "##tle": 9286, "zeke": 18270, "##ज": 29855, "airplay": 15341, "forested": 15205, "##უ": 29990, "flair": 22012, "gaze": 3657, "goodbye": 9119, "kolkata": 13522, "suffer": 9015, "seriousness": 27994, "##phus": 25255, "57": 5401, "brightly": 14224, "hoover": 17443, "gravel": 11127, "336": 27954, "lengthy": 12401, "missing": 4394, "edison": 17046, "karen": 8129, "woodstock": 21028, "##dra": 7265, "##sdale": 15145, "##well": 4381, "residences": 14094, "sandwiches": 22094, "1717": 27525, "tolerate": 19242, "victor": 5125, "escaping": 13002, "##oteric": 29112, "yourself": 4426, "satisfying": 17087, "kid": 4845, "partisans": 20762, "warehouse": 9746, "huntington": 16364, "##ے": 29846, "##osomal": 27642, "morocco": 9835, "avila": 29079, "cigarette": 9907, "##ড": 29896, "matter": 3043, "yesterday": 7483, "##lter": 21928, "reason": 3114, "revolutionaries": 24517, "screwed": 14180, "develops": 11791, "##yin": 25811, "knocked": 6573, "upbeat": 27999, "loudly": 9928, "¡": 1067, "##va": 3567, "[unused500]": 505, "spacious": 22445, "##bility": 8553, "ballast": 28030, "##tters": 24168, "demands": 7670, "suffering": 6114, "pakistani": 9889, "rendition": 19187, "continuity": 13717, "bets": 29475, "instruments": 5693, "auguste": 20758, "##esis": 19009, "colleges": 6667, "##aid": 14326, "nominees": 17853, "##kam": 27052, "hornet": 26795, "[unused614]": 619, "##side": 7363, "漢": 1904, "[unused45]": 46, "rbi": 16929, "values": 5300, "imposed": 9770, "chiefs": 9058, "messengers": 28938, "‘": 1520, "##mounted": 27632, "cousins": 12334, "esq": 25325, "##レ": 30260, "279": 25745, "##ᅩ": 30011, "watches": 12197, "##rak": 16555, "winked": 14217, "peace": 3521, "annoyed": 11654, "micro": 12702, "viable": 14874, "richest": 18429, "cabaret": 19685, "##yev": 17240, "##ters": 7747, "dia": 22939, "plotting": 20699, "1868": 7582, "dad": 3611, "heroic": 14779, "##deck": 26547, "[unused961]": 966, "investigative": 15025, "勝": 1780, "http": 8299, "rodrigo": 18943, "missy": 25019, "平": 1839, "caracas": 21675, "holmes": 9106, "commands": 10954, "netherlands": 4549, "ian": 4775, "whig": 21632, "1915": 4936, "brewster": 23009, "distributors": 22495, "##ᅴ": 30018, "ø": 1100, "republished": 24476, "seizing": 24681, "23": 2603, "autism": 19465, "drafted": 7462, "ropes": 14607, "rest": 2717, "armor": 8177, "utopia": 26425, "tasked": 13487, "[unused250]": 255, "sucked": 8631, "stale": 26729, "incompatible": 25876, "flinch": 23224, "士": 1807, "nixon": 11296, "jeep": 14007, "宿": 1826, "problems": 3471, "clair": 17936, "librarian": 13850, "##bor": 12821, "provoked": 19157, "joanne": 23459, "intends": 18754, "monarchy": 12078, "##կ": 29774, "enthusiasts": 20305, "彳": 1845, "intervening": 26623, "disposed": 21866, "bubbles": 17255, "newly": 4397, "cascade": 16690, "gland": 25320, "offensive": 5805, "macy": 20914, "##―": 30053, "moreover": 9308, "alias": 14593, "brighter": 16176, "cargo": 6636, "tornado": 11352, "repetitive": 23563, "treacherous": 26648, "1723": 26621, "##torm": 20654, "cesare": 26708, "calculus": 19276, "ζ": 1160, "limp": 14401, "tended": 11121, "upstairs": 8721, "singular": 13048, "skating": 10080, "taliban": 16597, "##ngen": 25997, "m1": 23290, "phases": 12335, "##sp": 13102, "dawned": 27702, "clicks": 29225, "##24": 18827, "confuse": 28679, "yielded": 17544, "employee": 7904, "ave": 13642, "##lish": 13602, "drummond": 19266, "##laise": 25122, "laguna": 18169, "returned": 2513, "leveled": 22915, "##ers": 2545, "##gut": 27920, "constantine": 12790, "translating": 22969, "kn": 14161, "good": 2204, "[unused294]": 299, "nu": 16371, "prequel": 28280, "手": 1858, "impacted": 19209, "suns": 19352, "yemen": 13968, "##vocation": 19152, "##om": 5358, "[unused24]": 25, "accord": 15802, "chaotic": 19633, "flared": 14937, "gazing": 16448, "harmon": 25546, "##yce": 29297, "##47": 22610, "rub": 14548, "##cke": 19869, "romney": 19615, "bilateral": 17758, "##ね": 30196, "nor": 4496, "[unused829]": 834, "valencia": 13083, "revival": 6308, "imminent": 17566, "miocene": 26926, "stamford": 22469, "ᄊ": 1462, "##dorff": 26559, "##caster": 25490, "moods": 27824, "point": 2391, "stability": 9211, "##ific": 18513, "##ram": 6444, "sneaking": 20727, "kiss": 3610, "distraction": 14836, "[unused589]": 594, "fates": 26417, "beer": 5404, "ks": 29535, "ferreira": 26135, "notices": 14444, "cryptic": 26483, "##wer": 13777, "##א": 29788, "cheryl": 19431, "[unused87]": 88, "albrecht": 25542, "odor": 19255, "education": 2495, "[unused358]": 363, "popularized": 20339, "[unused407]": 412, "tod": 28681, "∨": 1603, "harald": 20966, "?": 1029, "##chin": 17231, "hemisphere": 14130, "stud": 16054, "work": 2147, "greenfield": 26713, "delight": 12208, "unsuccessfully": 11551, "decorate": 29460, "pd": 22851, "##igo": 14031, "yards": 4210, "segregated": 24382, "che": 18178, "valiant": 24329, "fatally": 26292, "##bang": 25153, "cord": 11601, "interventions": 19388, "八": 1771, "haydn": 25595, "prospects": 16746, "##nx": 26807, "nils": 27282, "ff": 21461, "gs": 28177, "##tland": 19270, "##見": 30474, "##འ": 29969, "differentiate": 21032, "##pt": 13876, "finland": 6435, "goddard": 22547, "maddox": 22730, "narrator": 11185, "##urity": 25137, "reactor": 13308, "specialising": 23315, "ramp": 13276, "stops": 6762, "tn": 28286, "whistling": 24350, "och": 28166, "wooden": 4799, "1848": 7993, "hormones": 20752, "species": 2427, "bee": 10506, "entrusted": 18011, "disagreements": 23145, "小": 1829, "##貴": 30479, "##न": 29863, "[unused467]": 472, "dies": 8289, "colorful": 14231, "##ory": 10253, "si": 9033, "betrayal": 14583, "[unused767]": 772, "alice": 5650, "[unused214]": 219, "mystic": 17477, "walton": 14290, "carson": 9806, "nba": 6452, "luke": 5355, "##kell": 18690, "fluent": 19376, "illustrates": 24899, "fine": 2986, "##dda": 25062, "pupil": 11136, "inverted": 20037, "careers": 10922, "pot": 8962, "[unused445]": 450, "cumulative": 23260, "slavic": 13838, "sophie": 8234, "albanians": 25267, "extinct": 8548, "sector": 4753, "grazed": 26627, "hypnotic": 28322, "expanding": 9186, "##iaceae": 23357, "##ped": 5669, "planets": 11358, "##amps": 25167, "##ides": 8621, "##ton": 2669, "exhibit": 8327, "##ische": 13719, "napier": 21320, "repair": 7192, "ক": 1353, "[unused613]": 618, "lightly": 8217, "barbarian": 25075, "##film": 23665, "##⁄₄": 27392, "steps": 4084, "##と": 30192, "##thy": 16921, "anthologies": 25675, "inning": 12994, "oval": 9242, "##bold": 27495, "backpack": 13383, "mobility": 12969, "projects": 3934, "trans": 9099, "##moor": 17622, "ヒ": 1719, "[unused606]": 611, "josie": 15293, "##nish": 24014, "sanctuary": 8493, "\\": 1032, "obstacles": 15314, "brazil": 4380, "example": 2742, "ground": 2598, "inhabit": 21490, "pastures": 24813, "ella": 11713, "[unused715]": 720, "phone": 3042, "dockyard": 24874, "wednesday": 9317, "easy": 3733, "##uto": 16161, "neighborhood": 5101, "##ears": 26492, "##iction": 28097, "engravings": 28611, "quentin": 15969, "##hly": 27732, "fleet": 4170, "larry": 6554, "cardinal": 7185, "focusing": 7995, "podcast": 16110, "##analysis": 25902, "tempting": 23421, "jeremy": 7441, "download": 8816, "clapping": 27104, "##mas": 9335, "##kin": 4939, "glenn": 9465, "ensued": 18942, "sanctioned": 14755, "mediated": 19872, "database": 7809, "freud": 19338, "[unused814]": 819, "anyone": 3087, "acclaimed": 10251, "ling": 17002, "pass": 3413, "cycling": 9670, "differently": 11543, "composed": 3605, "darkened": 13755, "leisure": 12257, "firth": 25138, "unbearable": 24257, "forgiven": 24280, "stephenson": 19789, "##tase": 18260, "horne": 24084, "wang": 7418, "cumbria": 25559, "##osing": 18606, "anson": 25435, "connectivity": 20831, "conflicts": 9755, "deportivo": 23696, "grinding": 16153, "24th": 13386, "latter": 3732, "shout": 11245, "sink": 7752, "curl": 15390, "sex": 3348, "##ono": 17175, "zeppelin": 22116, "##gall": 22263, "##my": 8029, "fulfillment": 29362, "pathways": 16910, "##istle": 24242, "practitioner": 18742, "##amine": 19915, "##ह": 29875, "glass": 3221, "accredited": 11459, "acknowledging": 21894, "##unk": 16814, "##馬": 30506, "##len": 7770, "##rai": 14995, "agreeing": 16191, "celia": 18020, "bearer": 20905, "greed": 22040, "bordered": 11356, "saline": 28413, "scouts": 10158, "kirby": 15129, "##dating": 16616, "schooling": 14118, "peg": 25039, "yanked": 10963, "##iner": 26455, "jesse": 7627, "fielded": 20988, "reviewing": 15252, "##oa": 10441, "chaplin": 23331, "gonzales": 24334, "ability": 3754, "achieving": 10910, "bangalore": 14022, "##き": 30178, "emotional": 6832, "places": 3182, "register": 4236, "vii": 8890, "ship": 2911, "##jian": 27685, "##thus": 19877, "ann": 5754, "dialects": 11976, "##imeter": 19198, "disasters": 18665, "treason": 14712, "officer": 2961, "rabbis": 25602, "guo": 22720, "prague": 8634, "logged": 26618, "baton": 15302, "chained": 22075, "drainage": 11987, "bled": 23919, "1944": 3646, "filmmakers": 16587, "bologna": 14102, "##wd": 21724, "##istic": 6553, "beijing": 7211, "spectators": 12405, "letterman": 26593, "য": 1371, "cologne": 10918, "transformations": 21865, "[unused730]": 735, "recreated": 29414, "prejudice": 18024, "uniting": 26112, "urgent": 13661, "leaflets": 27306, "traveled": 6158, "nominations": 9930, "somethin": 27941, "lining": 14834, "roared": 14242, "kilometers": 7338, "mons": 29408, "saxophonist": 19977, "willingly": 18110, "millennium": 10144, "##mouth": 14359, "whitaker": 27049, "169": 18582, "##grave": 12830, "##ʌ": 29700, "sidney": 11430, "ण": 1322, "olga": 15585, "##see": 19763, "##pen": 11837, "##oi": 10448, "value": 3643, "augustine": 14060, "delilah": 23006, "hampton": 11615, "panzer": 16946, "judas": 25326, "runners": 7190, "y": 1061, "uneven": 17837, "aquarium": 18257, "ib": 21307, "maj": 16686, "corbin": 24003, "[unused688]": 693, "wrestled": 20615, "##tad": 17713, "confederacy": 18179, "prosperity": 14165, "belfast": 10330, "##nstein": 15493, "space": 2686, "unionist": 17104, "[unused757]": 762, "vertices": 18984, "bayer": 26367, "drills": 28308, "[MASK]": 103, "snatch": 23365, "##ware": 8059, "enhanced": 9412, "##ndo": 15482, "yarn": 27158, "ltd": 5183, "}": 1065, "cheeks": 6029, "mma": 21021, "auxiliary": 9830, "edited": 5493, "remember": 3342, "alone": 2894, "substantially": 12381, "##working": 21398, "retail": 7027, "[unused726]": 731, "schumacher": 22253, "exhibitions": 8596, "fantastic": 10392, "##scoe": 28147, "seven": 2698, "##mous": 27711, "propose": 16599, "specifications": 15480, "horrified": 14603, "stronghold": 16995, "procedures": 8853, "stillness": 29435, "compares": 22963, "excess": 9987, "sherwood": 19427, "##breakers": 27623, "##弘": 30369, "ে": 1381, "rights": 2916, "beaches": 12212, "mcmillan": 27436, "##dication": 25027, "atm": 27218, "consultants": 22283, "equatorial": 21333, "fluorescent": 22184, "##ited": 17572, "frequencies": 13139, "incomplete": 12958, "rustling": 29188, "card": 4003, "taxonomy": 25274, "usd": 13751, "₍": 1558, "allison": 10786, "collins": 6868, "##eller": 24038, "en": 4372, "pigeons": 27567, "##bis": 18477, "bananas": 26191, "stranded": 15577, "validation": 27354, "wesley": 11482, "##rdes": 26371, "1924": 4814, "abyss": 22159, "##reen": 28029, "hesitant": 20221, "vascular": 21449, "oven": 17428, "অ": 1347, "##cor": 27108, "honour": 6225, "##↑": 30112, "##low": 8261, "wrestlemania": 28063, "cheering": 24867, "##cher": 7474, "##alic": 27072, "complained": 10865, "answered": 4660, "figures": 4481, "rocket": 7596, "##ppe": 21512, "[unused75]": 76, "##wed": 15557, "mentioned": 3855, "ufo": 24321, "inaugural": 7725, "kc": 21117, "##cit": 26243, "prophets": 23172, "spilling": 18054, "wall": 2813, "portfolio": 11103, "malley": 25271, "contractor": 13666, "marquez": 27320, "##umb": 25438, "[unused543]": 548, "zero": 5717, "##arded": 28037, "impending": 17945, "layne": 22452, "yoga": 13272, "ː": 1150, "consortium": 12360, "[unused781]": 786, "##storm": 19718, "mao": 15158, "crown": 4410, "stil": 25931, "simulation": 12504, "martian": 20795, "##gis": 17701, "##press": 20110, "breakthrough": 12687, "chris": 3782, "messing": 22308, "utilized": 12550, "龍": 1982, "blake": 6511, "##ᵇ": 30033, "##ility": 15148, "##neil": 27276, "huge": 4121, "mayhem": 26865, "tractor": 16358, "basics": 24078, "##culture": 14561, "challenged": 8315, "nailed": 26304, "laureate": 17656, "prisoner": 7267, "brisk": 28022, "silas": 18553, "##ichi": 11319, "##ovo": 16059, "##cular": 15431, "corporation": 3840, "additional": 3176, "1643": 25534, "rings": 7635, "moment": 2617, "##ᄎ": 30001, "childhood": 5593, "assaults": 22664, "undead": 17315, "dar": 18243, "dagger": 10794, "temeraire": 23611, "[unused683]": 688, "##fe": 7959, "sequences": 10071, "cameras": 8629, "admissions": 20247, "##hwa": 18663, "metz": 24424, "talent": 5848, "demographics": 28321, "classes": 4280, "critically": 11321, "naomi": 12806, "##22": 19317, "testament": 9025, "got": 2288, "acquaintances": 29409, "##rge": 20800, "[unused598]": 603, "174": 19492, "softball": 12585, "debris": 11385, "cookies": 16324, "##ה": 29128, "webster": 11635, "domes": 26193, "spain": 3577, "bars": 6963, "wince": 29585, "deployment": 10813, "paired": 12739, "vt": 28879, "##ental": 21050, "scoop": 23348, "myself": 2870, "[unused210]": 215, "genetically": 19345, "roofs": 15753, "stretch": 7683, "singh": 5960, "compensated": 29258, "ز": 1281, "│": 1616, "##tative": 27453, "helplessly": 24942, "scalp": 21065, "rann": 26312, "[unused125]": 130, "ached": 15043, "nic": 27969, "telling": 4129, "sevilla": 29363, "junction": 5098, "յ": 1230, "1744": 25846, "##শ": 29910, "commander": 3474, "realise": 19148, "motion": 4367, "won": 2180, "##any": 19092, "examining": 12843, "mixing": 6809, "drained": 11055, "zev": 27909, "##ald": 19058, "compliance": 12646, "ford": 4811, "##jong": 21958, "##ifiers": 28295, "latvian": 14698, "[unused681]": 686, "digits": 16648, "bodies": 4230, "mill": 4971, "slept": 7771, "colonies": 8355, "[unused947]": 952, "architects": 8160, "baltimore": 6222, "prince": 3159, "philip": 5170, "ieee": 15368, "nut": 17490, "[unused77]": 78, "##tish": 24788, "lucivar": 21401, "supplementary": 26215, "breathing": 5505, "tank": 4951, "##uin": 20023, "osman": 28609, "hart": 7530, "imprisonment": 10219, "unstable": 14480, "romanian": 7056, "1786": 17436, "masonic": 21152, "[unused617]": 622, "constitutional": 6543, "thirteen": 7093, "sacrificed": 20268, "clit": 17962, "##mur": 20136, "quit": 8046, "thessaloniki": 23162, "井": 1754, "pulled": 2766, "preview": 19236, "crawl": 13529, "garbage": 13044, "reporters": 12060, "dvd": 4966, "condo": 25805, "##games": 26393, "taylor": 4202, "eun": 26070, "diagonal": 19754, "##lon": 7811, "criticisms": 19628, "scanned": 11728, "brit": 28101, "techniques": 5461, "definite": 15298, "miserable": 13736, "《": 1639, "expulsion": 18272, "rob": 6487, "renewable": 13918, "mick": 10872, "belgian": 6995, "##dou": 26797, "'": 1005, "##qual": 26426, "blocked": 8534, "rug": 20452, "supervise": 28589, "definition": 6210, "taxonomic": 27691, "reactivated": 28577, "rates": 6165, "vulture": 27588, "tbs": 29584, "##oder": 27381, "730": 28004, "jealousy": 14225, "hiss": 19074, "[unused81]": 82, "themed": 11773, "[unused624]": 629, "gerald": 9659, "igor": 14661, "##т": 22919, "licensed": 7000, "mechanism": 7337, "##aw": 10376, "##zziness": 29212, "##پ": 29839, "##33": 22394, "食": 1978, "cube": 14291, "profession": 9518, "##ssler": 23385, "inches": 5282, "##borough": 10235, "1640": 21533, "renee": 17400, "##cio": 9793, "piedmont": 18873, "woodland": 11051, "admiration": 17005, "diagnosis": 11616, "secretive": 28607, "inn": 7601, "measures": 5761, "science": 2671, "swimming": 5742, "penang": 21812, "29": 2756, "acting": 3772, "lifeless": 22185, "##sat": 16846, "abel": 16768, "assign": 23911, "charcoal": 18872, "robbers": 28019, "governance": 10615, "serials": 28172, "cello": 10145, "##fted": 18915, "ballet": 7250, "cochin": 28982, "##atal": 27815, "##yas": 16303, "undergone": 17215, "bunch": 9129, "##mia": 10092, "blinked": 7948, "actively": 8851, "##basket": 25351, "⺼": 1633, "vegas": 7136, "##ze": 4371, "auto": 8285, "spit": 13183, "witnessed": 9741, "abrupt": 18772, "cared": 8725, "coordinates": 12093, "hoc": 21929, "goddamn": 16477, "##cans": 26642, "routine": 9410, "intern": 25204, "maze": 15079, "guessed": 11445, "specialty": 12233, "##door": 23835, "weaken": 23021, "bremen": 16314, "cyclists": 21912, "pain": 3255, "bottom": 3953, "leiden": 20329, "hmm": 17012, "tremendous": 14388, "perfectly": 6669, "jae": 22770, "fern": 20863, "beat": 3786, "↓": 1586, "biologist": 21477, "riga": 17557, "##while": 19927, "chance": 3382, "powerplant": 19526, "lan": 17595, "mackenzie": 11407, "nord": 13926, "privileged": 21598, "karin": 24537, "##eles": 26741, "feeding": 8521, "occupations": 23374, "hugging": 17662, "ambrose": 15675, "melted": 12501, "nicaragua": 15448, "citrus": 20418, "render": 17552, "thrown": 6908, "##rdi": 17080, "sand": 5472, "iced": 28248, "unfortunate": 15140, "discretion": 19258, "mal": 15451, "bonding": 19882, "queen": 3035, "evergreen": 16899, "solicitor": 15468, "processing": 6364, "##itarian": 25691, "measure": 5468, "90s": 17233, "##icated": 17872, "1930s": 5687, "##diment": 21341, "##г": 29741, "macon": 20025, "nw": 22064, "ti": 14841, "rousseau": 26868, "beta": 8247, "tna": 20108, "heir": 8215, "domestically": 27143, "appeals": 9023, "introduction": 4955, "mold": 18282, "responsibility": 5368, "[unused409]": 414, "salim": 27490, "clown": 15912, "adelaide": 7364, "cheered": 25471, "penned": 17430, "1824": 11617, "reset": 25141, "spitting": 24307, "treaties": 16013, "greenville": 20967, "efficacy": 21150, "##kaya": 20718, "quan": 24110, "squared": 19942, "[unused186]": 191, "293": 26953, "[unused116]": 121, "233": 22115, "faint": 8143, "bop": 29432, "lovers": 10205, "retreating": 17512, "tho": 27793, "stupid": 5236, "bachelor": 5065, "colors": 6087, "kendra": 13812, "yiddish": 20112, "daryl": 22514, "[unused837]": 842, "hermann": 12224, "dakota": 7734, "fairies": 20182, "##zan": 13471, "440": 17422, "adjacent": 5516, "unlikely": 9832, "decorated": 7429, "palo": 24326, "aggressively": 24663, "factories": 11123, "raid": 8118, "##xing": 19612, "67": 6163, "[unused492]": 497, "##40": 12740, "##wave": 16535, "nehru": 23556, "certification": 10618, "##ood": 17139, "et": 3802, "##sin": 11493, "[unused422]": 427, "[unused798]": 803, "flex": 23951, "inc": 4297, "clerks": 26706, "bohemian": 18063, "reply": 7514, "whale": 13156, "##ex": 10288, "strategies": 9942, "projection": 13996, "yields": 16189, "##8": 2620, "##arte": 24847, "aggregator": 24089, "grandchildren": 13628, "petit": 17268, "resorts": 16511, "sometime": 8811, "hector": 10590, "cereal": 20943, "midst": 12930, "parsons": 13505, "##gong": 17036, "sample": 7099, "হ": 1377, "mage": 17454, "##lts": 21593, "291": 27173, "narcotics": 27290, "robot": 8957, "spaniards": 20999, "monograph": 24039, "erwin": 22209, "##ʊ": 29698, "monmouth": 20433, "seater": 23392, "dummy": 24369, "gaddafi": 28924, "##nk": 8950, "bared": 23485, "sexy": 7916, "teasing": 12216, "slavery": 8864, "dispatched": 14501, "##о": 14150, "fractures": 28929, "programmers": 28547, "sequential": 25582, "1958": 3845, "brigade": 4250, "publications": 5523, "##dition": 20562, "trumpeter": 28220, "truncated": 25449, "##ment": 3672, "routinely": 19974, "##tive": 6024, "lublin": 18967, "dan": 4907, "boilers": 20412, "bronx": 14487, "[unused897]": 902, "mantle": 16019, "hostess": 22566, "robust": 15873, "sb": 24829, "limits": 6537, "##mack": 26945, "directing": 9855, "indifferent": 24436, "tam": 17214, "insect": 14211, "jordanian": 26276, "oldham": 18285, "proportional": 14267, "1880": 6756, "committees": 9528, "[unused535]": 540, "donor": 15009, "durham": 9296, "outnumbered": 21943, "elliptic": 29413, "rhodesia": 20340, "bangladeshi": 24267, "pulse": 8187, "inventor": 12235, "televised": 13762, "1857": 8204, "intent": 7848, "reputed": 22353, "manuscript": 8356, "jurisdictions": 17370, "[unused170]": 175, "##ess": 7971, "hartley": 20955, "##tum": 11667, "ugly": 9200, "scratch": 11969, "nocturnal": 23789, "solomon": 9168, "revenue": 6599, "attained": 12754, "cognition": 26497, "prompt": 25732, "turbines": 17396, "waldo": 28806, "##rate": 11657, "[unused572]": 577, "grace": 4519, "inadvertently": 21089, "luis": 6446, "yer": 20416, "relocated": 7448, "##the": 10760, "##matic": 12644, "gallon": 25234, "神": 1925, "##lights": 15733, "##य": 29868, "beaten": 7854, "business": 2449, "worst": 5409, "preventing": 10723, "madeira": 27309, "approx": 22480, "corinne": 26879, "newton": 8446, "[unused806]": 811, "reigned": 21236, "##hn": 7295, "curiosity": 10628, "##rwood": 20941, "##nted": 14706, "1100": 22096, "anya": 21728, "cow": 11190, "mobilization": 25580, "ph": 6887, "selection": 4989, "[unused708]": 713, "daily": 3679, "##gus": 12349, "broughton": 29187, "γ": 1157, "[unused980]": 985, "notable": 3862, "instituted": 14948, "δ": 1158, "strands": 14119, "##ala": 7911, "emerges": 19391, "##si": 5332, "##া": 29914, "napkin": 20619, "₇": 1554, "towel": 10257, "innings": 7202, "forgotten": 6404, "##gle": 9354, "obscured": 23649, "##works": 9316, "decade": 5476, "shaggy": 25741, "ℝ": 1579, "paused": 5864, "##girl": 15239, "educators": 19156, "zoe": 11199, "engineered": 13685, "##ms": 5244, "bullock": 25200, "baptised": 28798, "continuation": 13633, "vamp": 20279, "stadiums": 28244, "##ナ": 30241, "cam": 11503, "ʳ": 1142, "milano": 21613, "##し": 30183, "ferrari": 13632, "[unused836]": 841, "recruited": 8733, "xl": 28712, "##icing": 23553, "##ua": 6692, "compulsion": 27638, "hates": 16424, "lorraine": 13895, "stopped": 3030, "##kei": 29501, "##pers": 7347, "cottages": 18918, "sq": 5490, "munich": 7469, "footprint": 24319, "brian": 4422, "ying": 20879, "##naire": 20589, "plume": 26888, "toni": 16525, "expression": 3670, "titus": 18828, "northeast": 4794, "##nir": 29339, "su": 10514, "manipulated": 20063, "der": 4315, "##dos": 12269, "mayfair": 28387, "rose": 3123, "induction": 15946, "grocery": 13025, "thinking": 3241, "##年": 30366, "milestone": 19199, "silent": 4333, "،": 1268, "trend": 9874, "scenic": 12916, "byu": 23471, "reception": 7684, "carmichael": 23537, "##eses": 23072, "des": 4078, "jem": 24193, "apparatus": 14709, "degraded": 26131, "accuse": 26960, "hiv": 9820, "danish": 5695, "enjoy": 5959, "##ens": 6132, "fulfilling": 21570, "libyan": 19232, "depict": 17120, "faults": 19399, "module": 11336, "norway": 5120, "sorting": 22210, "jase": 18626, "nickname": 8367, "useless": 11809, "lily": 7094, "к": 1189, "spell": 6297, "##if": 10128, "tag": 6415, "uk": 2866, "spurs": 18205, "remake": 12661, "162": 17832, "corresponded": 27601, "##ulate": 9869, "benito": 23595, "fitzroy": 21870, "ヘ": 1721, "transcript": 24051, "1648": 22533, "rail": 4334, "##hler": 13620, "machines": 6681, "kristin": 25130, "sr": 5034, "seduce": 23199, "highlanders": 22672, "kashmir": 13329, "##間": 30495, "measured": 7594, "middletown": 28747, "##missible": 26770, "volkswagen": 18817, "webber": 19861, "graphics": 8389, "regret": 9038, "##rie": 7373, "##verance": 21998, "barr": 19820, "##gs": 5620, "mined": 21846, "##tal": 9080, "##ading": 23782, "##eve": 18697, "47": 4700, "和": 1796, "##anus": 20849, "commonplace": 27550, "扌": 1859, "chrysler": 17714, "fade": 12985, "owns": 8617, "gel": 21500, "54th": 29570, "##ece": 26005, "turtles": 16489, "knit": 22404, "phi": 13569, "##ber": 5677, "glitter": 27566, "modest": 10754, "keith": 6766, "dignitaries": 27960, "pe": 21877, "rr": 25269, "##plex": 19386, "[unused277]": 282, "##take": 15166, "barker": 12852, "##ignon": 24796, "modelling": 19518, "recommend": 16755, "orient": 16865, "dispute": 7593, "juris": 27551, "gardening": 21529, "##aves": 21055, "couldn": 2481, "ვ": 1443, "litres": 25783, "dresses": 14464, "indian": 2796, "mattered": 13836, "intensely": 20531, "classed": 27811, "##flict": 29301, "orchestra": 4032, "##eville": 21187, "india": 2634, "newfound": 27608, "pearce": 19560, "##eland": 25689, "sabrina": 21876, "expansion": 4935, "francesco": 11400, "##wood": 3702, "guarding": 17019, "adam": 4205, "##rga": 28921, "##、": 30161, "heating": 10808, "intercept": 19115, "mohamed": 14467, "technicians": 20202, "assumed": 5071, "evie": 26400, "damaged": 5591, "entertain": 20432, "##cer": 17119, "##hed": 9072, "grasped": 15517, "composing": 16572, "leonard": 7723, "peacock": 18931, "cornerback": 26857, "turbine": 14027, "amir": 18904, "fairbanks": 24502, "branches": 5628, "draining": 19689, "herbert": 7253, "##rino": 17815, "hem": 19610, "lieutenant": 3812, "membrane": 10804, "avid": 18568, "scrolling": 28903, "elevator": 7764, "sam": 3520, "2008": 2263, "enrollment": 10316, "marsden": 29558, "overseeing": 19642, "allegheny": 21192, "reducing": 8161, "starboard": 25211, "##lid": 21273, "##born": 10280, "vanguard": 18332, "prop": 17678, "197": 19975, "##ir": 4313, "crossing": 5153, "fooled": 25857, "feldman": 26908, "##uh": 27225, "joy": 6569, "exaggerated": 16903, "##oy": 6977, "strangers": 12358, "##hawks": 16043, "##sa": 3736, "clube": 24852, "overwhelmed": 13394, "##щ": 29754, "usaf": 18531, "tones": 12623, "heron": 22914, "loud": 5189, "[unused466]": 471, "direction": 3257, "axe": 12946, "yoon": 24863, "26th": 14935, "elisabeth": 12877, "goalscorer": 28602, "##eres": 18702, "bombings": 20109, "ん": 1691, "adele": 17623, "[unused370]": 375, "detrimental": 29172, "jackson": 4027, "mapping": 12375, "printing": 8021, "arranged": 5412, "horribly": 27762, "nerve": 9113, "tattoo": 11660, "hiding": 6318, "omar": 13192, "malicious": 24391, "[unused100]": 105, "improvement": 7620, "mattress": 13342, "must": 2442, "sutherland": 14274, "ecole": 12431, "##ヘ": 30247, "circling": 18519, "correlation": 16902, "soldier": 5268, "[unused802]": 807, "##ffe": 16020, "stroke": 6909, "shankar": 17429, "bombed": 18897, "rosary": 28291, "differing": 16965, "festival": 2782, "labyrinth": 24239, "pivotal": 20369, "groan": 13001, "practitioners": 14617, "34th": 20460, "angelo": 12262, "fleetwood": 23866, "garrison": 8427, "家": 1825, "diverse": 7578, "into": 2046, "origin": 4761, "発": 1914, "##♭": 24102, "##bba": 22414, "annually": 6604, "fix": 8081, "##ins": 7076, "##lis": 6856, "##phic": 17926, "comic": 5021, "arising": 17707, "totaled": 23596, "chip": 9090, "incredible": 9788, "3a": 23842, "boats": 6242, "##ologist": 8662, "##pic": 24330, "revolver": 17863, "zu": 16950, "purposely": 24680, "doin": 24341, "[unused605]": 610, "chamber": 4574, "advised": 9449, "responsibilities": 10198, "iraq": 5712, "drastically": 21040, "nes": 24524, "long": 2146, "truman": 15237, "##er": 2121, "##ady": 18632, "##น": 29949, "proto": 15053, "[unused948]": 953, "howled": 27489, "theatrical": 8900, "screenplay": 9000, "##ical": 7476, "calling": 4214, "fife": 20537, "chat": 11834, "informally": 21858, "commemoration": 22377, "thugs": 24106, "elected": 2700, "rue": 13413, "theresa": 14781, "1812": 9842, "pleasing": 24820, "digest": 17886, "sinking": 10186, "##mission": 25481, "##rily": 11272, "[unused143]": 148, "##lles": 20434, "##kala": 26907, "##vre": 12229, "##ples": 21112, "clock": 5119, "communion": 15661, "bicycle": 10165, "##ash": 11823, "fragrance": 24980, "determination": 9128, "iso": 11163, "janet": 9965, "westfield": 26584, "##nut": 24072, "okinawa": 15052, "rangers": 7181, "likely": 3497, "soothing": 16684, "##z": 2480, "contestants": 10584, "appetite": 18923, "liv": 22135, "jesuits": 20297, "groups": 2967, "##cut": 12690, "andreas": 12460, "dial": 13764, "##永": 30422, "submission": 12339, "##oms": 22225, "38": 4229, "##hiff": 25798, "posting": 14739, "##igny": 26978, "##wk": 26291, "burnett": 13829, "battles": 7465, "extensively": 8077, "pam": 14089, "punk": 7196, "share": 3745, "peterborough": 17587, "carnage": 27450, "disorders": 10840, "teller": 21322, "dana": 11271, "gillespie": 21067, "tools": 5906, "splits": 19584, "suppressed": 13712, "kraft": 26680, "experiences": 6322, "k": 1047, "##arat": 25879, "##atory": 14049, "##due": 20041, "wink": 16837, "syndicated": 13889, "travis": 10001, "thighs": 9222, "virtually": 8990, "ร": 1417, "stitch": 26035, "kelvin": 24810, "wilcox": 23926, "##ken": 7520, "1930": 4479, "counters": 24094, "bypass": 11826, "valkyrie": 26696, "里": 1962, "drove": 5225, "skimmed": 28862, "studied": 3273, "townspeople": 27938, "##entes": 26933, "colleague": 11729, "cooks": 26929, "penetration": 20015, "relied": 13538, "byzantine": 8734, "couch": 6411, "hangul": 19051, "ɫ": 1120, "136": 15407, "##dled": 20043, "anthropologist": 21571, "##rip": 29443, "hades": 23003, "##icz": 18682, "predictions": 20932, "##yuan": 17236, "##tment": 21181, "delaying": 29391, "##清": 30429, "[unused973]": 978, "chinese": 2822, "doc": 9986, "systematically": 23087, "threatened": 5561, "fuselage": 13478, "voters": 7206, "withdraw": 10632, "transmit": 19818, "theoretical": 9373, "lectures": 8921, "atlas": 11568, "differentiation": 20582, "entirely": 4498, "##մ": 29776, "fins": 18564, "arbitration": 18010, "lsu": 21849, "lviv": 23814, "##pton": 15857, "foreign": 3097, "241": 22343, "drink": 4392, "bands": 4996, "##cat": 11266, "scrub": 18157, "bartender": 15812, "niagara": 15473, "azerbaijan": 8365, "##ppy": 27659, "listened": 7791, "antenna": 13438, "[unused657]": 662, "cradled": 23774, "driving": 4439, "kitchens": 26051, "mist": 11094, "28th": 15538, "stores": 5324, "vikings": 13468, "リ": 1732, "procurement": 21423, "chesterfield": 22699, "32nd": 20628, "utilities": 16548, "ˢ": 1152, "##tower": 23196, "##eng": 13159, "mohammed": 12619, "##dal": 9305, "sequencing": 24558, "amusing": 19142, "kidnapping": 15071, "##ち": 30188, "mole": 16709, "[unused616]": 621, "drafts": 28967, "banquet": 19032, "judgement": 16646, "##tism": 17456, "##folia": 21710, "elizabeth": 3870, "##bic": 13592, "ල": 1406, "[unused551]": 556, "journalist": 4988, "biology": 7366, "[unused491]": 496, "ems": 29031, "lied": 9828, "##bant": 29604, "swamp": 11963, "##oche": 23555, "eastman": 24252, "lifting": 8783, "posed": 13686, "leukemia": 25468, "naive": 15743, "weddings": 20429, "anarchist": 18448, "mule": 20568, "werner": 14121, "خ": 1277, "hissed": 11402, "##sil": 27572, "challenger": 12932, "spray": 12509, "412": 25873, "##grass": 19673, "1661": 24046, "[unused940]": 945, "##gi": 5856, "rehab": 24497, "aryan": 26030, "oclc": 12258, "##anial": 27532, "##ao": 7113, "[unused736]": 741, "govt": 22410, "[unused17]": 18, "daniela": 28541, "jumped": 5598, "rouse": 27384, "sara": 7354, "essay": 9491, "valued": 11126, "beverley": 29057, "discourse": 15152, "##usions": 22016, "ᄋ": 1463, "[unused675]": 680, "confidence": 7023, "チ": 1710, "estates": 8707, "brownish": 19437, "##icio": 27113, "controlling": 9756, "irritating": 29348, "yawned": 27626, "##wald": 11191, "data": 2951, "ssr": 20896, "customs": 8205, "ortega": 25859, "flank": 12205, "transient": 25354, "packard": 24100, "##ailing": 29544, "##uity": 18518, "intrusion": 24554, "nadu": 10703, "##rath": 27362, "coronation": 12773, "protesting": 21248, "solid": 5024, "joshi": 26645, "nickel": 15519, "[unused129]": 134, "empathy": 26452, "groningen": 29070, "richie": 14411, "##fs": 10343, "shook": 3184, "foil": 17910, "asylum": 11386, "pbs": 13683, "##yler": 20853, "functional": 8360, "##lar": 8017, "場": 1806, "openings": 16556, "cerambycidae": 13168, "pentagon": 20864, "progressive": 6555, "tempest": 22553, "lifespan": 26462, "##urs": 9236, "included": 2443, "morgan": 5253, "turnbull": 26439, "lass": 27333, "teenage": 9454, "##child": 19339, "drops": 9010, "jacksonville": 13057, "[unused369]": 374, "1807": 13206, "evidenced": 21328, "puddle": 25081, "guillermo": 21070, "retreat": 7822, "reprinted": 13603, "habit": 10427, "##enay": 27727, "##logist": 10727, "[unused353]": 358, "##lets": 13461, "worried": 5191, "wrongly": 29116, "snack": 19782, "г": 1183, "muslims": 7486, "burnham": 25295, "prayers": 12583, "bengali": 11267, "irony": 19728, "canary": 17154, "contract": 3206, "##eye": 17683, "donald": 6221, "kawasaki": 27324, "##eda": 11960, "##zers": 16750, "less": 2625, "liked": 4669, "disperse": 28736, "billion": 4551, "##ando": 28574, "appreciation": 12284, "ae": 29347, "anonymous": 10812, "tracked": 12808, "compensation": 9430, "nets": 16996, "##ddin": 18277, "##nius": 20447, "dammit": 20878, "rosewood": 29528, "metropolis": 18236, "minus": 15718, "extent": 6698, "responsive": 26651, "runner": 5479, "gracefully": 28266, "internet": 4274, "enthusiastically": 24935, "##hard": 11783, "houston": 5395, "##rred": 20529, "元": 1769, "##pressing": 24128, "influential": 6383, "woodward": 19133, "ʁ": 1128, "##uche": 19140, "someone": 2619, "may": 2089, "cords": 24551, "blade": 6085, "mutiny": 19306, "realised": 11323, "unanimously": 15645, "##ʻi": 26444, "ш": 1203, "##⽥": 30160, "max": 4098, "conversely": 18868, "understand": 3305, "prints": 11204, "simulate": 26633, "♣": 1624, "！": 1986, "channel": 3149, "bet": 6655, "returns": 5651, "feeling": 3110, "rift": 16931, "britten": 29429, "loose": 6065, "slightest": 15989, "leaking": 24325, "##bruck": 28985, "bottles": 11015, "aspects": 5919, "1835": 10150, "##port": 6442, "graffiti": 17990, "militants": 17671, "novice": 23131, "##gnan": 28207, "poetic": 13805, "joaquin": 16877, "##rter": 19418, "realization": 12393, "##md": 26876, "##uit": 14663, "view": 3193, "[unused343]": 348, "based": 2241, "launch": 4888, "austria": 5118, "requiring": 9034, "arguably": 15835, "ke": 17710, "agrarian": 23226, "planting": 14685, "condemnation": 26248, "les": 4649, "savings": 10995, "liberty": 7044, "accusation": 19238, "##ai": 4886, "renovation": 10525, "elias": 14579, "##朝": 30400, "conversion": 7584, "discrimination": 9147, "writings": 7896, "distortion": 20870, "cops": 10558, "embarked": 11299, "stuart": 6990, "claudius": 25017, "speakers": 7492, "ʀ": 1127, "widows": 24835, "intervened": 21116, "[unused204]": 209, "skeletons": 24365, "a2": 22441, "curate": 27530, "aesthetic": 12465, "decrees": 28966, "grip": 6218, "slowed": 9784, "astoria": 29285, "秀": 1928, "dairy": 11825, "##tangle": 23395, "##ィ": 30220, "##aver": 22208, "apache": 15895, "##こ": 30181, "neighbouring": 9632, "dale": 8512, "phelps": 20475, "unicode": 27260, "amazement": 21606, "gan": 25957, "##kker": 23793, "mccarthy": 12584, "sodium": 13365, "midfielder": 8850, "summer": 2621, "tatum": 25913, "07": 5718, "indies": 9429, "##zuka": 22968, "macedonia": 11492, "lauded": 26507, "edges": 7926, "staple": 18785, "multiplayer": 17762, "neighbor": 11429, "##ida": 8524, "323": 25392, "89": 6486, "wouldn": 2876, "handicapped": 26920, "probably": 2763, "fat": 6638, "##tical": 14656, "drive": 3298, "west": 2225, "empirical": 17537, "semester": 13609, "##elle": 14774, "##tos": 13122, "pops": 16949, "ignited": 22395, "moravian": 28131, "still": 2145, "bed": 2793, "realize": 5382, "[unused7]": 8, "dance": 3153, "boycott": 17757, "##ぬ": 30195, "191": 19871, "albuquerque": 19334, "##hurst": 10510, "directed": 2856, "##written": 15773, "henley": 20768, "cleaning": 9344, "sergei": 14543, "299": 25926, "μ": 1166, "tragedy": 10576, "momentum": 11071, "##夫": 30339, "geographically": 20969, "douglass": 27485, "292": 25797, "bedside": 19475, "##gal": 9692, "quarrel": 26260, "acute": 11325, "culture": 3226, "ud": 20904, "outspoken": 22430, "considerations": 16852, "youth": 3360, "tunisian": 22946, "jr": 3781, "ruby": 10090, "october": 2255, "labour": 4428, "vocal": 5554, "£2": 21853, "bulgaria": 8063, "factors": 5876, "tech": 6627, "reconciliation": 16088, "accordingly": 11914, "scholastic": 24105, "informant": 28694, "marko": 28003, "##נ": 29803, "plastic": 6081, "allowing": 4352, "muhammad": 7187, "royale": 24483, "indifference": 25920, "minute": 3371, "unlock": 19829, "marian": 14042, "243": 22884, "russians": 12513, "willis": 12688, "divers": 18612, "##門": 30494, "qur": 23183, "smash": 15132, "shouldered": 29383, "narratives": 22143, "1794": 13199, "pioneered": 16193, "bran": 24905, "raider": 27826, "disapproval": 21406, "liberal": 4314, "finances": 16156, "program": 2565, "##escence": 28964, "m2": 25525, "figured": 6618, "corporations": 11578, "behavior": 5248, "lynne": 26938, "faber": 21720, "hole": 4920, "lansing": 22304, "showdown": 24419, "sunderland": 15518, "nuclear": 4517, "letters": 4144, "outcomes": 13105, "forceful": 28552, "novelist": 9974, "sadler": 29012, "##ever": 22507, "ა": 1438, "quasi": 17982, "weighs": 21094, "星": 1866, "##wicz": 21355, "landed": 5565, "spp": 26924, "##ggles": 24989, "1770": 17711, "climax": 14463, "ambassadors": 20986, "kilograms": 18857, "coordinate": 13530, "desirable": 16166, "priorities": 18402, "sheet": 7123, "##nham": 20465, "define": 9375, "interesting": 5875, "modern": 2715, "sidewalk": 11996, "uncover": 26944, "brigadier": 9900, "chan": 9212, "debut": 2834, "universe": 5304, "aroused": 18391, "racetrack": 28435, "spearheaded": 27721, "franks": 21310, "middlesex": 13654, "partition": 13571, "psychology": 6825, "##fold": 10371, "darker": 9904, "wiener": 25072, "owens": 14824, "1911": 5184, "##qing": 19784, "anxiously": 23403, "rune": 23276, "morning": 2851, "lend": 18496, "immensely": 24256, "informed": 6727, "##rmi": 28550, "107": 10550, "numb": 15903, "shortage": 15843, "sima": 26769, "supporters": 6793, "##inia": 23309, "arrondissement": 20522, "collective": 7268, "ignored": 6439, "releasing": 8287, "introducing": 10449, "temple": 3379, "##per": 4842, "feud": 13552, "eli": 12005, "ingredients": 12760, "provided": 3024, "ru": 21766, "citizenship": 9068, "shadowy": 22801, "subsequently": 3525, "gi": 21025, "riches": 26768, "sheldon": 19369, "warmer": 16676, "raleigh": 15842, "shaded": 25273, "##pro": 21572, "##fus": 25608, "strauss": 16423, "##佐": 30290, "##ᄉ": 29997, "##carriage": 21539, "1788": 15622, "courage": 8424, "dissolved": 8314, "toast": 15174, "fernando": 9158, "##ent": 4765, "brief": 4766, "intimately": 29024, "[unused609]": 614, "acc": 16222, "trailers": 21389, "already": 2525, "##lund": 18028, "corrected": 13371, "trace": 7637, "apartments": 9620, "1841": 9840, "352": 28906, "defeating": 6324, "highway": 3307, "shy": 11004, "revision": 13921, "cupping": 25076, "bridges": 7346, "excavated": 15199, "malaysia": 6027, "engraver": 27771, "restraints": 28054, "vegetation": 10072, "friendship": 6860, "##lene": 11474, "cosmopolitan": 24686, "##koff": 26126, "c": 1039, "september": 2244, "shelly": 28360, "mesa": 15797, "waving": 12015, "幸": 1841, "nicola": 17388, "brushing": 12766, "117": 12567, "[unused630]": 635, "##aire": 14737, "##boarding": 21172, "bertie": 20743, "unemployed": 18787, "lung": 11192, "nephew": 7833, "nuevo": 22250, "redesign": 25136, "narrowed": 8061, "tyson": 19356, "nonfiction": 25753, "accents": 24947, "[unused304]": 309, "archaeologists": 19254, "[unused480]": 485, "recommended": 6749, "##pin": 8091, "genealogy": 26684, "sire": 15785, "independents": 23756, "##kumar": 18494, "isabella": 10323, "paternal": 15112, "swim": 9880, "vessel": 6258, "##sbury": 18065, "uphold": 27329, "approved": 4844, "##ད": 29964, "spotting": 27963, "villain": 12700, "##oton": 25862, "frenzy": 21517, "gundam": 26152, "##ffed": 15388, "itv": 11858, "warrior": 6750, "pubs": 23598, "estrada": 26482, "cavendish": 23570, "fueled": 17999, "saudi": 8174, "reactions": 9597, "receiver": 8393, "oliveira": 24263, "##國": 30326, "gauge": 7633, "aide": 14895, "impression": 8605, "##gnon": 26977, "accessories": 16611, "dl": 21469, "[unused234]": 239, "sparsely": 24961, "##к": 23925, "ransom": 16540, "flights": 7599, "語": 1950, "brew": 24702, "el": 3449, "paper": 3259, "baha": 13253, "designate": 24414, "grounded": 16764, "barony": 19365, "##dit": 23194, "##hism": 23108, "##oj": 29147, "occupied": 4548, "##lge": 28875, "securely": 28999, "stylistic": 24828, "paradise": 9097, "syracuse": 11736, "##प": 29864, "sight": 4356, "soloists": 27516, "forge": 15681, "almond": 26011, "mythical": 19336, "pursue": 7323, "dinosaurs": 18148, "pitching": 14696, "area": 2181, "friedman": 18486, "saigon": 24001, "##hua": 14691, "hubbard": 16580, "##lez": 28060, "##rana": 16737, "fabio": 25616, "nichols": 15746, "ර": 1405, "opinions": 10740, "insanity": 19272, "[unused879]": 884, "mcconnell": 28514, "witches": 12566, "serene": 25388, "ronan": 18633, "chemotherapy": 27144, "tran": 25283, "##ʲ": 29707, "reproduction": 14627, "##yna": 18279, "lyrical": 16376, "splash": 17624, "banners": 23562, "andre": 7213, "congregational": 20809, "virus": 7865, "proximity": 10039, "gasp": 12008, "foundry": 19853, "jennie": 27557, "knew": 2354, "rely": 11160, "speculative": 23250, "##zzy": 28753, "sliced": 15920, "braves": 13980, "thief": 12383, "moth": 5820, "sights": 15925, "ว": 1419, "lets": 11082, "blood": 2668, "##iated": 15070, "freeing": 22198, "twitching": 25402, "mendez": 28950, "ャ": 1728, "incentive": 20438, "##evsky": 27015, "by": 2011, "fx": 23292, "floats": 24885, "ode": 24040, "##mental": 26901, "howell": 18473, "##quisite": 24871, "inheritance": 12839, "##sius": 24721, "repay": 24565, "graz": 26918, "heavens": 17223, "##bel": 8671, "##ulata": 18060, "ballot": 10428, "muttered": 6250, "surge": 12058, "bat": 7151, "đ": 1102, "eruptions": 28448, "ngos": 22165, "kelley": 19543, "##川": 30361, "fore": 18921, "[unused977]": 982, "##lad": 27266, "##pw": 28400, "hawaii": 7359, "cassette": 13903, "／": 1992, "truth": 3606, "feels": 5683, "benton": 18685, "ceiling": 5894, "edmonton": 10522, "justified": 15123, "verve": 29230, "1820": 11102, "mutation": 16221, "[unused220]": 225, "hall": 2534, "ld": 25510, "adams": 5922, "act": 2552, "examination": 7749, "##uro": 10976, "medicines": 20233, "stripes": 13560, "diagnosed": 11441, "tennessee": 5298, "##mide": 24284, "bites": 15424, "christopher": 5696, "constituted": 11846, "swimmer": 13361, "edna": 21051, "accountants": 29114, "rolling": 5291, "##balance": 26657, "roles": 4395, "abc": 5925, "##ti": 3775, "straits": 18849, "←": 1583, "##fra": 27843, "##ne": 2638, "1960s": 4120, "diana": 8805, "ignoring": 9217, "whisky": 21265, "package": 7427, "geese": 28519, "##listic": 27348, "investor": 14316, "reside": 13960, "rochester": 10541, "primitive": 10968, "fading": 14059, "jenna": 13504, "sergeant": 6722, "[unused309]": 314, "##ffle": 18142, "[unused471]": 476, "##tors": 6591, "glint": 25263, "##backs": 12221, "finely": 22126, "provisions": 8910, "burden": 10859, "embedded": 11157, "uppsala": 25720, "##weather": 28949, "senior": 3026, "buying": 9343, "##lev": 20414, "##recht": 28109, "hutton": 20408, "screaming": 7491, "[unused89]": 90, "##chua": 26200, "au": 8740, "encircled": 25759, "##ᶠ": 30047, "##rte": 19731, "andrew": 4080, "recounts": 23412, "mayors": 21941, "thirsty": 24907, "wrapping": 12252, "314": 26257, "bosses": 23029, "eat": 4521, "##nary": 24041, "acronym": 20137, "democratic": 3537, "leads": 5260, "##ᵖ": 30040, "being": 2108, "humans": 4286, "machinery": 10394, "ipod": 26322, "##als": 9777, "peking": 27057, "conceptual": 17158, "authority": 3691, "fiji": 11464, "##cles": 18954, "hygiene": 19548, "bark": 11286, "slipped": 5707, "##evich": 16277, "##ot": 4140, "compass": 16681, "##notes": 20564, "depicted": 8212, "nationality": 10662, "seating": 10747, "westward": 15165, "ʻ": 1145, "##hein": 26496, "##gling": 18483, "chloe": 9318, "riff": 24808, "loyalty": 9721, "ferocious": 27863, "##apa": 22068, "##ttered": 14795, "pa": 6643, "finer": 26954, "100": 2531, "reinforcement": 23895, "retained": 6025, "methane": 24481, "##roving": 22046, "platoon": 13799, "##gging": 12588, "uttar": 14940, "handsome": 8502, "lasting": 9879, "##uder": 29190, "bari": 22466, "[unused368]": 373, "hapoel": 24208, "gen": 8991, "ocean": 4153, "##sor": 21748, "plaintiff": 20579, "snoop": 29044, "syrup": 23353, "sooner": 10076, "stan": 9761, "[unused188]": 193, "##usia": 24118, "##vance": 21789, "arrive": 7180, "optical": 9380, "statement": 4861, "unmarried": 17204, "pinch": 18392, "petersen": 22615, "wines": 14746, "greenwood": 16827, "steppe": 29096, "##idae": 6096, "##nded": 25848, "##よ": 30210, "daze": 28918, "##ctors": 24817, "galloway": 22372, "virgin": 6261, "tore": 9538, "unfolded": 23959, "nightingale": 21771, "portion": 4664, "stacy": 18566, "ji": 10147, "yoo": 26823, "レ": 1734, "leroy": 19103, "primary": 3078, "factor": 5387, "##ground": 16365, "fragile": 13072, "constantinople": 11776, "ᆯ": 1486, "explored": 10641, "sober": 17358, "permits": 14245, "crashes": 19119, "flashlight": 15257, "##ators": 18926, "##iance": 28335, "vhf": 27527, "##sling": 28886, "##worthy": 13966, "1773": 19916, "##dge": 11818, "cursed": 10678, "210": 12875, "blazed": 25590, "varieties": 9903, "ba": 8670, "##lateral": 28277, "##sam": 21559, "instructors": 19922, "##miya": 29312, "scarred": 21985, "supported": 3569, "bi": 12170, "我": 1855, "murmur": 20227, "debated": 15268, "opener": 16181, "analysts": 18288, "1749": 24704, "nicole": 9851, "programme": 4746, "carole": 24348, "rom": 17083, "comet": 15699, "protective": 9474, "supervisors": 22565, "##combe": 14149, "##dgets": 28682, "##llins": 26655, "##nging": 22373, "panels": 9320, "aristocracy": 22706, "handler": 28213, "later": 2101, "elect": 11322, "[unused635]": 640, "ban": 7221, "associations": 8924, "academic": 3834, "bloomington": 26372, "##rger": 25858, "madden": 24890, "parramatta": 22820, "populations": 7080, "scrubbed": 27820, "£": 1069, "succumbed": 25642, "##前": 30302, "rules": 3513, "edict": 24754, "shelley": 15828, "pow": 23776, "drawing": 5059, "vhs": 17550, "##free": 23301, "##44": 22932, "libya": 12917, "torah": 16297, "accidental": 17128, "##tray": 28473, "emergence": 14053, "nintendo": 10022, "5th": 4833, "##bm": 25526, "##cek": 25368, "##劉": 30303, "加": 1779, "consolation": 24831, "##co": 3597, "recognizes": 14600, "simon": 4079, "commenting": 15591, "karim": 25461, "mandates": 25979, "[unused433]": 438, "traps": 16735, "creature": 6492, "user": 5310, "##lers": 12910, "romanized": 7651, "triad": 25355, "og": 13958, "steve": 3889, "taluk": 23140, "##ignant": 25593, "races": 3837, "##wad": 26016, "infrastructure": 6502, "##uer": 13094, "settler": 18556, "demi": 27668, "shoved": 7468, "khyber": 28416, "unsuccessful": 7736, "mackay": 17090, "1624": 28531, "moffat": 28528, "dynamo": 17205, "thomson": 11161, "christians": 8135, "premier": 4239, "centro": 18120, "minerals": 13246, "complimented": 27175, "reacting": 24868, "ᵐ": 1502, "flores": 17343, "breaks": 7807, "cartel": 21680, "este": 28517, "1956": 3838, "##rled": 27501, "institutes": 12769, "charges": 5571, "potassium": 18044, "rhone": 22351, "##raction": 25533, "##itte": 27100, "##cence": 29320, "##lent": 16136, "twain": 24421, "##iform": 22631, "precedence": 23359, "802": 23908, "westphalia": 22952, "consisted": 5031, "新": 1862, "##գ": 29768, "decline": 6689, "features": 2838, "shanghai": 8344, "##urst": 29402, "drifted": 10070, "green": 2665, "emptied": 21764, "grayson": 17556, "rental": 12635, "surpassing": 27097, "corpus": 13931, "emmy": 10096, "low": 2659, "##xes": 20156, "##rove": 17597, "southernmost": 21787, "upgrade": 12200, "##ciful": 26336, "chad": 9796, "reviews": 4391, "##lot": 10994, "patricia": 10717, "greeting": 14806, "mario": 7986, "topology": 19587, "umm": 26114, "aarhus": 29173, "##riety": 27840, "adolph": 28564, "legislator": 22964, "reductions": 25006, "ன": 1387, "dwarves": 29281, "cameo": 12081, "tool": 6994, "global": 3795, "hassan": 13222, "male": 3287, "##bus": 8286, "pirates": 8350, "##cz": 27966, "angola": 13491, "##imum": 28591, "stating": 5517, "rope": 8164, "##ule": 9307, "[unused288]": 293, "occur": 5258, "blurred": 18449, "mainstream": 7731, "neglect": 19046, "timeless": 27768, "thing": 2518, "##eyer": 20211, "legitimacy": 22568, "crawling": 15927, "drunken": 15967, "##ogen": 23924, "##around": 24490, "##unds": 26698, "botany": 17018, "mutant": 15527, "arte": 16185, "sporting": 7419, "wartime": 12498, "tensor": 23435, "editing": 9260, "##us": 2271, "[unused28]": 29, "lip": 5423, "typical": 5171, "##3": 2509, "gradient": 17978, "respecting": 27818, "##ian": 2937, "persecuted": 27666, "prelate": 26595, "baseman": 18038, "blushed": 19370, "drivers": 6853, "##eur": 11236, "reindeer": 29495, "hc": 16731, "second": 2117, "[unused712]": 717, "##nal": 12032, "##vac": 24887, "offenders": 19591, "dickinson": 17590, "transforming": 17903, "##hone": 27406, "supposedly": 10743, "##ŋ": 29673, "travel": 3604, "chong": 24008, "क": 1315, "##hesion": 21471, "dead": 2757, "campo": 22339, "flawed": 25077, "navigator": 20532, "drone": 18465, "pauses": 19623, "[unused743]": 748, "festivals": 7519, "staged": 9813, "remorse": 23124, "pearson": 12874, "landscaping": 28404, "madonna": 11284, "cringed": 23952, "²": 1082, "craftsmen": 25736, "lynch": 11404, "colony": 5701, "150": 5018, "shatter": 27271, "[unused791]": 796, "##otho": 29288, "##12": 12521, "filthy": 18294, "lighter": 9442, "##iah": 12215, "codes": 9537, "determined": 4340, "filing": 15242, "confederates": 24627, "wyatt": 12986, "##tera": 14621, "capacities": 21157, "honneur": 28197, "##nik": 8238, "##heimer": 18826, "ferrara": 28635, "proponents": 20401, "##hus": 9825, "##tur": 20689, "midfield": 23071, "clarissa": 25260, "tabitha": 21581, "seminary": 8705, "elvis": 12280, "##ors": 5668, "councillor": 10674, "[unused295]": 300, "maintain": 5441, "translates": 16315, "diva": 25992, "jim": 3958, "[unused849]": 854, "song": 2299, "temps": 29023, "muzzle": 17750, "severely": 8949, "arsenic": 29596, "gorge": 14980, "stories": 3441, "insurance": 5427, "lately": 9906, "innovative": 9525, "shots": 7171, "gains": 12154, "regrets": 23161, "announced": 2623, "denominations": 17384, "lombard": 23441, "preferences": 18394, "plane": 4946, "bridget": 19218, "steaming": 19986, "manipulating": 26242, "accept": 5138, "briefs": 28760, "vickers": 18571, "adequately": 23613, "lizards": 23898, "##ound": 28819, "duly": 25073, "lowlands": 26411, "descent": 6934, "symmetrical": 23476, "##rata": 14660, "##nated": 23854, "crack": 8579, "monthly": 7058, "##lace": 19217, "jaya": 24120, "crafts": 14030, "##zog": 28505, "##feng": 24383, "##oir": 21165, "mentoring": 29192, "exiting": 22371, "untitled": 24819, "pig": 10369, "callie": 20072, "meanwhile": 5564, "philosopher": 9667, "##gement": 20511, "itf": 27682, "coaching": 7748, "trivial": 20610, "flutes": 28453, "fallout": 23902, "misunderstood": 28947, "visibility": 16476, "soto": 22768, "vicar": 12340, "intellect": 24823, "mistake": 6707, "eagle": 6755, "testified": 14914, "##ari": 8486, "青": 1975, "##zell": 24085, "##inski": 19880, "cupboard": 25337, "again": 2153, "indonesian": 9003, "writers": 4898, "wolfe": 14212, "##cape": 19464, "jolt": 22538, "recounted": 22906, "husbands": 19089, "scratches": 25980, "[unused131]": 136, "vehicles": 4683, "arenas": 26434, "ᄒ": 1469, "denny": 14465, "contend": 27481, "distributed": 5500, "##birds": 12887, "grins": 20237, "lancashire": 9638, "addressing": 12786, "shattering": 21797, "##kot": 23342, "##aja": 22734, "##rling": 22036, "forte": 24898, "ruled": 5451, "##ud": 6784, "##inas": 15227, "quarterly": 12174, "川": 1835, "##ney": 5420, "pie": 11345, "[unused79]": 80, "mansion": 7330, "##⁺": 12744, "european": 2647, "highlighted": 11548, "lama": 18832, "neurons": 15698, "emails": 22028, "##ل": 23673, "viewpoint": 21386, "郡": 1959, "##ain": 8113, "litre": 16812, "lucille": 28016, "predict": 16014, "1941": 3874, "scramble": 25740, "nikki": 14470, "disgusted": 17733, "fuzzy": 18001, "lara": 13679, "nipples": 28124, "[unused968]": 973, "##9": 2683, "himalayas": 26779, "bordeaux": 16384, "achievements": 10106, "options": 7047, "sugarcane": 28910, "retorted": 24056, "##₄": 17004, "subjected": 13532, "assessments": 20794, "##tsu": 10422, "##aurus": 17342, "christi": 21359, "##dle": 10362, "[unused878]": 883, "[unused111]": 116, "hose": 21290, "crush": 10188, "##litz": 24725, "recruitment": 15680, "##tub": 28251, "cannons": 17138, "municipality": 3250, "##suka": 26544, "##yala": 28617, "ʌ": 1134, "pep": 27233, "snow": 4586, "ca": 6187, "bradshaw": 23762, "cramped": 22766, "spoil": 27594, "waistband": 27553, "mascara": 27700, "seldom": 15839, "gaston": 18572, "##ulu": 20391, "[unused180]": 185, "##hoe": 14490, "meritorious": 22053, "##“": 30058, "catalonia": 16711, "289": 27054, "cuba": 7394, "deserve": 10107, "enhance": 11598, "sampling": 16227, "theoretically": 22634, "theta": 23963, "schedules": 20283, "##is": 2483, "##楊": 30409, "directly": 3495, "perennial": 14638, "##titles": 27430, "##lizer": 28863, "bill": 3021, "disappear": 10436, "proud": 7098, "vocalist": 8032, "roberto": 10704, "##furt": 24428, "##lkirk": 23913, "flooded": 10361, "judge": 3648, "processes": 6194, "lavish": 22689, "raphael": 12551, "●": 1619, "tandem": 18231, "permanent": 4568, "connecting": 7176, "wealthy": 7272, "sud": 19219, "##ka": 2912, "grading": 26886, "matt": 4717, "jose": 4560, "pune": 16920, "woo": 15854, "##iana": 11410, "糹": 1934, "##dget": 24291, "von": 3854, "felicity": 27357, "flipped": 9357, "cecil": 11978, "retired": 3394, "oddly": 15056, "singapore": 5264, "rusty": 13174, "225": 14993, "slogan": 14558, "welles": 23447, "##ksha": 28132, "th": 16215, "##izan": 27334, "128": 11899, "lungs": 8948, "xiii": 15031, "1570": 28881, "264": 21611, "before": 2077, "devastated": 13879, "limitation": 22718, "##pani": 26569, "[unused611]": 616, "technologies": 6786, "##hman": 13890, "##rce": 19170, "##cturing": 19159, "##urian": 29091, "difficulties": 8190, "legislation": 6094, "allies": 6956, "katrina": 16864, "sal": 16183, "##γ": 29721, "##rogen": 22991, "##gible": 18507, "ether": 28855, "plight": 24525, "cherry": 9115, "##bf": 29292, "hostile": 10420, "saskatchewan": 10068, "lore": 19544, "doubts": 13579, "[unused910]": 915, "##ulent": 27581, "colombian": 13598, "##ver": 6299, "inexpensive": 23766, "kaitlyn": 28584, "unaware": 11499, "##dial": 27184, "##dry": 21190, "##gate": 5867, "bathurst": 21897, "funding": 4804, "hood": 7415, "brennan": 13962, "claus": 19118, "##aina": 27971, "heat": 3684, "goa": 15244, "meyer": 11527, "##ර": 29941, "##let": 7485, "melee": 27868, "oskar": 28626, "sacrifice": 8688, "##29": 24594, "toilet": 11848, "oak": 6116, "nuns": 16752, "∪": 1605, "[unused923]": 928, "den": 7939, "kaiser": 15676, "assumption": 11213, "hampson": 21780, "##pon": 26029, "endeavor": 23855, "ali": 4862, "hasan": 17000, "##usa": 10383, "beams": 13110, "##aceae": 18339, "##⺼": 30159, "responds": 16412, "an": 2019, "boarded": 17383, "threads": 16457, "##roup": 22107, "tripoli": 21841, "vertex": 19449, "hawaiian": 12188, "emerald": 14110, "culminating": 16979, "ions": 15956, "exemplified": 28593, "ʾ": 1147, "ை": 1399, "celebrated": 6334, "defences": 16828, "athletics": 6482, "bellowed": 27386, "moved": 2333, "₆": 1553, "writ": 25697, "doing": 2725, "isn": 3475, "worker": 7309, "municipal": 4546, "##olic": 23518, "cover": 3104, "spiders": 14160, "##adan": 26335, "ף": 1260, "comedians": 25119, "carriers": 11363, "shear": 18330, "standard": 3115, "1839": 10011, "intimidation": 28973, "agent": 4005, "periodically": 18043, "##kata": 29123, "narrative": 7984, "##vor": 14550, "dante": 9649, "regained": 11842, "##є": 29759, "authorization": 20104, "[unused577]": 582, "≡": 1607, "1948": 3882, "wary": 15705, "henrik": 18745, "internally": 16058, "tail": 5725, "vanity": 18736, "persons": 5381, "authored": 8786, "lick": 15385, "southland": 29121, "tons": 6197, "##pati": 24952, "musee": 18070, "##rdon": 28176, "barclay": 23724, "[unused474]": 479, "protocol": 8778, "sculpted": 19921, "caress": 21753, "rush": 5481, "orbit": 8753, "ю": 1209, "stevenson": 13636, "gardener": 19785, "##maid": 28478, "##rence": 24413, "jeans": 6312, "extended": 3668, "92": 6227, "mit": 10210, "##baum": 14898, "trojan": 23445, "##dington": 21504, "fallon": 16443, "eaten": 8828, "bae": 25818, "estonia": 10692, "laughing": 5870, "flaw": 28450, "popular": 2759, "##田": 30437, "runway": 9271, "##ᵍ": 30036, "rhineland": 21640, "sierra": 7838, "moonlight": 11986, "mansions": 26842, "rumbling": 26670, "fiba": 13651, "targeted": 9416, "##ァ": 30218, "terminus": 7342, "hospice": 29277, "spontaneous": 17630, "tournament": 2977, "thornton": 14630, "afterwards": 5728, "meet": 3113, "##nus": 10182, "101": 7886, "filter": 11307, "##ize": 4697, "surplus": 15726, "terms": 3408, "宀": 1818, "##dis": 10521, "治": 1900, "wings": 4777, "francois": 8173, "qualifications": 15644, "primaries": 27419, "wrong": 3308, "##var": 10755, "november": 2281, "##hat": 12707, "republican": 3951, "em": 7861, "adequate": 11706, "rivals": 9169, "careful": 6176, "firearms": 13780, "paris": 3000, "##using": 18161, "##wny": 22251, "##ways": 14035, "##bbon": 27684, "brighton": 10309, "buick": 28865, "##ater": 24932, "violated": 14424, "[unused283]": 288, "venom": 15779, "dir": 16101, "libretto": 17621, "reprised": 22598, "spat": 14690, "wagner": 10304, "until": 2127, "ryder": 11731, "sixteenth": 14683, "encompassing": 19129, "fabian": 21174, "intensified": 15767, "relating": 8800, "broadcaster": 11995, "tc": 22975, "dartmouth": 16960, "kit": 8934, "geo": 20248, "[unused768]": 773, "illinois": 4307, "archaic": 19261, "infinitely": 25773, "assure": 14306, "attacking": 7866, "collections": 6407, "[unused826]": 831, "##itical": 26116, "jingle": 29262, "flotilla": 17150, "dem": 17183, "presenter": 10044, "issue": 3277, "yun": 22854, "50th": 12951, "carousel": 27628, "railways": 7111, "neo": 9253, "cleopatra": 22003, "practicing": 12560, "ト": 1714, "[unused912]": 917, "telescopes": 28026, "despised": 26626, "reigning": 16323, "pyrenees": 22696, "creating": 4526, "pub": 9047, "garde": 14535, "character": 2839, "conversations": 11450, "⊆": 1611, "lakeside": 28701, "seemingly": 9428, "140": 8574, "aztec": 25245, "columnist": 13317, "willing": 5627, "bobbed": 29579, "constantly": 7887, "sicily": 12071, "check": 4638, "continued": 2506, "konrad": 22958, "flow": 4834, "lowell": 15521, "priced": 21125, "replies": 14054, "meditation": 13804, "##sho": 22231, "jump": 5376, "rutherford": 18472, "1b": 26314, "fastened": 24009, "##anov": 25417, "wasting": 18313, "observer": 9718, "commentators": 15957, "##lands": 8653, "mer": 21442, "takes": 3138, "predecessors": 16372, "metres": 3620, "##tti": 6916, "advice": 6040, "moors": 24812, "seized": 8243, "sonny": 13584, "tallest": 13747, "sharif": 20351, "##vao": 24682, "##geny": 17487, "##ual": 8787, "glover": 20012, "##ldon": 19932, "249": 23628, "reorganization": 17118, "sanchez": 10568, "salazar": 25315, "equipment": 3941, "stalker": 23883, "[unused552]": 557, "probing": 28664, "outputs": 27852, "325": 19652, "bear": 4562, "promotional": 10319, "##itation": 18557, "##log": 21197, "##ड": 29857, "orphan": 18211, "songwriting": 14029, "sioux": 16615, "dub": 12931, "alternate": 6585, "cid": 28744, "glazed": 19724, "sellers": 19041, "sensual": 18753, "tuesday": 9857, "##ν": 16177, "ashok": 28916, "globalization": 24370, "gray": 3897, "santana": 21158, "##উ": 29886, "[unused154]": 159, "[unused207]": 212, "engineering": 3330, "##plin": 28296, "[unused177]": 182, "##cted": 10985, "##vat": 22879, "button": 6462, "##ख": 29852, "[unused138]": 143, "commercials": 12698, "grandpa": 15310, "##ف": 29833, "reconstructed": 14858, "##lag": 17802, "##tam": 15464, "##teacher": 24741, "wed": 21981, "70s": 17549, "[unused429]": 434, "splendid": 21459, "replay": 15712, "os": 9808, "documenting": 23138, "lagos": 16738, "thomas": 2726, "##26": 23833, "volume": 3872, "[unused521]": 526, "escapes": 12976, "##bahn": 16052, "fertile": 14946, "roman": 3142, "##ignment": 24838, "cruz": 8096, "cm": 4642, "polling": 17888, "vegetable": 15415, "reorganized": 14137, "braun": 21909, "civilian": 6831, "convergence": 19143, "lost": 2439, "##work": 6198, "[unused139]": 144, "42nd": 21373, "commission": 3222, "1654": 27445, "administrative": 3831, "adjutant": 20690, "stanton": 15845, "##bala": 25060, "form": 2433, "pacific": 3534, "knoxville": 20021, "tagged": 26610, "##jean": 27687, "reza": 26323, "translate": 17637, "tugs": 29306, "30": 2382, "diagrams": 26309, "ى": 1299, "##uous": 8918, "arcadia": 25178, "##sei": 20240, "##av": 11431, "warming": 12959, "mongol": 17450, "1854": 8421, "cw": 19296, "mirage": 21483, "noah": 7240, "wallace": 7825, "forbidden": 10386, "cocoa": 22940, "##÷": 29669, "colombo": 16224, "royalist": 20796, "[unused282]": 287, "treatment": 3949, "truck": 4744, "$": 1002, "baggage": 20220, "electronics": 8139, "keeps": 7906, "planes": 9738, "##in": 2378, "##inus": 13429, "hospitality": 15961, "leon": 6506, "##dora": 24562, "topping": 22286, "proceeding": 18207, "warriors": 6424, "alternatively": 14084, "telangana": 23764, "niccolo": 27033, "tie": 5495, "き": 1652, "olivia": 7710, "##beau": 26401, "priory": 14284, "materials": 4475, "elemental": 19529, "tennis": 5093, "helps": 7126, "bout": 10094, "manga": 8952, "indicted": 21801, "##nar": 11802, "caution": 14046, "leg": 4190, "outline": 12685, "angels": 7048, "shells": 10986, "pat": 6986, "相": 1919, "##yama": 11613, "surprisingly": 10889, "##world": 11108, "##nah": 15272, "##王": 30435, "honda": 11990, "心": 1849, "philipp": 20765, "rides": 12271, "abbess": 28010, "anymore": 4902, "##rative": 18514, "##tort": 25485, "##ལ": 29971, "costumes": 12703, "##ied": 6340, "jamaica": 9156, "reese": 15883, "##antes": 24985, "##tized": 23355, "agricultural": 4910, "sands": 13457, "shut": 3844, "milford": 22622, "##eries": 28077, "assessing": 20077, "##ণ": 29897, "district": 2212, "aaa": 13360, "##aan": 14634, "pertaining": 20246, "##nes": 5267, "广": 1842, "[unused319]": 324, "##bush": 22427, "##jana": 18803, "fender": 19028, "hedges": 25840, "ח": 1248, "##hole": 11484, "orphanage": 18504, "1664": 28485, "bottoms": 24196, "favor": 5684, "hodges": 19772, "online": 3784, "wait": 3524, "timeline": 17060, "[unused638]": 643, "proved": 4928, "cum": 13988, "##holder": 14528, "45": 3429, "goddess": 7804, "three": 2093, "##inga": 28234, "conduct": 6204, "cobra": 16604, "trained": 4738, "##ᅵ": 30019, "aerodynamic": 28033, "passports": 19494, "grandparents": 14472, "say": 2360, "systematic": 11778, "dropped": 3333, "mayor": 3664, "style": 2806, "་": 1424, "disqualification": 27782, "ram": 8223, "skylar": 27970, "##feit": 21156, "cheers": 21250, "saunders": 15247, "vera": 12297, "##л": 29436, "formally": 6246, "negotiated": 13630, "indicating": 8131, "inspired": 4427, "[unused406]": 411, "510": 23475, "bone": 5923, "courtesy": 14571, "straightforward": 19647, "noise": 5005, "genetic": 7403, "county": 2221, "facing": 5307, "reflects": 11138, "村": 1878, "##nbc": 28957, "##ractive": 26884, "usl": 22448, "gas": 3806, "##ced": 11788, "loops": 15932, "incidence": 18949, "vermont": 8839, "carlson": 22226, "controllers": 21257, "pork": 15960, "olsen": 18997, "115": 10630, "patty": 17798, "casket": 25864, "extant": 12905, "joined": 2587, "capita": 8353, "##セ": 30234, "##lie": 8751, "hiking": 13039, "##imi": 27605, "##urg": 12514, "dodge": 11898, "barrel": 8460, "##fixed": 23901, "designated": 4351, "inclined": 13050, "brewer": 18710, "sediments": 20476, "whore": 17219, "ষ": 1375, "conditional": 18462, "forrest": 16319, "##gh": 5603, "skiing": 12701, "mild": 10256, "identifying": 12151, "##oping": 17686, "rejoined": 14311, "ritchie": 20404, "##ional": 19301, "tanned": 25973, "typing": 22868, "resting": 8345, "possession": 6664, "##gf": 25708, "michelle": 9393, "nietzsche": 28898, "genius": 11067, "latham": 28737, "##eum": 14820, "##rel": 16570, "alcoholism": 25519, "decomposition": 22511, "await": 26751, "renumbered": 27855, "migrating": 28636, "hearst": 25419, "ventura": 21151, "tackled": 26176, "vikram": 29063, "ニ": 1716, "swiped": 24452, "model": 2944, "visions": 12018, "rees": 22131, "discrete": 16246, "commissioning": 21612, "##trip": 24901, "discs": 15303, "hacked": 28719, "mughal": 17877, "##™": 30108, "federation": 4657, "dreamed": 13830, "georgina": 27358, "briefing": 27918, "##planes": 26634, "craving": 26369, "attaining": 26615, "paved": 12308, "##mith": 19864, "vibration": 17880, "links": 6971, "##bari": 25990, "古": 1789, "crusaders": 18831, "nurses": 11500, "litter": 19070, "minions": 28071, "##ered": 6850, "sikhs": 26697, "robotics": 21331, "squash": 18794, "##phobic": 20200, "contracts": 8311, "encounters": 11340, "##س": 29824, "both": 2119, "highland": 10983, "crystals": 14438, "cicero": 23080, "##za": 4143, "##nad": 25389, "##ط": 29828, "escort": 8620, "##lowe": 27663, "biographer": 17121, "homes": 5014, "oppose": 15391, "silence": 4223, "zaragoza": 25744, "ellie": 10707, "whisper": 7204, "[unused848]": 853, "##wg": 27767, "ᵒ": 1503, "##dler": 21222, "##gold": 21270, "##rug": 26549, "##lip": 15000, "モ": 1727, "##ほ": 30202, "wi": 15536, "facade": 8508, "گ": 1305, "drives": 9297, "paz": 18183, "communications": 4806, "##1": 2487, "outstretched": 21059, "patton": 18090, "handles": 16024, "239": 23688, "agreement": 3820, "1649": 26538, "chargers": 18649, "stigma": 26453, "barking": 19372, "trafficking": 11626, "buff": 23176, "artifacts": 10471, "mbe": 20301, "silva": 11183, "groom": 18087, "liverpool": 6220, "code": 3642, "##otte": 28495, "bane": 25163, "##bbing": 23200, "##wil": 29602, "##our": 8162, "methods": 4725, "stuck": 5881, "terence": 22677, "six": 2416, "interval": 13483, "cambridge": 4729, "##ou": 7140, "alpine": 10348, "##mpt": 27718, "##insky": 20894, "vladimir": 8748, "snowfall": 26043, "##nate": 12556, "huskies": 29471, "narrated": 17356, "sprint": 9043, "cents": 16653, "1869": 7845, "ns": 24978, "twitch": 19435, "sparta": 21251, "started": 2318, "nj": 19193, "vulnerable": 8211, "upset": 6314, "molecules": 10737, "flour": 13724, "potter": 10693, "##jin": 14642, "##trust": 24669, "atop": 10234, "[unused286]": 291, "admiral": 5902, "kochi": 27603, "wider": 7289, "fai": 26208, "##lm": 13728, "##thorpe": 22398, "shifts": 12363, "glory": 8294, "##tell": 23567, "愛": 1853, "pilots": 8221, "tower": 3578, "aloud": 12575, "astronomical": 13674, "smelling": 19773, "births": 18250, "1799": 13839, "contiguous": 25177, "tipperary": 17333, "[unused167]": 172, "##oh": 11631, "bearings": 21714, "[unused876]": 881, "huron": 21899, "riots": 12925, "stands": 4832, "[unused367]": 372, "leopard": 16240, "mclean": 17602, "vines": 16702, "transmission": 6726, "[unused588]": 593, "history": 2381, "fauna": 15018, "icon": 12696, "##nery": 27415, "grafton": 28680, "timbers": 26238, "##rac": 22648, "antibiotics": 24479, "park": 2380, "cop": 8872, "fill": 6039, "ink": 10710, "sank": 7569, "guns": 4409, "foothills": 18455, "coa": 28155, "alert": 9499, "leopold": 12752, "##西": 30473, "maryland": 5374, "##ched": 7690, "##pps": 28281, "anhalt": 27088, "##cating": 18252, "น": 1413, "253": 23254, "##eke": 23941, "topological": 24309, "antennae": 28624, "coe": 24873, "compilations": 22754, "isabelle": 13942, "##arding": 29154, "##iver": 16402, "##ated": 4383, "##tania": 21013, "breeze": 9478, "##ego": 20265, "automatic": 6882, "narayan": 24331, "##cytes": 27321, "##9th": 25660, "##tation": 12516, "distinctions": 25995, "##lau": 17298, "ascension": 18071, "duel": 14216, "judaism": 13725, "sensory": 16792, "speechless": 25146, "193": 19984, "##market": 20285, "[unused392]": 397, "keating": 25865, "cyprus": 9719, "love": 2293, "orton": 25161, "pac": 14397, "আ": 1348, "appreciated": 12315, "patterned": 25336, "lincoln": 5367, "exchange": 3863, "##light": 7138, "vols": 18709, "glow": 8652, "frey": 20068, "##rosis": 29166, "crimson": 11466, "owners": 5608, "##rney": 27114, "##icative": 25184, "##wife": 19993, "baden": 12189, "##oked": 23461, "reasoning": 13384, "income": 3318, "coastline": 15458, "going": 2183, "posthumous": 19086, "[unused820]": 825, "selected": 3479, "delaney": 22101, "palestine": 8976, "vale": 10380, "[unused398]": 403, "swansea": 16085, "summarized": 22539, "yell": 14315, "motto": 12652, "pains": 20398, "illuminating": 27816, "interpreted": 10009, "jointly": 10776, "noel": 10716, "##pace": 15327, "practiced": 9051, "return": 2709, "##dies": 18389, "job": 3105, "##wley": 20609, "portions": 8810, "55": 4583, "grade": 3694, "muddy": 15405, "cheerleading": 25721, "crashing": 12894, "##ᵐ": 30038, "destroyer": 9799, "mom": 3566, "peek": 19043, "visual": 5107, "rack": 14513, "aquino": 24183, "bolts": 19947, "hash": 23325, "voltage": 10004, "postal": 10690, "##34": 22022, "enthusiast": 29550, "styled": 13650, "seriously": 5667, "semitic": 20604, "##hul": 21886, "jain": 17136, "ska": 24053, "##sley": 8002, "punished": 14248, "obsidian": 29042, "china": 2859, "asshole": 22052, "##瀬": 30431, "they": 2027, "shuffled": 18764, "alliance": 4707, "heroes": 7348, "##man": 2386, "identical": 7235, "wal": 24547, "defending": 6984, "[unused199]": 204, "lana": 16554, "##.": 29625, "##sight": 25807, "syndication": 26973, "tunisia": 13437, "veterans": 8244, "##one": 5643, "incorporation": 16935, "operating": 4082, "alps": 13698, "peeked": 18652, "##rier": 16252, "shortstop": 25359, "##tion": 3508, "consumers": 10390, "scowl": 19981, "sides": 3903, "##uchi": 15217, "kenneth": 8856, "##enity": 20693, "lazy": 13971, "inability": 13720, "baird": 20866, "tolerated": 25775, "##mian": 20924, "##upt": 29441, "falcon": 11684, "felix": 8383, "##iki": 17471, "hills": 4564, "##義": 30462, "[unused374]": 379, "futile": 24495, "jung": 11810, "nineteen": 11977, "pius": 14363, "ridge": 5526, "spine": 8560, "##che": 5403, "kilometre": 13214, "cork": 8513, "##nched": 19282, "sas": 21871, "nuclei": 23767, "mcnamara": 28340, "blogger": 28205, "tequila": 26791, "seduction": 26962, "pipes": 12432, "articles": 4790, "follow": 3582, "insert": 19274, "ju": 18414, "olive": 9724, "yelling": 13175, "##cc": 9468, "disappointing": 15640, "mikhail": 11318, "musicals": 20103, "308": 24232, "##jas": 17386, "69": 6353, "intelligence": 4454, "411": 27517, "wholesale": 17264, "basalt": 26343, "##ய": 29926, "exhibits": 10637, "frankfurt": 9780, "havilland": 23994, "acquisitions": 19530, "asher": 17243, "louisville": 11577, "[unused717]": 722, "##via": 9035, "rightful": 27167, "jewish": 3644, "processed": 13995, "tugging": 17100, "41": 4601, "##izzly": 29266, "owen": 7291, "choices": 9804, "pianist": 9066, "ʸ": 1144, "##mit": 22930, "affordable": 15184, "relative": 5816, "flourished": 17893, "giorgio": 17697, "krishna": 10871, "mongolian": 17855, "resin": 24604, "ruling": 6996, "ة": 1272, "increased": 3445, "bono": 23648, "[unused497]": 502, "hourly": 21462, "wielding": 26974, "allegations": 9989, "isolate": 27152, "lt": 8318, "teach": 6570, "##り": 30212, "brewers": 20007, "mentor": 10779, "qualify": 7515, "[unused2]": 3, "[unused527]": 532, "apart": 4237, "toxin": 29090, "##hae": 25293, "alam": 26234, "##ն": 29778, "epic": 8680, "pharaoh": 22089, "hillsborough": 29330, "737": 22061, "##rgeon": 28242, "sim": 21934, "captive": 12481, "##fr": 19699, "##org": 21759, "greer": 25939, "waits": 18074, "164": 17943, "explosions": 18217, "wendy": 12815, "##held": 24850, "##ᆷ": 30023, "autonomy": 12645, "motel": 14901, "boardwalk": 29496, "ferries": 20157, "slated": 18517, "patna": 29565, "shay": 18789, "aft": 16638, "guaranteed": 12361, "craftsman": 26286, "1829": 11523, "accomplished": 8885, "slant": 27474, "weakened": 11855, "##sation": 26652, "morley": 20653, "shades": 13178, "##ache": 15395, "cash": 5356, "##v": 2615, "helpful": 14044, "prostate": 25086, "serpent": 16517, "##ª": 29653, "chaired": 12282, "connected": 4198, "entrepreneurship": 20213, "cosmic": 14448, "explicit": 13216, "##hum": 28600, "helix": 25743, "memphis": 9774, "possessing": 18840, "shifted": 5429, "welding": 23604, "terrace": 11134, "spotted": 7282, "1876": 7326, "bennett": 8076, "##ption": 16790, "friars": 24037, "##yr": 12541, "[unused226]": 231, "pill": 17357, "ბ": 1439, "looks": 3504, "curls": 14484, "keep": 2562, "fairness": 26935, "africans": 18076, "burnt": 11060, "derivatives": 16942, "tomb": 8136, "affinity": 16730, "dhaka": 16479, "##ogan": 21131, "generic": 12391, "monarch": 11590, "giggles": 26466, "##anga": 18222, "insist": 18292, "chu": 14684, "hold": 2907, "removing": 9268, "placed": 2872, "[unused166]": 171, "purchased": 4156, "restored": 5854, "##lux": 25148, "##ocating": 27483, "rna": 12987, "##farlane": 23511, "sailor": 11803, "##ad": 4215, "##gra": 17643, "274": 25586, "stifled": 27146, "##shaw": 17980, "maccabi": 24055, "##ι": 18199, "cl": 18856, "eliminating": 15349, "##inging": 23180, "##ب": 29816, "##へ": 30201, "slot": 10453, "african": 3060, "ernie": 14637, "lowest": 7290, "salad": 16521, "csi": 22174, "wellesley": 25658, "uncommon": 13191, "challenge": 4119, "joey": 9558, "747": 25374, "tim": 5199, "root": 7117, "1952": 3999, "conducts": 17976, "mint": 12927, "contestant": 10832, "##egan": 20307, "mk": 12395, "###": 29614, "##rained": 27361, "aleksandr": 24020, "timber": 7227, "##der": 4063, "entity": 9178, "contain": 5383, "##tify": 27351, "##vish": 24968, "コ": 1704, "saxon": 10038, "©": 1075, "nilsson": 29376, "phyllis": 20328, "##ٹ": 29838, "rendezvous": 20558, "##gan": 5289, "outbreak": 8293, "patel": 20455, "towns": 4865, "netflix": 20907, "falcons": 14929, "punched": 11696, "celine": 24550, "stephane": 26624, "alexa": 24969, "1897": 6347, "traffic": 4026, "ted": 6945, "auditions": 21732, "pv": 26189, "##葉": 30469, "melody": 8531, "rubbed": 7503, "stunt": 15412, "whipped": 12428, "exhibiting": 22922, "interfered": 28976, "interdisciplinary": 18593, "##ovic": 9142, "##uz": 17040, "magician": 16669, "##sity": 17759, "suspend": 28324, "ethiopian": 15101, "troll": 18792, "monique": 26194, "33rd": 20883, "neighbourhood": 10971, "##oth": 14573, "##master": 8706, "[unused114]": 119, "means": 2965, "##eron": 26534, "medicinal": 20632, "flashed": 8373, "reject": 15454, "fordham": 27302, "##eka": 19025, "mischief": 25166, "layered": 21323, "##res": 6072, "##itung": 28813, "##ass": 12054, "kurdistan": 23627, "bellevue": 26756, "successfully": 5147, "officers": 3738, "quality": 3737, "betting": 19244, "##ulf": 21007, "15": 2321, "1866": 7647, "apologetic": 29352, "planning": 4041, "hours": 2847, "sentencing": 23280, "strolled": 20354, "stemming": 29217, "qatar": 12577, "ე": 1442, "##nc": 12273, "consume": 16678, "charting": 17918, "##holes": 19990, "jaguar": 16490, "import": 12324, "##gating": 16961, "##„": 30060, "producing": 5155, "searching": 6575, "yellow": 3756, "caps": 9700, "##rus": 7946, "january": 2254, "″": 1532, "tv": 2694, "caressed": 21473, "sediment": 19671, "sixth": 4369, "[unused590]": 595, "divert": 27345, "improved": 5301, "##pressed": 19811, "illustrating": 28252, "##hes": 15689, "oil": 3514, "##ioms": 29178, "130": 7558, "codex": 15763, "norte": 19931, "[unused35]": 36, "arch": 7905, "kildare": 24275, "##ife": 29323, "dancers": 10487, "luckily": 15798, "cycle": 5402, "governed": 9950, "electrical": 5992, "giacomo": 22873, "145": 13741, "publishers": 8544, "##ej": 20518, "昭": 1868, "manifestation": 24491, "##hiti": 27798, "##zine": 21254, "320": 13710, "##₆": 30082, "deborah": 15555, "stole": 10312, "##washed": 27283, "##tto": 9284, "unnecessary": 14203, "isaiah": 18850, "potentially": 9280, "remembering": 10397, "mine": 3067, "retro": 22307, "supplier": 17024, "theology": 8006, "innovation": 8144, "cultures": 8578, "pistol": 8779, "##vu": 19722, "compliment": 19394, "lineman": 24062, "lila": 19286, "see": 2156, "##raine": 26456, "shield": 6099, "balkans": 19733, "metabolic": 21453, "convent": 10664, "stacks": 20829, "##ছ": 29893, "gradually": 6360, "delhi": 6768, "primetime": 18474, "rutgers": 18607, "bleak": 21657, "bombing": 8647, "forming": 5716, "therefore": 3568, "inflammatory": 20187, "##no": 3630, "gazette": 11391, "collapses": 25938, "wild": 3748, "910": 27743, "mating": 15100, "##deh": 25383, "confiscated": 17182, "discharge": 11889, "##trom": 13887, "e": 1041, "mail": 5653, "term": 2744, "concepts": 8474, "convert": 10463, "devlin": 24389, "shrugs": 23822, "terre": 25170, "redesignated": 11836, "gladys": 22386, "##ont": 12162, "elsa": 23452, "##ily": 6588, "klein": 12555, "##ean": 11219, "cheltenham": 18763, "explodes": 27583, "##ayan": 25868, "西": 1947, "israel": 3956, "dinah": 26562, "alliances": 21277, "welsh": 6124, "tun": 27112, "##landa": 24448, "shipping": 7829, "apparel": 26278, "barred": 15605, "inquired": 24849, "opening": 3098, "##lp": 14277, "presents": 7534, "operational": 6515, "[unused676]": 681, "hong": 4291, "translated": 5421, "##ok": 6559, "fishery": 22880, "originate": 21754, "fu": 11865, "jess": 12245, "dissolution": 12275, "ɛ": 1115, "##さ": 30182, "##rable": 16670, "heidelberg": 16793, "paragraph": 20423, "protected": 5123, "spoken": 5287, "abbreviation": 22498, "schoolhouse": 26301, "ᵖ": 1504, "vietnam": 5148, "clifton": 16271, "##lt": 7096, "destiny": 10461, "gould": 14913, "wide": 2898, "nyc": 16392, "##勝": 30306, "thrusts": 25842, "bias": 13827, "[unused280]": 285, "monuments": 10490, "brand": 4435, "189": 20500, "[unused8]": 9, "breathe": 7200, "opened": 2441, "significantly": 6022, "happy": 3407, "talked": 5720, "eki": 23174, "apartheid": 17862, "1946": 3918, "delegation": 10656, "##hora": 16977, "ե": 1223, "plan": 2933, "##⁰": 30071, "necessity": 13185, "ware": 16283, "pup": 26781, "[unused101]": 106, "crabs": 26076, "luton": 17807, "##merie": 28677, "qui": 21864, "pretending": 12097, "goo": 27571, "emory": 25853, "##tov": 26525, "counting": 10320, "reprise": 16851, "nostrils": 15325, "terra": 14403, "putin": 22072, "[unused845]": 850, "pereira": 23857, "bbc": 4035, "##tery": 20902, "do": 2079, "mia": 8764, "corrupt": 13593, "publicly": 7271, "sami": 17015, "behaved": 26979, "##介": 30285, "chuck": 8057, "identity": 4767, "either": 2593, "chased": 13303, "##bir": 17706, "cousin": 5542, "ejected": 22607, "囗": 1797, "conrad": 10931, "hardship": 26479, "kazan": 22001, "rejection": 13893, "proctor": 28770, "##rase": 23797, "##₇": 30083, "rms": 29311, "suzy": 28722, "turbulent": 22609, "ulster": 11059, "duct": 23245, "##long": 10052, "theft": 11933, "cruise": 8592, "rid": 9436, "[unused639]": 644, "scratching": 20291, "marvin": 13748, "motive": 15793, "motorcycle": 9055, "##beam": 28302, "##omp": 25377, "spherical": 18970, "##nese": 14183, "ת": 1267, "immediate": 6234, "lobes": 24423, "positioned": 10959, "subgroup": 20576, "1983": 3172, "##18": 15136, "pushing": 6183, "shadowed": 25843, "cale": 21854, "heats": 18559, "zambia": 15633, "write": 4339, "fifty": 5595, "palma": 23985, "##pe": 5051, "aidan": 12643, "[unused486]": 491, "##strel": 26877, "process": 2832, "##cars": 20745, "murray": 6264, "##belt": 21561, "due": 2349, "firearm": 23646, "##eer": 11510, "cfa": 28125, "workshop": 8395, "tariffs": 26269, "fees": 9883, "thousands": 5190, "milton": 9660, "mortal": 9801, "coral": 11034, "lured": 26673, "960": 26637, "consolidate": 24939, "newcastle": 8142, "plenty": 7564, "sf": 16420, "5000": 13509, "caspian": 25893, "penalties": 12408, "resembled": 15881, "##eley": 22352, "1652": 28853, "rey": 12569, "sobbing": 20040, "lurking": 24261, "doha": 26528, "saturdays": 18860, "surely": 7543, "cowan": 25752, "##nca": 20909, "##jan": 8405, "snorted": 15235, "##ћ": 29764, "hurley": 25124, "##≈": 30133, "1580": 28278, "practical": 6742, "jackie": 9901, "##static": 16677, "cradle": 18293, "colchester": 20115, "artillery": 4893, "exported": 15612, "[unused693]": 698, "##@": 29633, "##usion": 14499, "##bed": 8270, "baku": 16807, "interspersed": 25338, "melting": 13721, "theodor": 21448, "expressway": 11720, "rehabilitation": 11252, "ara": 19027, "##lving": 25780, "suspension": 8636, "earnest": 17300, "romani": 23982, "along": 2247, "江": 1897, "vargas": 20556, "介": 1759, "accepts": 13385, "predators": 12630, "[unused866]": 871, "while": 2096, "##game": 16650, "poorer": 27196, "negatively": 19762, "##ptic": 20746, "lilith": 25576, "[unused47]": 48, "poet": 4802, "archaeological": 7611, "paving": 28007, "physician": 7522, "121": 12606, "protestants": 19592, "execution": 7781, "##ד": 29791, "##chan": 14856, "complexes": 15420, "##erina": 26052, "ac": 9353, "uniformly": 27423, "eccentric": 18080, "##rail": 15118, "bio": 16012, "ⁱ": 1537, "##sko": 21590, "microscope": 24635, "drones": 24633, "livingston": 14109, "##真": 30447, "publish": 10172, "##部": 30486, "smells": 14747, "john": 2198, "cullen": 19925, "appearing": 6037, "##elling": 23918, "##б": 29740, "ones": 3924, "##nnis": 27803, "##oia": 25463, "danny": 6266, "¾": 1093, "##chuk": 26516, "souls": 9293, "sims": 18135, "##rdy": 17460, "##mist": 23738, "1991": 2889, "##tp": 25856, "combines": 13585, "cry": 5390, "soccer": 4715, "thrive": 25220, "fired": 5045, "→": 1585, "shoe": 10818, "##his": 24158, "##城": 30330, "##cation": 10719, "chapter": 3127, "त": 1323, "batman": 8942, "enacted": 11955, "brain": 4167, "##logical": 9966, "##מ": 29801, "1840s": 19308, "##ell": 5349, "dax": 27116, "massif": 24875, "quieter": 27486, "[unused856]": 861, "ernest": 8471, "payment": 7909, "henrietta": 20775, "##fare": 17883, "stephen": 4459, "roland": 8262, "39": 4464, "bring": 3288, "journey": 4990, "##scia": 27210, "mira": 18062, "intimidated": 28028, "##cko": 19665, "tian": 23401, "rotational": 25254, "##tsa": 27110, "accurately": 14125, "christy": 21550, "##ingen": 15542, "lindsey": 17518, "relates": 14623, "ᅡ": 1470, "relation": 7189, "gravely": 28070, "infringement": 20701, "nikita": 29106, "っ": 1663, "advanced": 3935, "1867": 7517, "mammals": 11993, "monopoly": 15404, "centered": 8857, "##57": 28311, "##zier": 21548, "demonstrates": 16691, "killer": 6359, "automobiles": 19207, "##rius": 13245, "farm": 3888, "organizing": 10863, "preliminary": 8824, "davenport": 16273, "##mento": 23065, "psychiatrist": 18146, "ongoing": 7552, "bows": 21207, "##rst": 12096, "breton": 16659, "butt": 10007, "friendly": 5379, "ruins": 8435, "arithmetic": 20204, "confusing": 16801, "[unused642]": 647, "defaulted": 17265, "crucial": 10232, "##sg": 28745, "interviewed": 10263, "##lea": 19738, "sabine": 18578, "audrey": 14166, "significant": 3278, "repertory": 21099, "connie": 16560, "violation": 11371, "pricing": 20874, "##四": 30324, "delay": 8536, "troops": 3629, "##pu": 14289, "##un": 4609, "##pis": 18136, "##ե": 29770, "tubes": 10868, "contractors": 16728, "circus": 9661, "portals": 27388, "arose": 10375, "cleric": 29307, "1914": 4554, "bribery": 27748, "smiles": 8451, "irs": 25760, "耳": 1937, "capacity": 3977, "truss": 24224, "1736": 28192, "##宀": 30344, "empty": 4064, "spiral": 12313, "unitary": 22127, "dynasties": 23014, "demonstrate": 10580, "2": 1016, "eroded": 23300, "sad": 6517, "specials": 19247, "welcoming": 18066, "crewe": 22188, "scores": 7644, "##ss": 4757, "ק": 1264, "route": 2799, "prematurely": 28179, "##ider": 18688, "image": 3746, "solos": 24339, "fatalities": 20871, "violinist": 16609, "detecting": 25952, "[unused921]": 926, "[unused575]": 580, "flint": 13493, "##arts": 20591, "orchestral": 13533, "commencing": 25819, "northeastern": 8763, "ursula": 20449, "##ugh": 8953, "thai": 7273, "gee": 20277, "rulers": 11117, "said": 2056, "unified": 10562, "##‚": 30057, "duo": 6829, "1716": 28204, "bavaria": 11606, "threaded": 26583, "immune": 11311, "hee": 18235, "##ᆫ": 30021, "##athic": 20972, "potatoes": 14629, "##cken": 19766, "empowerment": 23011, "lack": 3768, "lilly": 14765, "##'": 29618, "[unused738]": 743, "general": 2236, "pri": 26927, "spoiled": 19582, "cupped": 13740, "pumpkin": 25730, "grain": 8982, "1949": 4085, "ecosystems": 20440, "railroads": 16197, "teammate": 10809, "petite": 20146, "remainder": 6893, "seventeenth": 15425, "ineligible": 22023, "everton": 18022, "walk": 3328, "250": 5539, "echoed": 10187, "shocking": 16880, "racecourse": 15948, "alla": 25699, "##ado": 9365, "1988": 2997, "carolina": 3792, "swiftly": 12128, "wallet": 15882, "：": 1993, "ironically": 18527, "clothed": 24963, "bodied": 22549, "frankie": 12784, "sixties": 22651, "gomez": 12791, "teaser": 27071, "dirty": 6530, "rudd": 25298, "mccann": 28641, "celtics": 23279, "##hir": 11961, "miss": 3335, "rescue": 5343, "1665": 27676, "[unused853]": 858, "gustavo": 24801, "suspiciously": 21501, "aw": 22091, "tab": 21628, "##rz": 15378, "##enting": 26951, "prophecy": 14951, "##ini": 5498, "leased": 12019, "available": 2800, "##ico": 11261, "squeeze": 11025, "spring": 3500, "##mberg": 29084, "ʲ": 1141, "[unused576]": 581, "barlow": 17803, "1714": 25241, "bauer": 17838, "[unused554]": 559, "ezio": 23043, "booklet": 19271, "loaned": 13190, "##—": 30052, "##rf": 12881, "[unused780]": 785, "reports": 4311, "dating": 5306, "musician": 5455, "affecting": 12473, "gp": 14246, "cantonese": 22241, "##screen": 18182, "humboldt": 19249, "##ays": 22916, "##lvis": 28530, "##xie": 16898, "afforded": 22891, "##3d": 29097, "bikini": 20345, "internal": 4722, "##gil": 20142, "licking": 17033, "deter": 28283, "approached": 5411, "wrote": 2626, "sections": 5433, "thinks": 6732, "cn": 27166, "ब": 1329, "ashford": 26545, "##chai": 24925, "##п": 29746, "evidently": 15329, "mayfield": 27224, "charley": 20430, "members": 2372, "daggers": 24210, "quick": 4248, "reduced": 4359, "##ower": 25114, "##tou": 24826, "slide": 7358, "skipper": 23249, "lego": 23853, "engraving": 23501, "boar": 24187, "kazakh": 25907, "shit": 4485, "mcgraw": 24179, "##cats": 19588, "173": 19410, "##ʃ": 29696, "##wright": 26460, "hewitt": 19482, "##nson": 15551, "carrie": 13223, "23rd": 13928, "belonged": 6272, "flashing": 12659, "##tric": 12412, "nbl": 28013, "clifford": 13894, "bit": 2978, "morales": 17103, "##iano": 15668, "##rium": 18802, "rip": 10973, "outlaw": 19104, "##rva": 19146, "ordained": 9492, "toned": 27604, "aquatic": 13582, "yuki": 24924, "evaluation": 9312, "resolutions": 18853, "workout": 27090, "##tock": 17406, "memoir": 12558, "draft": 4433, "pitted": 25895, "treated": 5845, "gt": 14181, "habitat": 6552, "penal": 18476, "mentally": 10597, "[unused929]": 934, "back": 2067, "uruguayan": 23464, "describe": 6235, "michele": 15954, "cavity": 17790, "dreaming": 12802, "identities": 15702, "rendering": 14259, "protect": 4047, "carrying": 4755, "##puted": 29462, "##rm": 10867, "amalgamated": 17143, "##nzo": 25650, "khalid": 21828, "##sch": 11624, "435": 24125, "commuter": 14334, "##far": 14971, "fellows": 13572, "floating": 8274, "nowhere": 7880, "optics": 21026, "table": 2795, "scrapped": 14553, "veracruz": 23741, "##irus": 26013, "cecilia": 18459, "vivo": 24269, "##ere": 7869, "##fire": 10273, "shipped": 12057, "improvisation": 24584, "##`": 29639, "##nsis": 11745, "browning": 18778, "щ": 1204, "anatomy": 13336, "##ders": 13375, "##set": 13462, "embryo": 28086, "slides": 14816, "##lberg": 22927, "for": 2005, "armstrong": 9143, "paramilitary": 22258, "kosovo": 11491, "##tm": 21246, "what": 2054, "dreams": 5544, "disks": 23999, "greek": 3306, "momentary": 29089, "basel": 14040, "##გ": 29976, "blah": 27984, "lot": 2843, "eastward": 17318, "naacp": 26155, "##rons": 28212, "670": 25535, "##vio": 25500, "bankers": 25375, "タ": 1709, "[unused292]": 297, "[unused987]": 992, "pages": 5530, "stern": 8665, "##kled": 19859, "phonetic": 26664, "medina": 15761, "issn": 23486, "amsterdam": 7598, "prom": 20877, "cyril": 16049, "blurted": 18751, "maximus": 21692, "1925": 4849, "395": 24673, "##rno": 19139, "moran": 17866, "auckland": 8666, "prestigious": 8919, "108": 10715, "bolivia": 11645, "magistrates": 23007, "hahn": 24266, "cliff": 7656, "##nished": 28357, "legend": 5722, "metabolism": 18089, "send": 4604, "truce": 18415, "##zano": 24147, "solids": 26778, "venice": 7914, "##unt": 16671, "employers": 12433, "yelled": 7581, "articulated": 20742, "companion": 7452, "sampled": 18925, "display": 4653, "[unused701]": 706, "356": 27509, "ratification": 27369, "highlight": 12944, "skull": 7412, "##rations": 28893, "georgie": 20280, "gunter": 27834, "astronomers": 26357, "ochreous": 23474, "##28": 22407, "1883": 7257, "agency": 4034, "jon": 6285, "durable": 25634, "mere": 8210, "motivated": 12774, "empire": 3400, "scottish": 4104, "1688": 24082, "##阿": 30497, "##ร": 29953, "prussian": 10734, "storm": 4040, "thirteenth": 14725, "wiley": 18825, "°f": 8157, "tacoma": 22954, "ambition": 16290, "hurts": 13403, "enforcing": 27455, "##ran": 5521, "thrilling": 26162, "[unused490]": 495, "nightmare": 10103, "marcelo": 24984, "##vyn": 23487, "contracted": 11016, "poets": 9736, "##agne": 25440, "predecessor": 8646, "warm": 4010, "twilight": 13132, "spanning": 13912, "compatible": 11892, "tunes": 13281, "peer": 8152, "tram": 12517, "nearer": 20388, "##meral": 28990, "##疒": 30439, "indo": 11424, "##bre": 13578, "[unused546]": 551, "marketing": 5821, "regression": 26237, "[unused276]": 281, "##elin": 18809, "elders": 13376, "porter": 8716, "##rified": 22618, "overlooking": 12549, "lc": 29215, "##urbed": 29595, "phase": 4403, "smirked": 18775, "guildford": 26353, "kazakhstan": 11769, "cohen": 9946, "##म": 29867, "kaufman": 23699, "refrigerator": 18097, "##ains": 28247, "robb": 26211, "video": 2678, "[unused705]": 710, "honduras": 14373, "shillings": 29332, "theirs": 17156, "enzo": 26218, "tastes": 16958, "boutique": 24611, "mcdowell": 25005, "freddie": 15528, "keyboards": 6269, "rewards": 19054, "barrage": 19359, "against": 2114, "clinch": 29119, "proudly": 18067, "##elis": 29282, "123": 13138, "##ioned": 19798, "tad": 18819, "coloration": 28757, "unusual": 5866, "hopping": 26397, "incorporate": 13265, "[unused405]": 410, "astronauts": 25881, "##wich": 12414, "touches": 12817, "wavelengths": 29263, "chef": 10026, "##factory": 21450, "##ₗ": 30095, "marquis": 13410, "posture": 16819, "texture": 14902, "##lston": 21540, "##zi": 5831, "narrowly": 11866, "sophomore": 13758, "benfica": 26542, "consumption": 8381, "##ciation": 23247, "landon": 20642, "##zily": 28431, "##gned": 19225, "##ท": 29948, "##ア": 30219, "1977": 3355, "nat": 14085, "worldwide": 4969, "intrinsic": 23807, "fujian": 29551, "##cus": 7874, "barney": 15377, "##ngo": 16656, "barons": 21487, "##hak": 20459, "rector": 10935, "195": 17317, "侍": 1765, "sensors": 13907, "258": 24398, "ω": 1179, "temptation": 17232, "counterparts": 14562, "yellowstone": 29231, "π": 1170, "jug": 26536, "##ctive": 15277, "pilgrimage": 14741, "specially": 11974, "maximize": 25845, "picking": 8130, "bmw": 13154, "brewery": 12161, "barnsley": 25139, "erosion": 14173, "evolved": 7964, "1787": 16057, "sister": 2905, "sm": 15488, "227": 21489, "twinned": 25901, "affluent": 22666, "turning": 3810, "perth": 9300, "uptown": 28539, "##ador": 26467, "##tral": 21493, "miners": 11257, "श": 1336, "attends": 23933, "##genesis": 23737, "buddy": 8937, "[unused414]": 419, "acres": 4631, "horror": 5469, "behold": 27541, "monday": 6928, "speedway": 10688, "endure": 18094, "trailing": 12542, "##38": 22025, "screened": 12238, "angus": 13682, "telecommunication": 25958, "agriculture": 5237, "briefcase": 21793, "freaked": 22783, "julio": 15090, "maps": 7341, "cement": 11297, "borg": 28709, "lehman": 28444, "##asse": 27241, "bin": 8026, "490": 22288, "403": 28203, "controller": 11486, "tactic": 19717, "##olved": 16116, "rockwell": 25235, "straighten": 28568, "islam": 7025, "perpetrators": 27675, "burrows": 22009, "sparkle": 26831, "ہ": 1308, "[unused868]": 873, "karate": 16894, "##ario": 16843, "vehicle": 4316, "deliberate": 15063, "##tail": 14162, "improper": 24156, "##\\": 29635, "instinct": 12753, "seismic": 22630, "barnet": 26864, "investigators": 14766, "coast": 3023, "north": 2167, "exports": 14338, "shrine": 9571, "sane": 22856, "##宇": 30345, "א": 1241, "##print": 16550, "##haw": 14238, "heal": 11005, "##smo": 25855, "fcc": 14420, "georgian": 9166, "##woman": 10169, "##∅": 30121, "spreads": 20861, "bible": 6331, "gore": 13638, "habitats": 10746, "nicholson": 16955, "ம": 1389, "melvin": 20993, "salvatore": 17485, "torches": 24711, "##awan": 25903, "partner": 4256, "##hine": 14014, "innovations": 15463, "##law": 14919, "fluids": 20989, "theological": 9208, "akbar": 20730, "770": 29065, "##lab": 20470, "introductory": 23889, "chocolate": 7967, "organisations": 8593, "hms": 7220, "saving": 7494, "macau": 16878, "##connected": 24230, "alvaro": 24892, "awakening": 16936, "bolshevik": 24477, "gentry": 20262, "vine": 15351, "##©": 29652, "##ए": 29850, "##pore": 26691, "brave": 9191, "##inate": 14776, "dinosaur": 15799, "judgments": 26186, "chooses": 15867, "##quet": 12647, "dangerous": 4795, "johor": 25268, "wilde": 18575, "technique": 6028, "flanked": 15874, "##iff": 13355, "genes": 9165, "finds": 4858, "lift": 6336, "warsaw": 8199, "seductive": 23182, "##burgh": 15496, "reveals": 7657, "originating": 14802, "holds": 4324, "unreasonable": 29205, "meta": 18804, "icons": 18407, "induced": 10572, "denial": 14920, "affects": 13531, "japan": 2900, "mgm": 15418, "##points": 26521, "prasad": 17476, "##care": 16302, "italian": 3059, "##fleet": 27657, "thorne": 14296, "businessmen": 17353, "subway": 10798, "shipments": 24636, "soothe": 28384, "cadence": 23620, "unsure": 12422, "compassionate": 29353, "##yla": 23943, "basement": 8102, "##ark": 17007, "[unused633]": 638, "auspices": 20153, "boise": 23193, "wedding": 5030, "glen": 8904, "longed": 23349, "##hausen": 13062, "##¼": 29664, "tha": 22794, "synthesized": 23572, "##zd": 26494, "##tructing": 26310, "##（": 30513, "hospitalized": 24735, "lau": 21360, "slave": 6658, "ministerial": 18645, "radius": 12177, "正": 1888, "memo": 24443, "[unused481]": 486, "donation": 13445, "newspaper": 3780, "曲": 1870, "##dna": 28911, "buchanan": 14349, "tongue": 4416, "cowboys": 11666, "playstation": 9160, "zach": 12397, "preaching": 17979, "##ically": 15004, "##jevic": 26782, "midland": 12240, "whaling": 23687, "[unused306]": 311, "vantage": 27274, "##bread": 27035, "cervical": 28711, "phosphate": 17344, "[unused71]": 72, "sweetness": 23210, "voyager": 23493, "liquid": 6381, "primera": 14837, "breached": 25769, "feasible": 22945, "bladder": 24176, "regina": 12512, "aisles": 25442, "equivalent": 5662, "admit": 6449, "wake": 5256, "′": 1531, "##erus": 21608, "sunk": 10417, "##ang": 5654, "transvaal": 28336, "standalone": 26609, "##mate": 8585, "##culus": 28703, "##星": 30392, "software": 4007, "mapped": 17715, "[unused695]": 700, "academia": 16926, "kenji": 25894, "##inho": 29344, "wentworth": 20572, "faded": 8105, "critique": 16218, "kerry": 11260, "10": 2184, "hoax": 28520, "1796": 13885, "mistakes": 12051, "anthropology": 12795, "astronaut": 19748, "shannon": 10881, "warnings": 16234, "cyrus": 16123, "guadalajara": 22887, "doomed": 20076, "[unused690]": 695, "dealer": 11033, "##rgan": 16998, "leans": 12671, "disease": 4295, "pits": 14496, "##sson": 7092, "bitterness": 22364, "beverage": 19645, "##bit": 16313, "montana": 8124, "toulon": 27160, "disturbances": 24535, "favored": 12287, "##ovich": 12303, "operates": 5748, "learning": 4083, "discussions": 10287, "##uo": 19098, "maxi": 21510, "sonia": 16244, "##val": 10175, "##rator": 16259, "##fall": 13976, "spokesman": 14056, "execute": 15389, "sighted": 19985, "more": 2062, "robots": 13507, "subjects": 5739, "##loaded": 17468, "boulder": 13264, "melodic": 17187, "blink": 12373, "union": 2586, "baccalaureate": 27802, "pontiac": 24538, "##mori": 24610, "[unused384]": 389, "overgrown": 26433, "beauty": 5053, "flinched": 19201, "appealed": 12068, "##edes": 18352, "##coming": 18935, "writer": 3213, "伊": 1762, "circumstance": 25652, "##kia": 21128, "addicted": 23042, "triple": 6420, "sport": 4368, "ton": 10228, "##inates": 28184, "bread": 7852, "animated": 6579, "shovel": 24596, "toys": 10899, "surfer": 27747, "neighbours": 14754, "paws": 24392, "protections": 28548, "1837": 9713, "stop": 2644, "ß": 1096, "ferry": 7115, "[unused355]": 360, "fugitive": 21329, "hamish": 28859, "purchasing": 13131, "vaudeville": 19698, "stuffing": 28652, "##ona": 7856, "fein": 27132, "masks": 15806, "astrid": 27376, "separates": 18600, "situations": 8146, "from": 2013, "information": 2592, "communication": 4807, "chambers": 8477, "##morphic": 18078, "verbs": 16025, "##lini": 22153, "bce": 10705, "kai": 11928, "excel": 24970, "##eric": 22420, "encouraging": 11434, "sanjay": 29590, "##rys": 24769, "wrecked": 18480, "retrieved": 5140, "hr": 17850, "retention": 20125, "##llar": 17305, "turret": 14493, "3rd": 3822, "vocational": 13099, "storytelling": 20957, "##word": 18351, "##hony": 27629, "##ʂ": 29695, "[unused453]": 458, "liaison": 14975, "mickey": 11021, "avail": 24608, "bis": 20377, "eric": 4388, "afterlife": 25115, "interference": 11099, "leinster": 15684, "rave": 23289, "whirled": 17097, "enclosed": 10837, "fake": 8275, "##bil": 14454, "euroleague": 26093, "decision": 3247, "12": 2260, "lightning": 7407, "lionel": 14377, "##bal": 10264, "##mobile": 17751, "hints": 20385, "„": 1525, "requests": 11186, "depicts": 11230, "master": 3040, "ada": 15262, "pause": 8724, "skater": 18815, "##eration": 16754, "cal": 10250, "encoding": 17181, "batavia": 28917, "lace": 12922, "[unused741]": 746, "##כ": 29798, "有": 1873, "orr": 26914, "turbulence": 29083, "explores": 15102, "ব": 1368, "##cp": 21906, "supervisory": 26653, "warrant": 10943, "hua": 23064, "picnic": 12695, "contest": 5049, "dalai": 28511, "install": 16500, "affected": 5360, "bahn": 17392, "##ffin": 15379, "feature": 3444, "152": 15017, "invaders": 17347, "announcement": 8874, "solved": 13332, "章": 1932, "##թ": 29771, "##nd": 4859, "1903": 5778, "[unused146]": 151, "iata": 9833, "turns": 4332, "we": 2057, "›": 1533, "highlands": 11784, "slamming": 15209, "competitor": 12692, "morphology": 19476, "wipe": 13387, "[unused34]": 35, "##wing": 9328, "tally": 19552, "##ロ": 30261, "minnesota": 5135, "mi": 2771, "precursor": 14988, "drug": 4319, "blew": 8682, "##cene": 17968, "goose": 13020, "##tier": 17579, "horn": 7109, "ivan": 7332, "sorbonne": 28452, "gabon": 23129, "##tica": 22723, "florian": 29517, "note": 3602, "##jo": 5558, "rotten": 11083, "##uke": 15851, "[unused559]": 564, "cafe": 7668, "scraped": 20378, "マ": 1723, "##hips": 19801, "##orno": 26295, "optimistic": 21931, "##ellant": 24178, "glamour": 22439, "groceries": 26298, "忄": 1850, "forbade": 27315, "dome": 8514, "yvonne": 21684, "##iology": 20569, "##ister": 12911, "帝": 1838, "##isa": 14268, "ふ": 1674, "coach": 2873, "railing": 15747, "demonstrations": 13616, "fined": 16981, "‐": 1513, "instance": 6013, "##cous": 27199, "giving": 3228, "ceilings": 21098, "clears": 28837, "lions": 7212, "1683": 27414, "keel": 19602, "shrieked": 22383, "##urized": 28405, "ding": 22033, "##ija": 14713, "##nis": 8977, "##[": 29634, "forbes": 10822, "leftist": 24247, "slashed": 23587, "downstairs": 10025, "south": 2148, "ind": 27427, "##lwyn": 29287, "glove": 15913, "angie": 14835, "dunbar": 23034, "mutter": 23457, "twice": 3807, "##ista": 11921, "pursuing": 11828, "##ت": 29817, "final": 2345, "tribal": 8807, "##mann": 5804, "tb": 26419, "##日": 30390, "ceremony": 5103, "陳": 1972, "revelations": 22191, "antigen": 28873, "stressed": 13233, "##partisan": 26053, "rebels": 8431, "willie": 9893, "becoming": 3352, "scheme": 5679, "ɪ": 1119, "##ahl": 28083, "seneca": 21224, "direct": 3622, "stocked": 24802, "amelie": 25285, "78": 6275, "pronouns": 26028, "commonly": 4141, "##bat": 14479, "allie": 16944, "compound": 7328, "invention": 11028, "ft": 3027, "monkey": 10608, "stationed": 8895, "totals": 21948, "gone": 2908, "##kon": 19648, "##sw": 26760, "otherwise": 4728, "lambda": 23375, "monica": 9018, "receivers": 19278, "##osh": 17369, "う": 1648, "exhaled": 16242, "dry": 4318, "##tries": 21011, "bride": 8959, "cream": 6949, "elections": 3864, "faust": 24021, "propeller": 15692, "wireless": 9949, "piles": 18526, "rosalie": 29564, "pollock": 25218, "emphasized": 13155, "moral": 7191, "jul": 21650, "spot": 3962, "government": 2231, "duran": 22959, "vanderbilt": 17066, "##rmin": 27512, "[unused70]": 71, "bonded": 20886, "discomfort": 17964, "49": 4749, "##།": 29961, "scripture": 18919, "endless": 10866, "situation": 3663, "ioc": 25941, "shadow": 5192, "##ulton": 22145, "blanco": 20036, "fifth": 3587, "cease": 13236, "gardens": 5822, "championship": 2528, "dipping": 23427, "lecture": 8835, "ত": 1362, "石": 1922, "mainline": 20575, "[unused731]": 736, "ghosts": 11277, "##oat": 16503, "juice": 10869, "fated": 27442, "stripe": 18247, "##mum": 27147, "##qua": 16211, "females": 3801, "koreans": 24651, "mission": 3260, "intellectuals": 17412, "connector": 19400, "##men": 3549, "168": 16923, "katie": 9734, "catalog": 12105, "##•": 30063, "cas": 25222, "punishment": 7750, "equations": 11380, "reaction": 4668, "zip": 14101, "interrogation": 16871, "barbados": 16893, "##fighter": 20027, "##lium": 21816, "metallic": 12392, "բ": 1220, "thoughtful": 16465, "catalytic": 26244, "exits": 16639, "1000": 6694, "[unused62]": 63, "ivory": 11554, "chemicals": 12141, "implicated": 20467, "restaurant": 4825, "##合": 30318, "disappeared": 5419, "wood": 3536, "vicky": 22845, "orion": 18747, "mostly": 3262, "##tropical": 25528, "wine": 4511, "[unused833]": 838, "shark": 11420, "insides": 19008, "♥": 1625, "argent": 23157, "sniffed": 18013, "mellon": 22181, "accidents": 13436, "definitely": 5791, "##え": 30175, "achieve": 6162, "excelled": 23081, "fuss": 28554, "blair": 10503, "dave": 4913, "so": 2061, "blasted": 18461, "raiders": 10642, "sighs": 19906, "[unused113]": 118, "chalk": 16833, "singles": 3895, "uncovered": 14486, "trolls": 27980, "##pres": 28994, "##lain": 15987, "contributing": 8020, "pedestal": 24496, "prefer": 9544, "saetan": 23515, "stimulate": 23216, "additions": 13134, "among": 2426, "clouded": 26761, "め": 1680, "socially": 14286, "##qi": 14702, "taluka": 29512, "accountant": 17907, "epoch": 25492, "favourable": 18731, "touring": 6828, "##て": 30191, "subdued": 20442, "giles": 13287, "curling": 11599, "intend": 13566, "installment": 18932, "proposed": 3818, "avon": 16131, "1993": 2857, "disabilities": 13597, "bind": 14187, "##ancy": 11656, "similarities": 12319, "vishnu": 17647, "##kas": 13716, "gestures": 18327, "kansas": 5111, "spies": 16794, "##icum": 22167, "intensity": 8015, "##rade": 13662, "budapest": 10926, "lesson": 10800, "ought": 11276, "sail": 9498, "##dom": 9527, "nino": 20801, "polite": 13205, "sheath": 21867, "##rien": 23144, "particularly": 3391, "rm": 28549, "halves": 23672, "ottawa": 8166, "ₜ": 1571, "abusive": 20676, "cite": 21893, "uncertain": 9662, "whitley": 27007, "boat": 4049, "rajasthan": 16815, "ads": 14997, "bartholomew": 19866, "clients": 7846, "holding": 3173, "twelfth": 11313, "abandoning": 19816, "х": 1200, "grief": 9940, "##igan": 10762, "recent": 3522, "california": 2662, "transactions": 11817, "diminished": 15911, "ballots": 17069, "colder": 21399, "##neas": 26737, "occupants": 18837, "hundreds": 5606, "chewing": 17492, "enjoyment": 20195, "patriotic": 14314, "merits": 22617, "##aceous": 25560, "sid": 15765, "##islaus": 25678, "seed": 6534, "widen": 21255, "##hang": 18003, "113": 12104, "43": 4724, "thwarted": 28409, "chile": 7029, "blast": 8479, "variously": 17611, "whitehall": 28361, "##col": 25778, "124": 13412, "630": 23609, "⁄": 1535, "superiors": 22983, "##ished": 13295, "activities": 3450, "many": 2116, "##cute": 26869, "1776": 13963, "ང": 1427, "filly": 22062, "mussolini": 22554, "gujarat": 14288, "wheelbase": 29141, "ᄃ": 1457, "dieter": 27976, "##ifies": 14144, "swallows": 26436, "hunting": 5933, "uniformed": 25189, "bribe": 26470, "disbanded": 8532, "raised": 2992, "handheld": 27291, "squid": 26852, "deployed": 7333, "develop": 4503, "1719": 28162, "montpellier": 28153, "silvio": 28107, "unmistakable": 24219, "gold": 2751, "[unused751]": 756, "joked": 19700, "mono": 18847, "##ch": 2818, "##har": 8167, "##made": 21565, "perform": 4685, "##line": 4179, "exiles": 27127, "##11": 14526, "intended": 3832, "genuine": 10218, "earn": 7796, "amidst": 17171, "dismissed": 7219, "milky": 21582, "unlocked": 14058, "lacey": 16355, "bracket": 21605, "##boats": 19468, "doctor": 3460, "currie": 20667, "##¶": 29660, "##lde": 17920, "##atic": 12070, "colonization": 18962, "chases": 29515, "snatched": 14177, "0": 1014, "siege": 6859, "vocals": 2955, "[unused105]": 110, "##ivation": 25761, "[unused511]": 516, "especially": 2926, "sol": 14017, "benin": 21164, "mai": 14736, "campeonato": 17675, "##β": 29720, "uneasy": 15491, "tenderness": 24605, "nike": 18368, "several": 2195, "abstract": 10061, "cocked": 13179, "1982": 3196, "55th": 29075, "centuries": 4693, "hai": 15030, "[unused935]": 940, "##active": 19620, "##ო": 29986, "exquisite": 19401, "participants": 6818, "syntax": 20231, "vertically": 20018, "∈": 1596, "muscular": 13472, "worse": 4788, "##mad": 25666, "confidential": 18777, "inscriptions": 12920, "physical": 3558, "oriented": 8048, "diverted": 18356, "choice": 3601, "skin": 3096, "backside": 25065, "##oshi": 24303, "##oys": 27153, "[unused504]": 509, "##wide": 22517, "educating": 25088, "orthodox": 6244, "rhea": 24775, "poorly": 9996, "thereafter": 6920, "redhead": 26705, "climbs": 18881, "lines": 3210, "sited": 28603, "[unused803]": 808, "##harat": 28074, "constructive": 26157, "oxford": 4345, "eugen": 29273, "elaborated": 25187, "gonzalez": 10121, "lp": 6948, "##aman": 23093, "wrexham": 27119, "electronically": 28926, "##van": 6212, "lips": 2970, "generals": 11593, "haul": 14655, "inverness": 22937, "left": 2187, "400": 4278, "medals": 6665, "reached": 2584, "boxing": 8362, "trades": 14279, "listening": 5962, "save": 3828, "modules": 14184, "##lic": 10415, "1650": 21875, "charred": 29030, "reiterated": 28960, "broom": 23528, "張": 1844, "schools": 2816, "elevators": 19406, "arches": 13540, "bangs": 28490, "hamburg": 8719, "calming": 23674, "redistribution": 25707, "losses": 6409, "idaho": 9795, "systemic": 22575, "kobe": 24113, "carl": 5529, "breeding": 8119, "##ord": 8551, "evacuated": 13377, "keenan": 26334, "substitutes": 29200, "panthers": 12915, "soils": 13622, "kathryn": 20484, "ascent": 16354, "stretched": 7121, "adjoining": 13562, "##uet": 23361, "recalling": 21195, "evolving": 20607, "preceded": 11677, "沢": 1898, "1846": 9244, "─": 1615, "suspended": 6731, "elementary": 4732, "humiliating": 28284, "[unused363]": 368, "##nical": 20913, "dazed": 19720, "##iques": 19516, "denis": 11064, "amused": 11770, "uno": 27776, "weir": 16658, "##tson": 25656, "perceived": 8690, "altered": 8776, "nik": 23205, "252": 22898, "comune": 21130, "rejected": 5837, "clergy": 11646, "##ivity": 7730, "tough": 7823, "noting": 9073, "##sso": 24137, "[unused587]": 592, "supper": 15264, "##des": 6155, "equator": 26640, "onto": 3031, "stained": 9702, "negotiation": 19905, "prohibition": 13574, "wcw": 24215, "sumo": 28193, "kwan": 27741, "professorship": 22661, "[unused315]": 320, "expedition": 5590, "##owe": 29385, "caribbean": 7139, "mobile": 4684, "##mina": 22311, "clerk": 7805, "outsiders": 22361, "up": 2039, "##wind": 11101, "pressured": 25227, "##ibe": 20755, "plays": 3248, "aperture": 18892, "grenade": 17038, "licked": 11181, "archers": 23118, "counsel": 9517, "resume": 13746, "jean": 3744, "m³": 14241, "mateo": 19327, "[unused716]": 721, "continually": 14678, "1755": 21417, "##jad": 27875, "tong": 15740, "supplying": 17731, "##ige": 25538, "tombstone": 26671, "##ɐ": 29676, "monument": 6104, "cannabis": 17985, "##43": 23777, "##gram": 13113, "hyde": 11804, "burma": 11050, "dresser": 16641, "##cliff": 27580, "civil": 2942, "kidnap": 22590, "fellowship": 7881, "bar": 3347, "##ᄑ": 30004, "mannheim": 25116, "accompany": 12673, "uncomfortable": 8796, "intercollegiate": 21587, "monte": 10125, "rotherham": 27456, "updates": 14409, "##ac": 6305, "bursting": 21305, "stevens": 8799, "accelerating": 29494, "graf": 22160, "nguyen": 16577, "ritter": 23168, "##μ": 29728, "investing": 19920, "armament": 14410, "##glia": 20011, "qualities": 11647, "rapper": 10687, "dementia": 28767, "grupo": 26678, "[unused846]": 851, "##σ": 29733, "attacks": 4491, "entrance": 4211, "admits": 14456, "reassure": 24647, "dear": 6203, "commotion": 23960, "plumage": 28764, "buddies": 24115, "2014": 2297, "bt": 18411, "followers": 8771, "[unused737]": 742, "concentrations": 14061, "isolated": 7275, "reunion": 10301, "##pathic": 25940, "milos": 26038, "validity": 16406, "customized": 28749, "inferior": 14092, "##rta": 13320, "orlando": 10108, "plausible": 24286, "shirts": 11344, "[unused643]": 648, "mountainous": 14897, "[unused485]": 490, "##tres": 19168, "mo": 9587, "##glers": 25555, "75": 4293, "juliet": 13707, "dire": 18704, "8th": 5893, "##lley": 25105, "##stone": 9221, "antarctic": 10227, "eh": 15501, "pounding": 9836, "terrain": 9291, "##oto": 11439, "log": 8833, "daemon": 12828, "demolition": 12451, "membership": 5779, "ourselves": 9731, "##taka": 28412, "climbing": 8218, "fatty": 19101, "chiefly": 15897, "activated": 8878, "[unused488]": 493, "nair": 22525, "##rg": 10623, "forearms": 27323, "awe": 15180, "##zle": 29247, "##ika": 7556, "crisis": 5325, "deploy": 21296, "mcmahon": 17741, "unincorporated": 7754, "dissolve": 21969, "celaena": 29252, "##tom": 20389, "##tford": 26341, "groves": 21695, "minimum": 6263, "cherokee": 13796, "robotic": 20478, "costa": 6849, "wig": 24405, "homosexuality": 15949, "245": 21005, "lanka": 7252, "chi": 9610, "submit": 12040, "jake": 5180, "##flow": 12314, "英": 1941, "weakness": 11251, "consequence": 9509, "800": 5385, "marco": 8879, "malta": 9933, "files": 6764, "nationwide": 9053, "尚": 1830, "1804": 13140, "த": 1385, "##mus": 7606, "[unused285]": 290, "cancelled": 8014, "combatants": 26622, "flying": 3909, "jokes": 13198, "solar": 5943, "##ན": 29965, "wholly": 12590, "triggered": 13330, "churchyard": 19812, "##gie": 11239, "urgency": 19353, "eagles": 8125, "jogging": 28233, "bobbie": 27731, "disruption": 20461, "mildred": 25452, "№": 1578, "##station": 20100, "lloyd": 6746, "insulin": 22597, "pouch": 21445, "stocks": 15768, "##rill": 24714, "apex": 13450, "ひ": 1673, "witnessing": 24740, "##mmel": 29033, "candidates": 5347, "canadian": 3010, "create": 3443, "[unused251]": 256, "slopes": 10314, "##bbed": 15499, "peyton": 17931, "forts": 15421, "dumont": 25830, "reserve": 3914, "columbian": 25882, "square": 2675, "survey": 5002, "##uls": 28426, "43rd": 25747, "##cture": 14890, "lucius": 15639, "donate": 21357, "residues": 22644, "loneliness": 20334, "radio": 2557, "wicket": 12937, "##run": 15532, "hiatus": 14221, "[unused148]": 153, "kate": 5736, "locus": 25206, "specialized": 7772, "##0": 2692, "eventually": 2776, "locking": 14889, "dea": 26709, "investigation": 4812, "performing": 4488, "regularly": 5570, "speculation": 12143, "##dar": 7662, "crowley": 20748, "moniker": 21937, "readings": 15324, "sounds": 4165, "lie": 4682, "ramps": 24943, "ね": 1670, "##hall": 9892, "social": 2591, "slayer": 20005, "furrowed": 20555, "treasury": 9837, "##bino": 21891, "migrants": 16836, "##zong": 13150, "##yah": 17560, "plus": 4606, "cake": 9850, "panchayat": 20079, "thames": 11076, "misses": 22182, "##ega": 29107, "bending": 14457, "##lch": 29358, "rebuild": 14591, "arrested": 4727, "crossed": 4625, "precise": 10480, "day": 2154, "disappears": 17144, "stirred": 13551, "targets": 7889, "##ivating": 17441, "henson": 27227, "dynamite": 21719, "##sche": 22842, "multimedia": 14959, "##bled": 23242, "##avian": 21654, "rivera": 14043, "fridays": 26587, "east": 2264, "sedimentary": 25503, "ʂ": 1129, "discovery": 5456, "weaker": 15863, "cheerfully": 27403, "alejandro": 16810, "##iable": 19210, "##₁": 11871, "durga": 28746, "kung": 18577, "dictated": 23826, "##ס": 29804, "isotope": 28846, "##愛": 30379, "bruise": 24851, "##shima": 24772, "gilmore": 22999, "arnold": 7779, "severe": 5729, "##dles": 27822, "1881": 7005, "drought": 14734, "severity": 18976, "arun": 28217, "shivers": 28464, "squeezing": 15328, "50": 2753, "signature": 8085, "##‘": 30055, "chuckle": 15375, "madhya": 20841, "physicians": 11572, "personal": 3167, "pr": 10975, "huh": 9616, "##lion": 18964, "derive": 18547, "jimmy": 5261, "privately": 9139, "##haling": 23896, "loyalist": 23414, "toilets": 21674, "plaintiffs": 23953, "volatile": 20606, "frequent": 6976, "waste": 5949, "kilometres": 3717, "tooth": 11868, "##patient": 24343, "trapped": 7567, "entries": 10445, "[unused128]": 133, "calvert": 24800, "vodka": 21092, "seventy": 10920, "fierce": 9205, "##tituted": 29139, "##omo": 19506, "editorial": 8368, "yep": 15624, "amman": 25703, "車": 1954, "##ava": 12462, "##kur": 18569, "amore": 26297, "germany": 2762, "##rogate": 21799, "rumble": 15658, "kylie": 9008, "##od": 7716, "ₕ": 1564, "tyrol": 27193, "call": 2655, "genre": 6907, "永": 1896, "protector": 16167, "##walker": 26965, "narrows": 25142, "furniture": 7390, "hackney": 28425, "intellectual": 7789, "fetch": 18584, "furthermore": 7297, "michael": 2745, "##ག": 29962, "doubling": 19383, "coherent": 18920, "enable": 9585, "families": 2945, "inactivated": 15663, "##nitz": 22792, "[unused33]": 34, "percentage": 7017, "safe": 3647, "##ding": 4667, "ignacio": 22988, "##l": 2140, "antibody": 27781, "ottomans": 17774, "faltered": 26015, "172": 18253, "284": 26871, "pest": 20739, "blossom": 20593, "[unused366]": 371, "ъ": 1205, "nyu": 27935, "worry": 4737, "doom": 12677, "##ett": 6582, "##hari": 18428, "[unused615]": 620, "dominance": 13811, "seize": 15126, "sharks": 12004, "phrases": 15672, "205": 16327, "##dant": 28210, "barbecue": 26375, "container": 11661, "intentions": 11174, "mantra": 25951, "##piration": 16781, "104": 9645, "photography": 5855, "rebound": 27755, "pigs": 14695, "framework": 7705, "streetcar": 21420, "##laya": 22923, "##ක": 29939, "whether": 3251, "lord": 2935, "correction": 18140, "weathered": 28445, "空": 1930, "hydraulic": 14761, "urine": 17996, "feedback": 12247, "bastards": 21123, "dyer": 23494, "љ": 1215, "duff": 21019, "##ster": 6238, "archdiocese": 12658, "infinite": 10709, "intruder": 22841, "numerical": 15973, "quarterback": 9074, "figuring": 23218, "johnson": 3779, "rapidly": 5901, "baffled": 29088, "growled": 8881, "hub": 9594, "excellence": 8012, "warp": 24136, "tramway": 17050, "oscar": 7436, "hazel": 14015, "infections": 15245, "predatory": 21659, "द": 1325, "calder": 19347, "[unused434]": 439, "implicit": 24655, "oneself": 25763, "something": 2242, "messaging": 24732, "regulatory": 10738, "##tia": 10711, "capitalism": 16498, "accumulate": 27598, "robbins": 18091, "reluctance": 21662, "tendency": 11765, "boyle": 16694, "##hana": 15788, "##aud": 19513, "##linger": 23101, "tangled": 14170, "[unused106]": 111, "gatherings": 21403, "maldives": 25059, "valley": 3028, "1086": 28196, "helicopter": 7739, "1974": 3326, "catastrophic": 23546, "##ک": 29841, "granville": 24926, "pills": 15345, "webb": 10923, "converts": 19884, "yunnan": 21607, "converge": 28314, "humphrey": 15462, "caliphate": 28034, "complied": 26946, "malone": 16321, "##vant": 18941, "cameroon": 13841, "skopje": 29255, "slaughter": 14574, "convened": 19596, "standards": 4781, "qu": 24209, "##ス": 30233, "philippe": 11169, "overtime": 12253, "sudbury": 26487, "##は": 30198, "##dan": 7847, "winthrop": 28974, "tracey": 25984, "ghana": 9701, "decommissioned": 14394, "freighter": 27945, "gail": 18576, "##viere": 27087, "pepper": 11565, "brains": 14332, "[unused700]": 705, "pornographic": 26932, "outing": 26256, "rained": 28270, "teenagers": 12908, "bubbling": 25054, "horsepower": 15149, "[unused42]": 43, "coined": 13279, "[unused476]": 481, "prohibits": 25822, "beethoven": 15461, "brightened": 28996, "sven": 21313, "fused": 19660, "freeman": 11462, "landslide": 20148, "staffordshire": 17052, "mallory": 20468, "##vill": 26548, "##氏": 30417, "ck": 23616, "collecting": 9334, "april": 2258, "##rti": 28228, "##ques": 10997, "[unused335]": 340, "compounds": 10099, "potential": 4022, "##lete": 25890, "passages": 13768, "persian": 4723, "psychotic": 27756, "mistaken": 13534, "few": 2261, "earliest": 5700, "base": 2918, "compact": 9233, "technician": 16661, "##ᆼ": 30025, "constable": 12294, "[unused200]": 205, "chase": 5252, "hooks": 18008, "artwork": 8266, "##元": 30295, "benedictine": 21139, "##52": 25746, "brenda": 15507, "fast": 3435, "first": 2034, "mustard": 23187, "inclination": 21970, "priests": 8656, "secured": 7119, "orgasm": 13892, "trainee": 26758, "arrival": 5508, "constitutes": 17367, "[unused82]": 83, "hum": 14910, "cassandra": 15609, "estimate": 10197, "[unused924]": 929, "ogden": 23203, "525": 25621, "tenure": 7470, "vowel": 12710, "##berg": 4059, "vista": 13005, "medici": 22605, "amtrak": 20208, "loosely": 11853, "720": 22857, "vomit": 23251, "cds": 14340, "nonlinear": 27400, "##．": 30517, "interior": 4592, "methodist": 8938, "protocols": 16744, "##vered": 25896, "wrocław": 25160, "puppets": 26101, "[unused809]": 814, "fang": 15197, "venues": 9356, "orchid": 15573, "thereof": 21739, "[unused703]": 708, "unemployment": 12163, "##ering": 7999, "##dus": 17619, "##nton": 15104, "##nel": 11877, "syllable": 16353, "##op": 7361, "warn": 11582, "automatically": 8073, "blended": 19803, "##num": 19172, "gloves": 11875, "needed": 2734, "transportation": 5193, "ந": 1386, "##xa": 18684, "[unused190]": 195, "##↓": 30114, "cans": 18484, "institute": 2820, "##ᄒ": 30005, "##₹": 30104, "anthem": 11971, "aground": 29406, "unnatural": 21242, "shri": 14880, "commented": 7034, ":": 1024, "hut": 12570, "##ا": 25573, "raged": 28374, "mercantile": 25420, "nursing": 8329, "linguistic": 12158, "ste": 26261, "v6": 25275, "ン": 1737, "joints": 17651, "sigismund": 26748, "versatile": 22979, "lori": 18669, "lunch": 6265, "discovers": 9418, "##khand": 25910, "refreshing": 27150, "‰": 1530, "brooklyn": 6613, "stumbling": 19730, "annexation": 18985, "divine": 7746, "shuttle": 10382, "##車": 30480, "banished": 21319, "olympus": 26742, "unofficial": 11982, "dot": 11089, "楊": 1883, "pitchfork": 22355, "holder": 9111, "insistent": 29204, "choose": 5454, "##hri": 26378, "donna": 10972, "epa": 19044, "caring": 11922, "exemplary": 27792, "kabul": 21073, "[": 1031, "begin": 4088, "[unused564]": 569, "bicycles": 21066, "parasite": 21198, "reservation": 11079, "provoke": 27895, "opportunities": 6695, "portraying": 17274, "ス": 1707, "restraint": 19355, "recaptured": 23838, "offers": 4107, "concordia": 24982, "rory": 14285, "行": 1945, "hair": 2606, "##囗": 30323, "[unused914]": 919, "nano": 28991, "##eira": 21302, "radiant": 23751, "degrees": 5445, "smashed": 14368, "[unused729]": 734, "focus": 3579, "musa": 23154, "[unused740]": 745, "##nche": 26091, "undergoes": 29129, "##sco": 9363, "armenians": 20337, "##rch": 11140, "replication": 21647, "##øy": 27688, "refining": 28596, "episodes": 4178, "flutter": 23638, "##fc": 11329, "meaningful": 15902, "ono": 21058, "state": 2110, "tainted": 26392, "bequeathed": 27180, "ty": 5939, "⅓": 1581, "cult": 8754, "ears": 5551, "ensemble": 7241, "ismail": 19214, "pancakes": 28470, "owing": 11427, "fiery": 15443, "nottingham": 11331, "##ek": 5937, "court": 2457, "ledger": 27106, "sulawesi": 29078, "樹": 1884, "##pot": 11008, "crawley": 28854, "[unused331]": 336, "garlic": 20548, "##name": 18442, "minh": 19538, "impacts": 14670, "assured": 8916, "designed": 2881, "90": 3938, "[unused68]": 69, "notice": 5060, "layers": 9014, "horace": 12757, "prominent": 4069, "distracting": 25012, "slowly": 3254, "##tness": 27401, "22": 2570, "flaming": 19091, "rebel": 8443, "norm": 13373, "ana": 9617, "analyzing": 20253, "##le": 2571, "##tting": 13027, "subsidiaries": 20178, "fours": 23817, "##iere": 21253, "##quil": 26147, "growth": 3930, "##nte": 10111, "##rest": 28533, "population": 2313, "550": 13274, "faulty": 28927, "##back": 5963, "##ress": 8303, "gwen": 11697, "provision": 9347, "privy": 14452, "forearm": 16148, "##sur": 26210, "##kley": 22315, "pearls": 21944, "[unused253]": 258, "##wt": 26677, "kane": 8472, "moore": 5405, "1728": 26833, "smell": 5437, "core": 4563, "##j": 3501, "[unused461]": 466, "ordering": 13063, "leapt": 13920, "umar": 27981, "proposing": 21991, "edition": 3179, "##あ": 30172, "[unused477]": 482, "clans": 16411, "mastery": 26364, "presenting": 10886, "manipulation": 16924, "expert": 6739, "##ᄀ": 29991, "##aker": 22626, "heels": 8265, "overshadowed": 28604, "sampson": 22041, "##戸": 30383, "dining": 7759, "1886": 6929, "iucn": 20333, "show": 2265, "genres": 11541, "bayern": 21350, "##late": 13806, "##illy": 20577, "[unused223]": 228, "eyes": 2159, "sugar": 5699, "superhero": 16251, "##ε": 29723, "rene": 10731, "[unused518]": 523, "pattern": 5418, "[unused627]": 632, "plump": 26731, "simplified": 11038, "##ards": 18117, "ideally": 28946, "##ogenic": 24278, "electrification": 23679, "vase": 18781, "##gley": 22971, "come": 2272, "rafe": 15819, "froze": 10619, "brush": 8248, "constantin": 27991, "quakers": 28301, "##ford": 3877, "isle": 8842, "236": 23593, "accelerate": 23306, "bandage": 24446, "##sfield": 15951, "conveyed": 21527, "##cey": 25810, "##nt": 3372, "manifold": 19726, "[unused573]": 578, "smacked": 19203, "[unused397]": 402, "initiatives": 11107, "energetic": 18114, "lear": 26511, "##bury": 4917, "स": 1338, "charged": 5338, "spotlight": 17763, "estonian": 12029, "ტ": 1453, "উ": 1350, "[unused835]": 840, "courageous": 26103, "harmonic": 19452, "inside": 2503, "transporting": 18276, "foreword": 23059, "fright": 25966, "privacy": 9394, "rockefeller": 16696, "strain": 10178, "1929": 4612, "dazzling": 28190, "controversies": 25962, "stood": 2768, "58": 5388, "idle": 18373, "meaningless": 25120, "[unused351]": 356, "adherence": 29235, "credits": 6495, "artists": 3324, "enrico": 21982, "translators": 28396, "##nger": 11392, "furnace": 17533, "##rith": 24292, "##hal": 8865, "##imate": 21499, "##თ": 29980, "##wal": 13476, "bearing": 7682, "loyalists": 26590, "runways": 24578, "permitting": 24523, "circles": 7925, "unanimous": 13604, "bsc": 23533, "ecuador": 10378, "##weight": 11179, "faa": 17032, "favorably": 27597, "interviews": 7636, "insults": 23862, "marcia": 22548, "jacobs": 12988, "王": 1909, "##lani": 21141, "##ъ": 29755, "##』": 30170, "father": 2269, "level": 2504, "nominal": 15087, "hoarse": 21221, "neither": 4445, "restroom": 28249, "alternating": 15122, "[unused436]": 441, "mathew": 25436, "unitarian": 25477, "##–": 30051, "##ant": 4630, "[unused517]": 522, "##ゆ": 30209, "[unused203]": 208, "girl": 2611, "old": 2214, "grind": 23088, "immigrated": 17352, "ড": 1360, "guggenheim": 20402, "died": 2351, "merchants": 10310, "fellowships": 27298, "##ri": 3089, "talk": 2831, "##耳": 30463, "instrument": 6602, "investigated": 10847, "1938": 4260, "##tic": 4588, "speeding": 21485, "sterile": 25403, "cameron": 7232, "limo": 23338, "controls": 7711, "copied": 15826, "##phs": 18757, "##ressed": 16119, "##kou": 24861, "610": 19827, "boasts": 21979, "suitable": 7218, "virgil": 17270, "besieged": 17923, "reforms": 8818, "sonic": 12728, "projections": 21796, "pleased": 7537, "cognitive": 10699, "sketch": 11080, "slight": 7263, "burr": 22715, "correspondence": 11061, "##sir": 29481, "dislike": 18959, "macro": 26632, "vatican": 12111, "foo": 29379, "hazards": 22010, "sanctions": 17147, "ワ": 1736, "grades": 7022, "tension": 6980, "cote": 17155, "tilt": 17010, "##dim": 22172, "iona": 22347, "congenital": 27480, "sincerely": 25664, "[unused246]": 251, "motives": 17108, "##jal": 25787, "nightmares": 15446, "##hopper": 27330, "accommodation": 11366, "##udence": 29424, "sound": 2614, "##erved": 25944, "nas": 17235, "beautifully": 17950, "dictatorship": 18944, "mala": 28935, "defend": 6985, "substitution": 20885, "savanna": 22323, "##now": 19779, "weimar": 20695, "armada": 25306, "hilda": 21589, "personality": 6180, "segment": 6903, "callum": 15229, "list": 2862, "reciprocal": 28309, "solve": 9611, "kennedy": 5817, "instrumentalist": 29253, "arrangement": 6512, "mexico": 3290, "rhodes": 10588, "tune": 8694, "า": 1422, "[unused763]": 768, "equivalence": 27841, "coincidence": 16507, "fits": 16142, "parlor": 18746, "##rag": 29181, "sharp": 4629, "##yp": 22571, "preach": 25250, "quay": 21048, "moose": 17716, "ম": 1370, "presses": 14616, "roughly": 5560, "##vina": 17948, "profiles": 17879, "##ː": 23432, "hectares": 9076, "##giving": 23795, "lucifer": 24184, "pierce": 9267, "femme": 26893, "psalms": 26130, "timmy": 27217, "roads": 4925, "ammonia": 25874, "showcased": 22443, "ɴ": 1124, "compilation": 6268, "tablet": 13855, "nazi": 6394, "villiers": 25333, "dq": 25410, "polled": 26847, "publicity": 11845, "gmina": 7061, "[unused902]": 907, "attempting": 7161, "substrate": 16305, "[unused530]": 535, "opposing": 10078, "dexter": 14375, "##ᴮ": 30027, "##tar": 7559, "respectable": 19416, "maiden": 10494, "collarbone": 29600, "ticking": 28561, "63": 6191, "formulated": 19788, "##ake": 13808, "495": 29302, "dedication": 12276, "shocked": 7135, "situated": 4350, "sp": 11867, "staunch": 26355, "battled": 19787, "fort": 3481, "perry": 6890, "thesis": 9459, "unlike": 4406, "littered": 24777, "##bird": 9001, "playfully": 22608, "pakistan": 4501, "[unused501]": 506, "bestowed": 17398, "numbering": 15200, "scorpion": 22015, "stirling": 15597, "externally": 27223, "tex": 16060, "##コ": 30230, "##タ": 30235, "samsung": 19102, "##ի": 29772, "avalanche": 18846, "gamble": 18503, "knees": 5042, "electric": 3751, "examines": 20798, "cortes": 22242, "memories": 5758, "##kling": 20260, "torso": 15190, "##gt": 13512, "passage": 6019, "horned": 26808, "margins": 17034, "avant": 14815, "##sted": 14701, "contingent": 15445, "germain": 19192, "outskirts": 12730, "customary": 16120, "brothel": 27308, "xx": 22038, "##dp": 18927, "268": 25143, "announcements": 25674, "hannover": 29209, "descendants": 8481, "converted": 4991, "mvp": 12041, "emphasizes": 20618, "##訁": 30475, "c2": 29248, "trumpet": 9368, "##erson": 18617, "##zal": 16739, "heartbreak": 27724, "covent": 29456, "citizen": 6926, "famine": 15625, "cheese": 8808, "brasil": 21133, "croatian": 7963, "incarnation": 15715, "performs": 10438, "##shot": 19040, "lash": 25210, "petersburg": 8062, "newport": 9464, "##hope": 26441, "textual": 25304, "chestnut": 15655, "skeletal": 20415, "##idia": 29342, "knesset": 27899, "moss": 10636, "mortality": 13356, "rufus": 18316, "##lbert": 23373, "carnegie": 11298, "##tight": 26143, "##leader": 19000, "##ия": 23483, "sewing": 22746, "banged": 22843, "straw": 13137, "plantation": 10065, "rubs": 28860, "stumble": 21811, "artefacts": 25762, "awake": 8300, "166": 18610, "[unused21]": 22, "hyper": 23760, "vidal": 29259, "february": 2337, "##cott": 13124, "propped": 16863, "assistant": 3353, "managed": 3266, "gamer": 27911, "hatfield": 26853, "cypress": 22183, "outlet": 13307, "levine": 17780, "galicia": 19017, "taped": 19374, "heard": 2657, "cane": 11942, "coulter": 28293, "detailed": 6851, "nudged": 18666, "butterflies": 15023, "cheating": 16789, "jonny": 26937, "theodore": 10117, "##claiming": 27640, "banded": 25264, "con": 9530, "everett": 15160, "agreements": 10540, "sammy": 14450, "[unused107]": 112, "##chule": 20269, "[unused126]": 131, "##ike": 17339, "outlines": 22106, "zodiac": 28501, "grumbled": 17030, "sly": 18230, "[unused520]": 525, "##rry": 12244, "র": 1372, "mrna": 28848, "49ers": 18156, "##მ": 29984, "new": 2047, "barcelona": 7623, "人": 1756, "somehow": 5064, "perimeter": 13443, "##osity": 25949, "selector": 27000, "ε": 1159, "christophe": 23978, "cabbage": 28540, "promoting": 7694, "##e": 2063, "##ota": 17287, "[SEP]": 102, "wounding": 27285, "depth": 5995, "johnston": 10773, "nitrogen": 14114, "fate": 6580, "उ": 1313, "fascinating": 17160, "##fort": 13028, "stall": 13498, "trenches": 19874, "radiation": 8249, "guerre": 24613, "homogeneous": 24854, "oxide": 15772, "node": 13045, "##yse": 23274, "poe": 18922, "scanner": 26221, "recognition": 5038, "bigger": 7046, "mall": 6670, "gershwin": 25600, "search": 3945, "temporarily": 8184, "upgrading": 25925, "wikipedia": 16948, "13th": 6122, "prominence": 12144, "visitation": 28877, "1672": 27253, "repertoire": 13646, "excuses": 21917, "told": 2409, "revealing": 8669, "judy": 12120, "stool": 14708, "collaboration": 5792, "shouts": 15701, "praised": 5868, "##ld": 6392, "fictitious": 23577, "contributor": 12130, "provocative": 26422, "##კ": 29982, "answers": 6998, "sentai": 28650, "surveyed": 12876, "separation": 8745, "##ide": 5178, "##ry": 2854, "rotterdam": 15632, "##avi": 18891, "##ю": 29757, "##zel": 12638, "turn": 2735, "nm": 13221, "accordion": 19060, "blue": 2630, "federal": 2976, "trick": 7577, "wellness": 25860, "pity": 12063, "server": 8241, "baxter": 14664, "til": 18681, "frustrated": 10206, "tournaments": 8504, "##ße": 17499, "collateral": 24172, "comforting": 16334, "hunters": 9624, "adopting": 16151, "mater": 16289, "recordings": 5633, "##藤": 30470, "[unused602]": 607, "copy": 6100, "legged": 15817, "calderon": 28129, "[unused237]": 242, "##高": 30507, "murals": 19016, "uv": 23068, "##sk": 6711, "review": 3319, "economy": 4610, "sperm": 18047, "emanuel": 21135, "molina": 25601, "##व": 29871, "ser": 14262, "[unused99]": 104, "termination": 18287, "[unused320]": 325, "joint": 4101, "proceedings": 8931, "advertised": 17099, "321": 24030, "sliding": 8058, "##sburg": 9695, "footballers": 27784, "##ops": 11923, "hidalgo": 24715, "habsburg": 17486, "hadley": 21681, "royalties": 25335, "##46": 21472, "##mble": 19661, "archdeacon": 21742, "announces": 17472, "thus": 2947, "delgado": 26532, "uci": 14504, "regimental": 17604, "manufacturers": 8712, "beetles": 14538, "newark": 12948, "fossil": 10725, "##cina": 28748, "leave": 2681, "overly": 15241, "junta": 22450, "stadium": 3346, "##ns": 3619, "##vus": 27500, "remains": 3464, "planned": 3740, "outstanding": 5151, "expelled": 10016, "passengers": 5467, "truths": 23019, "##ow": 5004, "bedrooms": 18390, "crippled": 24433, "##ution": 13700, "##tv": 9189, ",": 1010, "field": 2492, "cedar": 11354, "illustrated": 7203, "part": 2112, "mining": 5471, "about": 2055, "se": 7367, "tori": 23413, "woken": 22795, "##taro": 28160, "##ン": 30263, "clockwise": 22839, "reacher": 22970, "gearbox": 22227, "##rat": 8609, "lennox": 21060, "adverse": 15316, "awkward": 9596, "prosecution": 11537, "boundary": 6192, "wore": 5078, "damn": 4365, "mg": 11460, "occasion": 6686, "oleg": 25841, "##dio": 20617, "##raphic": 20721, "file": 5371, "crambidae": 21585, "##dog": 16168, "underwater": 11564, "м": 1191, "restructuring": 18322, "sawmill": 24744, "##icular": 21412, "virginia": 3448, "speaking": 4092, "##ator": 8844, "##gna": 16989, "580": 23712, "nests": 17415, "originally": 2761, "warrington": 23051, "survivors": 8643, "archer": 11024, "##idium": 28742, "negotiate": 13676, "internationale": 21339, "rites": 17105, "tak": 27006, "##cise": 18380, "capital": 3007, "carriage": 9118, "grinning": 11478, "alma": 11346, "patted": 11930, "terminals": 17703, "burst": 6532, "gave": 2435, "parochial": 28773, "britannia": 24677, "assemblies": 17720, "##ening": 7406, "pear": 28253, "sack": 12803, "⁴": 1538, "##drich": 23335, "das": 8695, "##uli": 15859, "adjective": 24931, "pistons": 24399, "sees": 5927, "greeks": 13176, "eighties": 27690, "##ryn": 18143, "sul": 21396, "elector": 20374, "handgun": 28497, "lockheed": 17646, "screwing": 29082, "tanker": 20135, "charters": 23010, "categories": 7236, "hysterical": 25614, "bastion": 26829, "protests": 8090, "olaf": 20514, "tyne": 17742, "##bedo": 28759, "dates": 5246, "malaya": 19979, "##ums": 18163, "decide": 5630, "changed": 2904, "##tsky": 26824, "[unused591]": 596, "garden": 3871, "hogan": 14851, "inspected": 20456, "textbook": 16432, "brutally": 23197, "bassist": 9858, "grandmaster": 27101, "##kawa": 13069, "classics": 10002, "midi": 22265, "archaeology": 12009, "plato": 18858, "##bee": 11306, "ruiz": 18773, "slick": 13554, "209": 19348, "##yuki": 19663, "cindy": 15837, "##space": 23058, "reefs": 21484, "##tner": 18885, "##ty": 3723, "messed": 18358, "notebook": 14960, "bastard": 8444, "waterways": 21938, "##nta": 12380, "hindus": 18221, "tucking": 25056, "##tangled": 27898, "ᄉ": 1461, "paralyzed": 22348, "burroughs": 25991, "kemp": 20441, "fearless": 22518, "uprising": 10138, "##ハ": 30244, "weary": 16040, "##net": 7159, "[unused479]": 484, "##yal": 21095, "areas": 2752, "##sit": 28032, "closed": 2701, "inmates": 13187, "[unused92]": 93, "##acio": 21361, "clutching": 14197, "grasslands": 26183, "maroon": 22222, "integer": 16109, "trent": 7990, "pathogen": 26835, "##mler": 18602, "mcpherson": 24332, "mural": 15533, "saharan": 24505, "arrogant": 15818, "analogue": 21800, "notation": 14869, "##cia": 7405, "##स": 29874, "##sław": 23305, "##personal": 28823, "via": 3081, "networking": 14048, "##tiv": 29068, "horrible": 9202, "waterloo": 13784, "partners": 5826, "unsafe": 25135, "##五": 30279, "stored": 8250, "traveller": 21916, "canal": 5033, "limerick": 15679, "losers": 23160, "party": 2283, "slams": 25967, "[unused198]": 203, "aurora": 13158, "romero": 18290, "##ttal": 28200, "violin": 6710, "##ythe": 26688, "marek": 29318, "naughty": 20355, "sexuality": 13798, "portrait": 6533, "wildcats": 19495, "shopping": 6023, "tear": 7697, "complaints": 10821, "specimens": 9908, "ported": 27650, "islamabad": 26905, "##walk": 17122, "##∞": 30128, "cycles": 12709, "tattooed": 26464, "indications": 24936, "product": 4031, "##orra": 24285, "eels": 29317, "roma": 12836, "[unused822]": 827, "augmented": 19335, "laude": 21602, "melanie": 13286, "##dor": 7983, "repeal": 21825, "contaminated": 19450, "lush": 16299, "colonial": 5336, "duchy": 11068, "maharaja": 21609, "[unused982]": 987, "financed": 13790, "##runa": 26605, "parrot": 22530, "fearful": 19725, "peculiar": 14099, "incline": 27461, "borrow": 17781, "titular": 12960, "smackdown": 22120, "winged": 14462, "sabha": 11200, "remove": 6366, "skepticism": 27936, "greens": 15505, "merritt": 26701, "##坂": 30329, "thankfully": 16047, "creep": 19815, "reverted": 16407, "madness": 12013, "surprised": 4527, "gaping": 21226, "##unda": 18426, "tottenham": 18127, "helmut": 24515, "boogie": 21495, "[unused600]": 605, "excerpt": 28142, "norfolk": 7735, "1972": 3285, "elliptical": 27213, "promises": 10659, "##一": 30266, "lauderdale": 23520, "quietly": 5168, "records": 2636, "producers": 6443, "belarus": 12545, "1858": 8517, "[unused913]": 918, "##25": 17788, "##wu": 16050, "antilles": 27695, "goethe": 23173, "made": 2081, "architectural": 6549, "[unused244]": 249, "ᅧ": 1474, "barrie": 24953, "inspection": 10569, "susannah": 20471, "laugh": 4756, "hope": 3246, "premise": 18458, "test": 3231, "pale": 5122, "entered": 3133, "ralph": 6798, "complex": 3375, "coalition": 6056, "##sack": 25607, "drip": 27304, "vibe": 21209, "far": 2521, "earthquake": 8372, "highways": 10292, "sony": 8412, "monsieur": 21380, "##rcus": 29006, "issued": 3843, "texted": 24637, "convinced": 6427, "dissatisfaction": 28237, "341": 28358, "serving": 3529, "shape": 4338, "threatening": 8701, "bonnie": 12220, "idf": 24011, "##ug": 15916, "1947": 4006, "nelson": 5912, "trough": 23389, "[unused417]": 422, "diocese": 5801, "##ane": 7231, "##bourg": 20431, "tailored": 21727, "##bh": 23706, "##feld": 8151, "ו": 1246, "##rde": 25547, "##lun": 26896, "2d": 14134, "printer": 15041, "wurttemberg": 16346, "repeat": 9377, "##amen": 27245, "##45": 19961, "babylonian": 26990, "prosecutor": 12478, "rowland": 20539, "destroyers": 13242, "vicki": 25424, "york": 2259, "a1": 17350, "##せ": 30185, "ascended": 19644, "filmmaker": 12127, "vicente": 17280, "##ht": 11039, "ℓ": 1577, "##ニ": 30242, "pastoral": 13645, "campaigning": 18524, "ul": 17359, "thyroid": 29610, "patrons": 13497, "me": 2033, "verdict": 14392, "cracked": 9630, "epidemic": 16311, "安": 1820, "possess": 10295, "emerson": 12628, "monastery": 6408, "saxony": 13019, "[unused942]": 947, "upside": 14961, "tres": 24403, "examples": 4973, "sized": 7451, "##》": 30166, "##ホ": 30248, "reviewed": 8182, "barge": 19398, "##forms": 22694, "outlawed": 29131, "symptoms": 8030, "gibbons": 22194, "inevitably": 21268, "##vard": 25911, "foam": 17952, "stout": 18890, "transparency": 16987, "ミ": 1724, "tease": 18381, "##dic": 14808, "jelly": 20919, "lena": 14229, "saw": 2387, "##wc": 16526, "flesh": 5771, "##udge": 15979, "breakaway": 26321, "polo": 11037, "##roid": 22943, "stew": 20717, "##eased": 25063, "shredded": 29022, "[unused744]": 749, "cia": 9915, "middlesbrough": 21655, "underworld": 13607, "##eptive": 22048, "astonishment": 23819, "self": 2969, "spontaneously": 27491, "334": 29562, "ᅭ": 1477, "subgenus": 25356, "##onga": 26356, "agony": 12812, "##evic": 17726, "##tas": 10230, "halfway": 8576, "siren": 19558, "##dicated": 26022, "[unused147]": 152, "weber": 13351, "pitch": 6510, "messages": 7696, "yearning": 29479, "戸": 1857, "##eded": 19082, "telegram": 23921, "martinique": 29365, "forcing": 6932, "[unused797]": 802, "walter": 4787, "farther": 8736, "lithium": 22157, "castro": 11794, "reared": 23295, "paranoid": 19810, "clawed": 22544, "grover": 25242, "defenses": 13345, "born": 2141, "reproduced": 22296, "##亻": 30283, "maia": 23478, "ribs": 10335, "developer": 9722, "engineers": 6145, "gordon": 5146, "leith": 29011, "ণ": 1361, "##um": 2819, "[unused124]": 129, "tanaka": 21829, "##manship": 21530, "1969": 3440, "##uk": 6968, "##01": 24096, "##cino": 21081, "bubba": 19606, "`": 1036, "levels": 3798, "walt": 10598, "[unused622]": 627, "hove": 25215, "mathematicians": 29374, "shell": 5806, "coping": 27520, "compassion": 15398, "206": 18744, "fourth": 2959, "dice": 18740, "hobby": 17792, "nigeria": 7387, "##skaya": 23070, "standings": 11869, "##onda": 29067, "iowa": 5947, "syndrome": 8715, "[unused334]": 339, "compromised": 20419, "##eld": 14273, "##uca": 18100, "##⇌": 30118, "ten": 2702, "delicious": 12090, "racism": 14398, "maneuvers": 23802, "##omba": 24991, "basketball": 3455, "##ר": 29811, "hooded": 21592, "sighing": 19381, "pauline": 15595, "criticizing": 21289, "nash": 10594, "rodney": 13898, "57th": 28623, "[unused91]": 92, "searched": 9022, "renowned": 8228, "sic": 14387, "stream": 5460, "##gau": 20420, "##ulia": 20922, "##vo": 6767, "factual": 25854, "collision": 12365, "felicia": 27579, "convoy": 9549, "aiding": 24791, "mistress": 10414, "##ulsive": 23004, "千": 1784, "taxi": 10095, "softened": 16573, "皇": 1917, "##uria": 27703, "と": 1666, "ci": 25022, "outdated": 25963, "camel": 19130, "clubhouse": 22067, "wears": 11651, "britain": 3725, "murmurs": 22888, "smartphone": 26381, "ァ": 1692, "##car": 10010, "comprised": 11539, "rf": 21792, "##kla": 26086, "admired": 12749, "medieval": 5781, "otago": 21831, "[unused26]": 27, "warns": 19428, "[unused887]": 892, "[unused890]": 895, "ء": 1269, "myanmar": 12620, "nearly": 3053, "physically": 8186, "exchanges": 15800, "concept": 4145, "hawke": 24882, "bothered": 11250, "imaginative": 28575, "171": 18225, "disturbed": 12491, "slovakia": 10991, "sichuan": 20980, "tristan": 9822, "giggling": 21783, "magnolia": 24659, "talmud": 24380, "concessions": 20638, "##lity": 18605, "accessibility": 23661, "ri": 15544, "##ᄇ": 29996, "drama": 3689, "cough": 19340, "reclamation": 27389, "surfaced": 15791, "classifications": 26739, "##00": 8889, "renovations": 15576, "unknown": 4242, "alpha": 6541, "efforts": 4073, "##zyn": 23749, "286": 24921, "scroll": 17186, "lens": 10014, "1943": 3826, "clearer": 24509, "deficiency": 18888, "imagining": 16603, "simpson": 9304, "▪": 1618, "art": 2396, "metropolitan": 4956, "##rdan": 26992, "tackle": 11147, "pulpit": 23134, "verses": 11086, "1874": 7586, "lovely": 8403, "##race": 22903, "staircase": 10714, "waved": 7147, "112": 11176, "flu": 19857, "rain": 4542, "escalated": 26814, "void": 11675, "away": 2185, "309": 25048, "ᆼ": 1489, "interfering": 24324, "sweetie": 22872, "analyst": 12941, "harp": 14601, "emancipation": 22656, "element": 5783, "succeeding": 13034, "did": 2106, "concluded": 5531, "brent": 12895, "establishes": 21009, "emery": 24294, "yamaha": 24031, "contraction": 21963, "##bridge": 6374, "gregorian": 25847, "manhattan": 7128, "philippines": 5137, "irregular": 12052, "##bri": 23736, "convoys": 23083, "convicts": 24948, "nicholls": 27043, "frederick": 5406, "sykes": 23531, "##≡": 30134, "##zquez": 22938, "energies": 19320, "assurance": 16375, "musique": 25784, "smiled": 3281, "##hea": 20192, "ʿ": 1148, "laurie": 16450, "communism": 15523, "##tlement": 24007, "mug": 14757, "[unused316]": 321, "apologies": 25380, "##چ": 29840, "groin": 20092, "ill": 5665, "impact": 4254, "##…": 30064, "linear": 7399, "crested": 25413, "real": 2613, "stain": 21101, "ए": 1314, "disrupt": 23217, "quezon": 26564, "excavation": 16456, "philippine": 7802, "freelance": 15919, "compiling": 21953, "shoreline": 17721, "flyer": 23821, "##ring": 4892, "settle": 7392, "stepping": 9085, "[unused667]": 672, "##nesian": 20281, "toxicity": 22423, "reaching": 4285, "marrying": 13516, "teammates": 13220, "##ites": 7616, "astro": 28625, "##ctric": 22601, "ட": 1384, "flashback": 21907, "bribes": 29117, "rivers": 5485, "rockies": 22366, "epilogue": 24297, "名": 1795, "encourages": 16171, "glided": 26936, "johns": 11545, "predominant": 21047, "[unused548]": 553, "sting": 12072, "humour": 17211, "wealthiest": 27809, "compression": 13379, "extraordinary": 9313, "##東": 30405, "accused": 5496, "boulders": 22177, "cart": 11122, "coroner": 22896, "##vite": 25217, "flip": 11238, "fred": 5965, "ebert": 22660, "recalled": 7383, "walden": 24834, "##tures": 22662, "chicago": 3190, "roam": 25728, "donated": 6955, "racial": 5762, "nate": 8253, "##load": 11066, "##火": 30432, "manager": 3208, "bros": 10243, "imitation": 20017, "accountable": 26771, "vanishing": 24866, "redevelopment": 15582, "##elled": 21148, "ravine": 23188, "peppers": 23582, "##eu": 13765, "2016": 2355, "liszt": 26273, "[unused457]": 462, "##edo": 26010, "pants": 6471, "##nology": 21020, "pursuant": 27081, "204": 19627, "cage": 7980, "##ᄃ": 29993, "authentic": 14469, "rodents": 28156, "401": 22649, "tuna": 24799, "##cking": 23177, "oversee": 17467, "rouen": 27030, "faster": 5514, "microphone": 15545, "##ly": 2135, "augusto": 29085, "##uppe": 29547, "protein": 5250, "takeover": 15336, "western": 2530, "dishes": 10447, "##tream": 25379, "jamie": 6175, "immortality": 20107, "milne": 24377, "##mana": 24805, "[unused557]": 562, "nice": 3835, "saliva": 26308, "##ads": 19303, "proclaimed": 10116, "alarmed": 19260, "lessons": 8220, "cc": 10507, "snaps": 20057, "142": 16087, "##chi": 5428, "##rize": 25709, "peaceful": 9379, "feed": 5438, "apr": 19804, "reminded": 6966, "##ies": 3111, "paddy": 16063, "##cola": 26289, "##ique": 7413, "##tsk": 29064, "herrera": 23527, "laying": 10201, "amino": 13096, "2500": 25108, "phones": 11640, "##م": 22192, "chieftain": 26625, "scout": 7464, "stripping": 23987, "afar": 28978, "technology": 2974, "##mony": 22847, "nk": 25930, "arabian": 13771, "billions": 25501, "legally": 10142, "florence": 7701, "null": 19701, "##ogist": 22522, "##iers": 10136, "lantern": 12856, "##crat": 23185, "braking": 24427, "##hampton": 21946, "bikes": 18105, "neat": 15708, "##nam": 13129, "possibilities": 12020, "##mming": 25057, "titanic": 20753, "braden": 27232, "smuggling": 19535, "negro": 12593, "287": 23090, "rep": 16360, "symbolism": 22050, "##ans": 6962, "earth": 3011, "potsdam": 26554, "##iss": 14643, "[unused438]": 443, "invitations": 29492, "bacteria": 10327, "insane": 9577, "##yad": 25152, "adrenaline": 14963, "disputed": 11621, "##ilia": 27861, "capsule": 18269, "##ticus": 29587, "[unused978]": 983, "[unused182]": 187, "bedroom": 5010, "evil": 4763, "statistics": 6747, "elements": 3787, "##ħ": 29672, "confused": 5457, "pittsburgh": 6278, "wheeling": 29142, "longevity": 26906, "travelled": 7837, "[unused761]": 766, "emperors": 19655, "gasps": 23813, "hearted": 18627, "inhabitants": 4864, "integrate": 17409, "restart": 23818, "morphological": 24012, "mongolia": 13906, "battle": 2645, "threatens": 17016, "trembled": 14823, "waivers": 28654, "producer": 3135, "departments": 7640, "maris": 23787, "rake": 26008, "[unused303]": 308, "lending": 18435, "average": 2779, "sundays": 14803, "##pie": 14756, "bach": 10384, "company": 2194, "honolulu": 16598, "donegal": 25415, "united": 2142, "distinguishes": 27343, "##vez": 26132, "##por": 17822, "barbara": 6437, "##had": 16102, "[unused931]": 936, "educated": 5161, "freely": 10350, "[unused184]": 189, "tenth": 7891, "dh": 28144, "tracts": 22069, "abbas": 17532, "lesions": 22520, "##ᅭ": 30013, "visiting": 5873, "trailed": 11145, "louise": 8227, "##bers": 17198, "##logram": 24915, "armistice": 19125, "loan": 5414, "gaped": 23832, "pebbles": 28962, "ʉ": 1131, "sd": 17371, "##asian": 24145, "##尚": 30356, "##llen": 12179, "elaine": 15263, "##grant": 18980, "##rance": 21621, "landmark": 8637, "firing": 7493, "observation": 8089, "birthplace": 14508, "sundance": 20140, "upland": 25770, "##ved": 7178, "民": 1892, "augusta": 13635, "##folding": 21508, "##lam": 10278, "##pan": 9739, "transcription": 14193, "integration": 8346, "fraction": 12884, "##kong": 25460, "groaning": 24781, "apple": 6207, "head": 2132, "pacing": 15732, "invitation": 8468, "venus": 11691, "##yen": 20684, "##ᴬ": 30026, "[unused888]": 893, "sociologist": 25106, "displayed": 6913, "trondheim": 26331, "santiago": 8728, "##ტ": 29989, "qc": 25196, "ama": 25933, "eyebrow": 9522, "##odle": 26156, "##生": 30436, "##auer": 21126, "trader": 17667, "urgently": 25478, "##amina": 27651, "cornerstone": 23354, "##me": 4168, "reid": 9027, "studying": 5702, "athenian": 26956, "creole": 21414, "humanities": 11406, "##hini": 20535, "malay": 12605, "mayoral": 23578, "sons": 4124, "bullshit": 14636, "candace": 22905, "mid": 3054, "multiple": 3674, "dubbed": 9188, "pol": 14955, "juniper": 29425, "backdrop": 18876, "[unused663]": 668, "emission": 15760, "pole": 6536, "wasn": 2347, "derrick": 18928, "glee": 18874, "shirt": 3797, "wren": 16255, "##場": 30332, "drinks": 8974, "dauphin": 29102, "[unused762]": 767, "excavations": 14018, "##ya": 3148, "##lson": 14881, "centimeters": 18119, "somerset": 9198, "ruse": 26307, "tighten": 21245, "brig": 16908, "nevertheless": 6600, "barbed": 25007, "jc": 29175, "##lide": 24198, "1905": 5497, "##rkin": 26891, "##uru": 14129, "231": 20304, "cerro": 25498, "scholars": 5784, "alaska": 7397, "##ifice": 23664, "glowed": 16497, "battleship": 17224, "leicester": 11258, "abolition": 15766, "##minating": 27932, "wants": 4122, "landfall": 21042, "false": 6270, "scarf": 18982, "[unused685]": 690, "tropical": 5133, "aids": 8387, "##astic": 20875, "emmanuel": 14459, "named": 2315, "abs": 14689, "becky": 14407, "acts": 4490, "craved": 25155, "1884": 6988, "16th": 5767, "printers": 23557, "reliable": 10539, "##jar": 16084, "reggae": 15662, "abbot": 11428, "saved": 5552, "atomic": 9593, "melbourne": 4940, "measurements": 11702, "novi": 21574, "chapman": 11526, "##ructured": 26134, "flicker": 17909, "rises": 9466, "defensive": 5600, "nights": 6385, "heather": 9533, "mein": 24182, "demos": 18267, "∘": 1599, "missouri": 5284, "clone": 17598, "amendment": 7450, "owed": 12232, "hire": 10887, "kanye": 29270, "##zos": 28370, "17": 2459, "sharpened": 26694, "[unused174]": 179, "mann": 10856, "hits": 4978, "smithsonian": 15720, "tipped": 11182, "lap": 5001, "youngest": 6587, "##dened": 24589, "bog": 22132, "obtained": 4663, "incense": 28647, "[unused64]": 65, "##wyl": 27740, "shitty": 28543, "palms": 9486, "flee": 10574, "ruben": 19469, "smyth": 28103, "[unused168]": 173, "smile": 2868, "##phile": 24862, "infirmary": 23453, "martini": 24480, "refueling": 23026, "eggs": 6763, "##pathy": 20166, "b": 1038, "legion": 8009, "splitting": 14541, "swimmers": 21669, "queer": 19483, "indira": 28232, "##sable": 19150, "huffington": 26149, "twisted": 6389, "loaf": 27048, "##gu": 12193, "長": 1967, "wade": 10653, "40th": 16541, "##rret": 27032, "thickness": 14983, "bus": 3902, "seal": 7744, "springsteen": 26002, "##typical": 27086, "##dl": 19422, "##မ": 29973, "kern": 22762, "##abia": 29039, "homo": 24004, "ley": 25866, "##enko": 17868, "heroism": 27117, "issues": 3314, "1702": 26776, "^": 1034, "administrators": 15631, "condoms": 29094, "argues": 9251, "##zio": 12426, "pointing": 7302, "uranium": 14247, "fortification": 23050, "##utz": 20267, "peck": 18082, "##xed": 19068, "jihad": 24815, "palette": 27396, "bloc": 15984, "eleven": 5408, "ale": 15669, "sleep": 3637, "ル": 1733, "crimes": 6997, "eventual": 9523, "##form": 14192, "mortar": 14335, "undergo": 13595, "flower": 6546, "bret": 25626, "##oise": 23565, "fluttering": 25001, "goodnight": 22708, "limbs": 10726, "treatise": 15326, "1765": 20797, "bratislava": 22992, "awakened": 20256, "##gas": 12617, "tasting": 18767, "easier": 6082, "blush": 16688, "roast": 25043, "##yeh": 25673, "farrell": 16248, "concession": 16427, "classrooms": 12463, "runoff": 19550, "alarm": 8598, "ballad": 11571, "retaliation": 18695, "nazareth": 27192, "118": 12963, "instituto": 22596, "joseph": 3312, "admission": 9634, "helium": 22764, "dos": 9998, "##berger": 14859, "creamy": 24519, "smelled": 9557, "sunset": 10434, "facial": 13268, "bartlett": 20081, "##小": 30355, "communes": 16569, "sole": 7082, "[unused118]": 123, "##ℓ": 30105, "##sky": 5874, "knots": 9439, "ago": 3283, "—": 1517, "prescott": 20719, "systems": 3001, "craters": 27561, "tasted": 12595, "д": 1184, "plots": 14811, "##hedral": 27310, "gunfire": 16978, "yan": 13619, "ordinance": 16692, "unbelievable": 23653, "brewing": 16005, "##★": 30147, "1934": 4579, "kent": 5982, "##bbling": 15343, "shielded": 25474, "traverse": 20811, "1923": 4927, "husky": 18758, "##hosh": 26643, "80": 3770, "kendrick": 25341, "##ar": 2906, "##etic": 16530, "sheds": 25999, "¹⁄₂": 18728, "abduction": 23415, "##dran": 24914, "##gers": 15776, "##scope": 26127, "satire": 18312, "[unused377]": 382, "plates": 7766, "inhibition": 23586, "##gre": 17603, "too": 2205, "padded": 20633, "ﬁ": 1984, "semifinal": 16797, "##出": 30300, "354": 27878, "coasts": 20266, "nato": 10079, "##ص": 29826, "ש": 1266, "trillion": 23458, "##firmed": 23141, "marvel": 8348, "##^": 29637, "##pas": 19707, "regal": 21279, "kinds": 7957, "existed": 5839, "##rigues": 22934, "showing": 4760, "griffith": 14135, "##inger": 9912, "principality": 18018, "wong": 11789, "1659": 28288, "forms": 3596, "ebook": 26885, "concerto": 10405, "pharmacy": 13882, "signatures": 16442, "rebranded": 18233, "clyde": 12085, "glands": 23340, "世": 1745, "1712": 28460, "besides": 4661, "dominate": 16083, "cara": 14418, "focused": 4208, "nosed": 29338, "yacht": 12187, "[unused509]": 514, "friar": 25287, "holly": 9079, "thumbs": 16784, "attire": 20426, "idol": 10282, "[unused262]": 267, "##all": 8095, "25": 2423, "accumulation": 20299, "dull": 10634, "moist": 11052, "[unused503]": 508, "water": 2300, "##wives": 23744, "advocate": 8175, "gil": 13097, "northumberland": 16205, "[unused626]": 631, "rainforest": 18951, "television": 2547, "blanca": 27538, "ambiguous": 20080, "exercise": 6912, "mister": 12525, "avenue": 3927, "critics": 4401, "frontier": 8880, "##dly": 18718, "turner": 6769, "benefactor": 27398, "france": 2605, "congresses": 24460, "honorable": 13556, "duncan": 7343, "sparhawk": 13709, "switches": 15924, "downwards": 28457, "abraham": 8181, "consulting": 10552, "##scu": 28817, "islanders": 16422, "巿": 1837, "##version": 27774, "hugh": 6621, "qi": 18816, "hundred": 3634, "leap": 11679, "##hearted": 27693, "supermarkets": 26676, "ᴰ": 1492, "##endra": 19524, "supplement": 12448, "salaries": 20566, "weekend": 5353, "1662": 25909, "telescope": 12772, "challenges": 7860, "elf": 17163, "radicals": 23618, "[unused487]": 492, "biomedical": 20906, "##osta": 28696, "bath": 7198, "327": 28469, "strata": 22913, "access": 3229, "radar": 7217, "329": 29567, "romance": 7472, "ʑ": 1137, "accomplishment": 24718, "##mics": 22924, "##riation": 18769, "comparable": 12435, "newspapers": 6399, "##ax": 8528, "##enary": 24553, "[unused580]": 585, "ledge": 18283, "sufficient": 7182, "fixture": 15083, "teased": 13074, "retaining": 12823, "116": 12904, "subtle": 11259, "##castle": 23662, "illustrate": 19141, "shares": 6661, "theories": 8106, "comedic": 21699, "donors": 17843, "[unused1]": 2, "consecrated": 12299, "##41": 23632, "wet": 4954, "##wice": 23425, "[unused300]": 305, "momentarily": 16032, "rags": 26346, "if": 2065, "facebook": 9130, "changing": 5278, "arena": 5196, "particles": 9309, "vulnerability": 18130, "sped": 16887, "financially": 13732, "blanc": 18698, "##lls": 12718, "wounded": 5303, "viewers": 7193, "sgt": 17001, "##udes": 22087, "rae": 14786, "delivers": 18058, "palestinians": 21524, "##tze": 23102, "flyers": 16217, "signifies": 27353, "leasing": 26707, "##eson": 21421, "##tance": 26897, "onset": 14447, "wise": 7968, "andersen": 18308, "certain": 3056, "insufficient": 13990, "modeling": 11643, "良": 1938, "chimney": 17321, "tertiary": 13553, "վ": 1235, "chemical": 5072, "sloane": 17558, "##ura": 4648, "pack": 5308, "##rt": 5339, "distinctive": 8200, "peng": 26473, "universities": 5534, "##aux": 13754, "antoinette": 28429, "hurried": 9520, "##₃": 11622, "grill": 18651, "humiliated": 26608, "spectral": 17435, "alloys": 28655, "##с": 29747, "coyote": 20457, "depends": 9041, "val": 11748, "##ola": 6030, "ensign": 19890, "inched": 25330, "tea": 5572, "##eers": 22862, "dietrich": 22567, "atoll": 22292, "fifa": 5713, "##tch": 10649, "京": 1755, "joker": 19318, "thunder": 8505, "thy": 15177, "##cchi": 25955, "townsville": 27492, "##brook": 9697, "manned": 15371, "dealers": 16743, "##ango": 23422, "accelerator": 23468, "determining": 12515, "motorola": 29583, "name": 2171, "spice": 17688, "gracie": 19005, "1999": 2639, "face": 2227, "unavailable": 20165, "greenish": 23753, "residency": 14079, "neglected": 15486, "sep": 19802, "beneficial": 15189, "indigo": 22472, "gospel": 8036, "atrium": 26204, "chavez": 16860, "##ano": 6761, "lough": 29504, "deities": 17091, "flaws": 21407, "peering": 16740, "neighbour": 20065, "salt": 5474, "natasha": 17399, "##oslav": 23085, "##zione": 20574, "ⁿ": 1546, "showers": 23442, "declared": 4161, "mecca": 21340, "emotion": 7603, "asserting": 27644, "##ctic": 13306, "hovering": 16349, "recognise": 17614, "devised": 14917, "requirements": 5918, "##boro": 12691, "##村": 30404, "tx": 19067, "case": 2553, "slammed": 7549, "conditioned": 22442, "evan": 9340, "loft": 19459, "augsburg": 24362, "##udeau": 27627, "verge": 16079, "references": 7604, "##ɡ": 29682, "supply": 4425, "imaginary": 15344, "##lham": 25968, "acid": 5648, "comical": 29257, "resulted": 4504, "2020": 12609, "sired": 26940, "fisher": 8731, "##400": 29537, "let": 2292, "panda": 25462, "nashville": 8423, "[unused673]": 678, "corps": 3650, "highlights": 11637, "jerusalem": 6744, "enforced": 16348, "##ᆯ": 30022, "distribution": 4353, "impressive": 8052, "driver": 4062, "games": 2399, "sox": 9175, "yerevan": 23383, "leningrad": 15930, "ethan": 6066, "##eus": 10600, "profit": 5618, "190": 11827, "sms": 22434, "remy": 22712, "##ddling": 21814, "##shore": 19208, "fucking": 8239, "league": 2223, "percussion": 6333, "jonas": 10680, "puzzle": 11989, "##sworth": 12255, "dragged": 7944, "[CLS]": 101, "pollution": 10796, "slaughtered": 23044, "slower": 12430, "cowboy": 11762, "inadequate": 14710, "panther": 15133, "richards": 9712, "sheen": 20682, "harrisburg": 24569, "##8th": 28264, "##eit": 20175, "interrupt": 17938, "superliga": 25922, "fought": 4061, "ho": 7570, "homer": 11525, "lands": 4915, "##iche": 17322, "mastered": 15682, "##tucket": 29315, "germans": 7074, "##ʋ": 29699, "attractive": 8702, "birth": 4182, "appoint": 16823, "holocaust": 11513, "ireland": 3163, "goats": 17977, "entire": 2972, "phoenix": 6708, "[unused301]": 306, "ponds": 16879, "fortified": 13313, "rare": 4678, "wheeled": 17320, "∩": 1604, "ign": 16270, "paste": 19351, "subscription": 15002, "obliged": 14723, "##rbin": 27366, "宇": 1819, "bandages": 27993, "grounds": 5286, "ass": 4632, "buried": 3950, "collapsing": 22724, "donnie": 28486, "radiating": 23229, "cantor": 26519, "landfill": 28382, "extending": 8402, "preacher": 14512, "look": 2298, "clause": 11075, "•": 1528, "relativity": 20805, "##urance": 25863, "peeled": 20956, "##ag": 8490, "##istan": 23137, "clue": 9789, "##fera": 27709, "##mare": 24376, "680": 23944, "snowy": 20981, "##mons": 16563, "housed": 7431, "townland": 23635, "fa": 6904, "packs": 15173, "brentford": 26550, "pressed": 4508, "declares": 18806, "wta": 21925, "depleted": 22595, "elena": 9060, "##tel": 9834, "kenton": 25446, "dorothea": 24052, "ep": 4958, "jumping": 8660, "ま": 1677, "η": 1161, "establishing": 7411, "kali": 19924, "polka": 29499, "omaha": 12864, "examiner": 19684, "presiding": 18131, "sparks": 12300, "lawful": 26410, "[unused90]": 91, "adds": 9909, "thud": 20605, "##camp": 26468, "arms": 2608, "##ך": 29797, "haven": 4033, "軍": 1955, "hurriedly": 23878, "andersson": 28643, "ionic": 24774, "brawl": 23244, "hat": 6045, "no": 2053, "rainer": 28035, "bautista": 27845, "clouds": 8044, "crusade": 16282, "longer": 2936, "##biotic": 26591, "dwell": 23120, "severed": 16574, "staring": 4582, "##biology": 21685, "northern": 2642, "nutritional": 28268, "slips": 17433, "lane": 4644, "transplant": 22291, "##valent": 24879, "intervene": 18793, "##ingly": 15787, "doesn": 2987, "stamps": 12133, "政": 1860, "supplied": 8127, "explorer": 10566, "lizzie": 15860, "accumulated": 14830, "‡": 1527, "supernatural": 11189, "newbury": 29457, "polynomial": 17505, "tinged": 22683, "liberalism": 26505, "bulk": 9625, "explaining": 9990, "##dt": 11927, "collaborate": 20880, "jurisprudence": 24697, "distances": 12103, "powerless": 25192, "quite": 3243, "coaches": 7850, "legislative": 4884, "##cas": 15671, "lights": 4597, "overturned": 17068, "easily": 4089, "marketed": 11625, "alter": 11477, "psychiatry": 18420, "laughs": 11680, "superior": 6020, "small": 2235, "works": 2573, "##hawk": 17998, "sinclair": 11881, "organising": 21317, "recited": 24843, "rye": 20926, "graphical": 20477, "nearest": 7205, "realm": 8391, "##ditional": 27064, "montagu": 26241, "hampshire": 7035, "[unused338]": 343, "orthogonal": 28721, "animal": 4111, "bent": 6260, "法": 1901, "##fin": 16294, "grande": 9026, "musica": 21137, "earls": 27371, "sen": 12411, "##pes": 10374, "foster": 6469, "lucien": 11732, "songs": 2774, "##bet": 20915, "1820s": 28504, "alton": 26374, "##sberg": 11711, "jennifer": 7673, "urged": 9720, "sherman": 11011, "mina": 19808, "suburbs": 9435, "oakley": 28876, "##mps": 25370, "##path": 15069, "aria": 9342, "sanitary": 25480, "maine": 7081, "chest": 3108, "##selle": 19358, "ν": 1167, "philharmonic": 12355, "[unused545]": 550, "⁰": 1536, "descriptions": 13271, "religious": 3412, "agrees": 10217, "rumor": 19075, "fishes": 21995, "##eis": 17580, "lobbying": 19670, "sensation": 8742, "mock": 12934, "stephanie": 11496, "vilnius": 20513, "preferring": 21393, "4": 1018, "confines": 25722, "kuala": 15490, "distinguishing": 20852, "##own": 12384, "##po": 6873, "healthy": 7965, "casey": 9036, "completion": 6503, "total": 2561, "upbringing": 24615, "lai": 21110, "##½": 13714, "##hiro": 18334, "abdominal": 21419, "has": 2038, "raided": 18784, "404": 24837, "improvements": 8377, "crosby": 14282, "spilled": 13439, "##50": 12376, "headed": 3753, "isolation": 12477, "corridor": 7120, "dispose": 27764, "り": 1686, "##500": 29345, "magdalene": 26890, "michigan": 4174, "violations": 13302, "simeon": 24371, "theorists": 28442, "featuring": 3794, "researches": 27338, "socrates": 26772, "ᅵ": 1483, "cooke": 16546, "stadion": 20756, "macbeth": 25182, "institutions": 4896, "##uring": 12228, "451": 28161, "hugely": 27564, "stroking": 14943, "genevieve": 20245, "calcutta": 13419, "oblivion": 24034, "##mara": 28225, "##ings": 8613, "marc": 7871, "snarled": 15022, "scott": 3660, "contemplating": 25247, "elliot": 11759, "accepted": 3970, "##chment": 22729, "modulation": 25502, "princes": 12000, "[unused930]": 935, "barangay": 20937, "attending": 7052, "வ": 1394, "why": 2339, "foreigner": 29524, "peripheral": 15965, "puzzled": 14909, "ら": 1685, "sworn": 10741, "twin": 5519, "terminating": 23552, "⁹": 1543, "mirza": 18366, "##joy": 24793, "##athan": 29246, "flight": 3462, "garry": 21507, "bordering": 18299, "invasions": 23536, "de": 2139, "kaplan": 22990, "rhyme": 20622, "smallest": 10479, "ₖ": 1565, "universite": 22176, "tempered": 22148, "1996": 2727, "cancer": 4456, "##|": 29641, "##oit": 28100, "1863": 6899, "whorls": 25637, "toad": 21344, "schwartz": 16756, "thank": 4067, "vamps": 24064, "mcc": 23680, "adviser": 11747, "##cens": 19023, "1729": 28449, "##♯": 30154, "clarence": 11805, "murder": 4028, "##night": 15864, "exemption": 19621, "o": 1051, "post": 2695, "不": 1744, "inspect": 22459, "networks": 6125, "powers": 4204, "recorded": 2680, "reeves": 17891, "jens": 25093, "howl": 22912, "coptic": 27672, "fool": 7966, "delightful": 26380, "concentrate": 10152, "horsemen": 25431, "##isha": 24032, "consultancy": 24853, "medallist": 28595, "menon": 25111, "oz": 11472, "enhancing": 20226, "jet": 6892, "preserved": 6560, "ministry": 3757, "schwarz": 29058, "supplemental": 27024, "titanium": 23431, "valentin": 24632, "veil": 15562, "zoning": 27462, "temporal": 15850, "finale": 9599, "##hg": 25619, "angered": 18748, "##µ": 29659, "1873": 7612, "##illo": 10486, "48th": 27787, "##slin": 22908, "dam": 5477, "plains": 8575, "jupiter": 13035, "format": 4289, "[unused915]": 920, "gases": 15865, "passions": 25289, "decreased": 10548, "##ɫ": 29686, "bodo": 28137, "conservatory": 11879, "##chenko": 25872, "regulator": 21618, "##ouring": 27897, "##ь": 23742, "malice": 28238, "laws": 4277, "management": 2968, "traumatic": 19686, "seasons": 3692, "crafted": 19275, "##link": 13767, "harvest": 11203, "repeating": 15192, "soul": 3969, "spraying": 29035, "##ου": 26789, "meeting": 3116, "preserving": 15224, "bolt": 10053, "competition": 2971, "policing": 21107, "bollywood": 16046, "nova": 6846, "findings": 9556, "grimace": 25898, "processor": 13151, "##ine": 3170, "persecution": 14522, "committing": 16873, "##it": 4183, "##uss": 17854, "##folk": 29284, "gaul": 26522, "##у": 29748, "clamped": 18597, "eighteenth": 12965, "physiology": 16127, "perch": 21836, "puget": 27879, "donetsk": 29151, "simultaneously": 7453, "prospect": 9824, "angry": 4854, "[unused385]": 390, "₃": 1550, "spawn": 25645, "utilizing": 16911, "allowance": 21447, "shamrock": 28782, "camille": 16675, "এ": 1351, "##wine": 21924, "hue": 20639, "descend": 18855, "aragon": 16146, "condensed": 25011, "baptiste": 17329, "methodology": 16134, "positive": 3893, "scares": 29421, "rustic": 27471, "speculated": 15520, "☆": 1621, "trieste": 25199, "corrosion": 24625, "paranormal": 20725, "sparrow": 19479, "trophy": 5384, "##ರ": 29937, "[unused345]": 350, "enhancement": 22415, "suited": 10897, "##±": 29657, "##erly": 12561, "formulas": 25814, "##sty": 21756, "invalid": 19528, "weighed": 12781, "madagascar": 11934, "portuguese": 5077, "tarzan": 24566, "burke": 9894, "claws": 10702, "sterling": 10933, "wilton": 26407, "ナ": 1715, "271": 25103, "五": 1753, "##sh": 4095, "crowded": 10789, "trauma": 12603, "##itis": 13706, "genoa": 15771, "##ʿ": 29714, "consensus": 10465, "revered": 23886, "bra": 11655, "called": 2170, "concurrent": 16483, "tribute": 7050, "み": 1678, "successive": 11165, "vichy": 29177, "distrust": 29245, "endeavors": 28809, "javelin": 23426, "cd": 3729, "halls": 9873, "##rone": 20793, "circumstances": 6214, "amour": 21518, "hacking": 23707, "gerry": 14926, "leaves": 3727, "carts": 25568, "reykjavik": 28559, "prosecuted": 21651, "hardin": 27522, "bags": 8641, "nazis": 13157, "god": 2643, "##ih": 19190, "curtis": 9195, "starved": 26042, "marcos": 14810, "preached": 21491, "secrets": 7800, "fabric": 8313, "kimball": 26659, "clenched": 8555, "berwick": 24957, "ducked": 13781, "cushion": 22936, "[unused333]": 338, "albanian": 9408, "underground": 5230, "prostitute": 19215, "coordinated": 14206, "anyway": 4312, "discus": 26047, "##都": 30487, "taxpayer": 26980, "deserves": 17210, "bam": 25307, "1600": 14883, "morris": 6384, "forces": 2749, "avalon": 18973, "torn": 7950, "dj": 6520, "strictly": 9975, "escaped": 6376, "##ak": 4817, "rudder": 24049, "attempted": 4692, "naia": 29511, "turquoise": 28653, "##edge": 24225, "certified": 7378, "₤": 1572, "planners": 27155, "geographical": 10056, "downloads": 22956, "prose": 12388, "spectator": 21027, "##gaard": 18839, "specializing": 14055, "##gata": 26589, "wr": 23277, "playable": 16854, "⁵": 1539, "novelty": 21160, "middle": 2690, "clumsy": 22902, "grenades": 21914, "jared": 8334, "brigham": 22727, "interpreter": 19555, "susquehanna": 26361, "firstly": 15847, "##lten": 29005, "surname": 11988, "vector": 9207, "σ": 1173, "[unused612]": 617, "##པ": 29966, "ᵘ": 1506, "##ffen": 18032, "basis": 3978, "emily": 6253, "graduated": 3852, "sanitation": 18723, "training": 2731, "bare": 6436, "##ro": 3217, "laundering": 28289, "##pel": 11880, "commuted": 26704, "specialist": 8325, "##vert": 16874, "dilemma": 21883, "collection": 3074, "reward": 10377, "km": 2463, "exile": 8340, "receptionist": 23775, "sea": 2712, "##tura": 27431, "lexington": 14521, "nueva": 24536, "##graphic": 14773, "excellent": 6581, "organs": 11595, "request": 5227, "acquainted": 19056, "agile": 29003, "bf": 28939, "tar": 16985, "##oc": 10085, "wallis": 24029, "spirit": 4382, "##/": 29626, "story": 2466, "wreath": 29586, "backing": 5150, "##ganj": 22738, "approximate": 15796, "deserved": 10849, "disappointment": 10520, "jena": 27510, "frogs": 17582, "fray": 25975, "##ω": 29739, "1747": 24522, "permitted": 7936, "sympathetic": 13026, "punjabi": 17498, "centred": 16441, "]": 1033, "festivities": 21206, "legends": 9489, "services": 2578, "squat": 26783, "date": 3058, "desktop": 15363, "wilbur": 26151, "yamamoto": 28318, "hardware": 8051, "raise": 5333, "negotiations": 7776, "bengals": 23227, "communicate": 10639, "depression": 6245, "holstein": 18864, "rochdale": 26109, "[unused917]": 922, "##家": 30351, "promotions": 15365, "suitcase": 15940, "blinds": 28279, "##aa": 11057, "##gens": 21230, "rook": 28620, "afghan": 12632, "portico": 23104, "conan": 16608, "drains": 18916, "maximum": 4555, "minors": 18464, "[unused815]": 820, "dilapidated": 29283, "choked": 12444, "reinforce": 19444, "##ardo": 24649, "samuel": 5212, "armenian": 7508, "crooked": 15274, "honorary": 5756, "interested": 4699, "##llah": 18599, "copies": 4809, "bart": 12075, "victims": 5694, "ち": 1662, "befriended": 23386, "moaning": 22653, "folk": 5154, "##just": 29427, "ease": 7496, "query": 23032, "serial": 7642, "pleaded": 12254, "clearly": 4415, "##kura": 28260, "reversed": 11674, "ར": 1434, "cattle": 7125, "##た": 30187, "##cede": 22119, "miniatures": 28615, "powder": 9898, "reckless": 18555, "st": 2358, "sticks": 12668, "tirana": 24631, "##gb": 18259, "##oney": 17791, "clasped": 16763, "distribute": 16062, "##hor": 16368, "gothic": 7788, "##xy": 18037, "craft": 7477, "corrupted": 27279, "editions": 6572, "imprisoned": 8580, "loop": 7077, "central": 2430, "robe": 11111, "##qvist": 28705, "montane": 21704, "anterior": 15099, "dusty": 12727, "enough": 2438, "maestro": 25270, "mariano": 22695, "maynard": 22130, "[unused595]": 600, "li": 5622, "bisexual": 22437, "danes": 27476, "##‐": 30048, "heightened": 21106, "missionary": 8696, "innsbruck": 28914, "##to": 3406, "##ɹ": 29691, "bryce": 19757, "oppressive": 28558, "spelling": 11379, "方": 1863, "ס": 1258, "##rgen": 25892, "trilogy": 11544, "pressing": 7827, "lumpur": 17761, "calmly": 12885, "##ophone": 25232, "[unused235]": 240, "affiliated": 6989, "##oides": 25064, "##区": 30308, "290": 17222, "supplemented": 20585, "tatiana": 22725, "[unused258]": 263, "[unused446]": 451, "anthology": 9637, "be": 2022, "buzz": 12610, "875": 27658, "rented": 12524, "evolve": 19852, "##ق": 29834, "մ": 1229, "properties": 5144, "##buck": 24204, "journal": 3485, "[unused903]": 908, "obligatory": 26471, "÷": 1099, "zion": 19999, "relies": 16803, "nearby": 3518, "##aith": 22465, "norman": 5879, "concerning": 7175, "invariably": 26597, "confronting": 26964, "hurt": 3480, "penetrated": 21653, "abnormal": 19470, "salford": 23001, "greasy": 26484, "ending": 4566, "instincts": 16160, "pet": 9004, "suffolk": 12291, "sophia": 9665, "carrot": 25659, "iroquois": 23015, "pietro": 15541, "##eki": 26576, "pope": 4831, "[unused274]": 279, "diaspora": 18239, "fourteenth": 15276, "frowning": 14587, "dundee": 14252, "shepherd": 11133, "sovereignty": 12601, "370": 16444, "hen": 21863, "##eran": 23169, "captain": 2952, "occupying": 13992, "litigation": 15382, "rituals": 13549, "##outs": 12166, "context": 6123, "earning": 7414, "resources": 4219, "margaret": 5545, "flushed": 12953, "refuge": 9277, "incorrect": 16542, "1850s": 16488, "##ust": 19966, "staples": 24533, "ɡ": 1116, "rand": 14566, "cave": 5430, "conventional": 7511, "dunedin": 22020, "##rating": 15172, "generally": 3227, "frames": 11048, "maintains": 9319, "義": 1936, "akira": 21616, "[unused444]": 449, "##ba": 3676, "alfredo": 19423, "presidency": 8798, "seas": 11915, "stated": 3090, "1697": 28690, "##pur": 5311, "pays": 12778, "tread": 29449, "##oza": 25036, "leigh": 11797, "weak": 5410, "harris": 5671, "tau": 19982, "fowler": 14990, "∆": 1594, "waterfront": 16317, "abe": 14863, "ripe": 22503, "absolutely": 7078, "junctions": 27169, "[unused496]": 501, "mil": 23689, "credited": 5827, "overlooked": 17092, "prologue": 18877, "¿": 1094, "suriname": 25050, "manly": 19385, "last": 2197, "lime": 14123, "attempt": 3535, "lunar": 11926, "peeling": 28241, "advises": 25453, "resistance": 5012, "scandinavia": 20612, "clocks": 20940, "##ove": 21818, "multiplied": 28608, "cyrillic": 15522, "##आ": 29848, "##64": 21084, "wear": 4929, "karl": 6382, "##会": 30289, "175": 12862, "bees": 13734, "##zen": 10431, "cooling": 11520, "samba": 29086, "##eft": 29218, "##lane": 20644, "[unused163]": 168, "flag": 5210, "ii": 2462, "##aq": 20784, "irwin": 17514, "thom": 19438, "ˣ": 1153, "hs": 26236, "1898": 6068, "##ん": 30217, "ی": 1309, "floral": 18686, "sql": 29296, "hitter": 18694, "watford": 21740, "classification": 5579, "hume": 20368, "sourced": 23184, "##vary": 21639, "stalked": 15858, "sylvia": 13378, "secondly": 16378, "∂": 1592, "##uman": 19042, "whereupon": 26090, "palaces": 22763, "##ndon": 19333, "soaring": 23990, "pigeon": 16516, "entropy": 23077, "plague": 11629, "highs": 26836, "##saka": 29289, "charlotte": 5904, "hunan": 27374, "regime": 6939, "ت": 1273, "steele": 12872, "torres": 13101, "[unused472]": 477, "##北": 30307, "quinlan": 28451, "##cton": 28312, "registration": 8819, "fortress": 7841, "aren": 4995, "##人": 30282, "architect": 4944, "dominic": 11282, "hawthorne": 23440, "1628": 28627, "townsend": 16139, "國": 1800, "pressure": 3778, "##tute": 24518, "mirror": 5259, "switch": 6942, "transformation": 8651, "木": 1875, "newborn": 20662, "##bolic": 18647, "large": 2312, "perspectives": 15251, "play": 2377, "arkansas": 6751, "campbell": 6063, "pete": 6969, "celebrity": 8958, "congo": 9030, "creeping": 18266, "recreational": 10517, "hanoi": 24809, "casualty": 19844, "sinks": 23462, "stamp": 11359, "##felt": 26675, "asphalt": 16295, "mali": 16007, "written": 2517, "linux": 11603, "oilers": 19778, "milan": 6954, "[unused704]": 709, "struggled": 6915, "##ho": 6806, "skeptical": 18386, "undisclosed": 18206, "weapon": 5195, "temperate": 16868, "sparked": 13977, "melodies": 16106, "costume": 9427, "»": 1090, "エ": 1698, "hive": 26736, "abilities": 7590, "[unused597]": 602, "often": 2411, "##hy": 10536, "2009": 2268, "profound": 13769, "local": 2334, "condition": 4650, "herr": 23506, "endured": 16753, "barrio": 25676, "stationary": 17337, "consent": 9619, "reflected": 7686, "bethel": 19375, "##ist": 2923, "elaborate": 9603, "unspecified": 25851, "silvery": 21666, "always": 2467, "para": 11498, "logical": 11177, "desperate": 7143, "wavy": 23098, "rat": 9350, "[unused944]": 949, "schubert": 24645, "movement": 2929, "butch": 17520, "##iii": 28954, "silvia": 27827, "ordnance": 14445, "roommate": 18328, "chilly": 24222, "mentions": 9704, "լ": 1226, "laughed": 4191, "overwhelming": 10827, "miniseries": 13612, "diagram": 16403, "particular": 3327, "division": 2407, "complications": 12763, "elmer": 21464, "recognizing": 14622, "disagreement": 18185, "##xious": 25171, "sinatra": 19643, "turk": 22883, "muttering": 22581, "belts": 18000, "astonishing": 26137, "ellison": 21513, "bladed": 27402, "jarrett": 24503, "##icon": 28524, "novel": 3117, "plaid": 26488, "skinned": 19937, "panic": 6634, "usage": 8192, "[unused399]": 404, "adultery": 29169, "galen": 21062, "##59": 28154, "##tained": 28055, "##な": 30193, "chancel": 16482, "kato": 27496, "7": 1021, "coinage": 25396, "hd": 10751, "bea": 26892, "doll": 10658, "##uti": 21823, "##kill": 15872, "dentistry": 26556, "desire": 4792, "1963": 3699, "compelled": 15055, "domingo": 15586, "jewel": 13713, "modifications": 12719, "sharpe": 22147, "underwood": 22751, "ج": 1275, "辶": 1956, "kangaroo": 21652, "deportation": 23702, "203": 18540, "[unused22]": 23, "37": 4261, "[unused297]": 302, "urging": 14328, "barnett": 20073, "fixed": 4964, "##uddin": 17375, "forensic": 15359, "puppy": 17022, "way": 2126, "nominee": 9773, "welfare": 7574, "##ᅡ": 30006, "信": 1767, "drums": 3846, "##zon": 11597, "reluctant": 11542, "##holders": 17794, "considerably": 9839, "whereabouts": 18913, "sustainability": 15169, "chasing": 11777, "pools": 12679, "boyfriend": 6898, "continental": 6803, "##dermott": 29370, "##ilo": 22360, "murmured": 7152, "substance": 9415, "##⅔": 30110, "symphony": 6189, "##cum": 24894, "##igen": 29206, "[unused52]": 53, "anton": 9865, "ala": 21862, "##rda": 13639, "sorority": 27600, "moves": 5829, "strange": 4326, "punta": 27377, "ⱼ": 1631, "##oint": 25785, "captives": 21496, "bolton": 12118, "hans": 7003, "cassidy": 13737, "imply": 19515, "perfume": 17013, "sequels": 25815, "##jing": 29518, "##ч": 29752, "manitoba": 10512, "##mbs": 29232, "##⁵": 30074, "[unused40]": 41, "bournemouth": 22882, "emma": 5616, "ict": 25891, "korean": 4759, "##阝": 30496, "##over": 7840, "##66": 28756, "chatham": 16727, "415": 24690, "unicef": 29073, "ह": 1339, "redding": 26687, "king": 2332, "shaking": 5513, "##arable": 25236, "collin": 22180, "dying": 5996, "##ada": 8447, "##eza": 28640, "##neer": 19755, "20th": 3983, "##ila": 11733, "je": 15333, "##acy": 15719, "blame": 7499, "curly": 17546, "##メ": 30252, "fourteen": 7426, "gable": 13733, "##owa": 21293, "gang": 6080, "inwardly": 28710, "scanning": 13722, "passive": 13135, "substitute": 7681, "®": 1079, "main": 2364, "marianne": 19887, "exchequer": 28889, "precautions": 29361, "256": 17273, "waterway": 23668, "wires": 14666, "shrink": 22802, "radha": 26498, "undefeated": 15188, "debuting": 24469, "conserved": 19995, "tentacles": 24719, "প": 1367, "##wart": 18367, "printed": 6267, "invincible": 25018, "pearl": 7247, "pained": 22295, "wetland": 22217, "##lines": 12735, "96": 5986, "1685": 25053, "sewer": 22365, "arson": 24912, "sue": 9790, "sustained": 8760, "gritted": 17307, "subdivision": 12572, "##fting": 26169, "159": 18914, "cox": 9574, "##ᴰ": 30028, "deserts": 28858, "keys": 6309, "suites": 19796, "topic": 8476, "treatments": 13441, "##jiang": 21786, "kelsey": 21004, "##alle": 24164, "magnificent": 12047, "superstructure": 28391, "[unused821]": 826, "cheney": 23745, "zane": 6944, "suits": 11072, "championships": 3219, "apical": 29197, "dso": 22951, "exotic": 12564, "rowing": 12037, "ran": 2743, "lea": 12203, "looting": 29367, "rourke": 24400, "totally": 6135, "eritrea": 26040, "##lia": 6632, "bilingual": 17636, "malayalam": 12998, "facilitating": 25505, "interred": 13917, "matilda": 17981, "moscow": 4924, "پ": 1302, "shooters": 28310, "abigail": 15983, "armenia": 10110, "reduction": 7312, "kelly": 5163, "framed": 10366, "mafia": 13897, "arden": 26225, "geneva": 9810, "##yk": 15922, "##raph": 24342, "jockey": 13989, "fracture": 19583, "tugged": 10621, "kingdoms": 12028, "reintroduced": 28263, "ku": 13970, "tossing": 15021, "endurance": 14280, "##lius": 15513, "visionary": 28036, "reduce": 5547, "##enna": 24397, "reins": 19222, "##ipe": 15457, "##cript": 23235, "farmhouse": 16870, "elects": 27161, "cinematography": 16434, "1675": 27194, "##date": 13701, "[unused571]": 576, "kiel": 20963, "dr": 2852, "stock": 4518, "till": 6229, "vancouver": 6930, "##ago": 23692, "styling": 20724, "abbreviated": 12066, "jurist": 22757, "polymers": 27216, "##hend": 22342, "##user": 20330, "1778": 16331, "morally": 28980, "##iste": 27870, "multi": 4800, "occurs": 5158, "##sport": 20205, "cobalt": 25627, "##haus": 13821, "##enne": 24336, "##emann": 17545, "rocks": 5749, "08": 5511, "necessarily": 9352, "rehearsal": 17887, "shoes": 6007, "##№": 30106, "ps": 8827, "yang": 8675, "miami": 5631, "afternoons": 24738, "secure": 5851, "notwithstanding": 26206, "sins": 15516, "##shida": 25541, "##hane": 28006, "conscription": 26329, "guide": 5009, "##la": 2721, "##iz": 10993, "charity": 5952, "maddy": 20789, "##tem": 18532, "relocation": 18344, "client": 7396, "apply": 6611, "commemorates": 25530, "replica": 15059, "pieter": 23759, "ב": 1242, "burlington": 15552, "convictions": 20488, "antiques": 27763, "mind": 2568, "sheridan": 13243, "##rrigan": 28706, "copenhagen": 9664, "[unused328]": 333, "##riam": 25557, "praise": 8489, "aerospace": 13395, "loading": 10578, "##ics": 6558, "##ute": 10421, "siberian": 21822, "anaheim": 20835, "प": 1328, "rafael": 10999, "₎": 1559, "caden": 23600, "erotic": 14253, "hook": 8103, "##御": 30373, "roach": 20997, "oral": 8700, "salamanca": 29608, "##agi": 22974, "##thal": 24090, "informs": 15670, "boo": 22017, "##fur": 27942, "kyoto": 15008, "consultative": 28581, "##nig": 25518, "souza": 26598, "yorkshire": 7018, "##df": 20952, "completes": 28123, "eton": 21687, "thoughtfully": 19897, "##omics": 25524, "locomotive": 8098, "condemn": 28887, "73": 6421, "syllables": 20732, "noctuidae": 24893, "william": 2520, "causal": 28102, "logistical": 28961, "benign": 28378, "サ": 1705, "frigate": 15437, "subunit": 24312, "yokohama": 20507, "##ants": 11390, "pulmonary": 21908, "seeker": 29444, "teachers": 5089, "wages": 12678, "nara": 27544, "32": 3590, "##ser": 8043, "urges": 23876, "kingsley": 22819, "##ity": 3012, "##ols": 27896, "informal": 11900, "phased": 21718, "explanation": 7526, "##hl": 7317, "roots": 6147, "taxpayers": 26457, "##ato": 10610, "inviting": 15085, "aligned": 13115, "kassel": 27884, "##白": 30441, "greyish": 26916, "skate": 17260, "ய": 1390, "##社": 30450, "here": 2182, "[unused85]": 86, "[unused240]": 245, "purcell": 26429, "273": 25371, "throbbing": 17061, "airlines": 7608, "patting": 26085, "ர": 1391, "suggested": 4081, "recover": 8980, "##kova": 18810, "premiere": 6765, "yugoslavia": 8936, "##ctuated": 25638, "cp": 18133, "pi": 14255, "succeeds": 21645, "dysfunction": 28466, "[unused507]": 512, "overseas": 6931, "##verse": 16070, "gr": 24665, "canton": 8770, "periodic": 15861, "egypt": 5279, "shoving": 15866, "sending": 6016, "revolves": 19223, "reunification": 28044, "##oca": 24755, "##け": 30180, "consistently": 10862, "[unused382]": 387, "asleep": 6680, "##ln": 19666, "faithful": 11633, "##aar": 26526, "cheung": 22632, "correspond": 17254, "##lb": 20850, "morse": 17107, "##ben": 10609, "nathaniel": 13961, "183": 18677, "##tted": 16190, "2001": 2541, "pulsed": 24107, "windmill": 25367, "##オ": 30225, "isabel": 11648, "##巿": 30363, "neue": 27713, "oxfordshire": 20124, "scotland": 3885, "270": 13756, "particle": 10811, "gangs": 18542, "[unused984]": 989, "##ξ": 29729, "liberation": 7931, "bali": 20222, "merge": 13590, "champion": 3410, "comprise": 15821, "conserve": 27749, "droplets": 27126, "exam": 11360, "##mei": 26432, "chronology": 17873, "applies": 12033, "booth": 9065, "island": 2479, "juveniles": 25406, "barrow": 15355, "304": 23859, "am": 2572, "also": 2036, "scooped": 20804, "airs": 14369, "peggy": 14911, "1834": 10700, "##pod": 27633, "outta": 24955, "clancy": 24530, "flush": 13862, "dioxide": 14384, "##ids": 9821, "muffled": 15783, "inspectors": 28421, "ethical": 12962, "personally": 7714, "##ft": 6199, "##ζ": 29724, "bitterly": 19248, "excited": 7568, "fresco": 26991, "inherited": 7900, "abu": 8273, "mounted": 5614, "##rov": 12298, "##る": 30213, "1780": 15051, "quiet": 4251, "regard": 7634, "neal": 11030, "entertained": 21474, "projective": 27473, "scars": 13521, "worcestershire": 20218, "circulating": 22458, "##logy": 6483, "##ம": 29925, "leaf": 7053, "θ": 1162, "的": 1916, "##hs": 7898, "##mada": 23574, "mocked": 24195, "morality": 16561, "##的": 30442, "cebu": 23312, "##rted": 17724, "capturing": 11847, "polk": 20819, "salesman": 18968, "da": 4830, "taking": 2635, "lizard": 15450, "photo": 6302, "realities": 22213, "##マ": 30249, "blankly": 26344, "eligibility": 11395, "rudy": 18254, "1777": 16144, "pennant": 22690, "moi": 25175, "rosemary": 18040, "finest": 10418, "irving": 12415, "piazza": 22463, "dukes": 16606, "citations": 22921, "domestic": 4968, "boiled": 17020, "plead": 25803, "slippery": 22274, "visually": 17453, "configured": 26928, "backgrounds": 15406, "motionless": 19917, "ranch": 8086, "##ghi": 28891, "##meister": 28824, "##esa": 22447, "succeed": 9510, "striped": 17983, "mechanized": 23387, "б": 1181, "[unused983]": 988, "homicide": 18268, "worsened": 27622, "##mere": 13759, "+": 1009, "holdings": 9583, "asking": 4851, "dawn": 6440, "emile": 17127, "mechanics": 9760, "##rc": 11890, "debuted": 6006, "ᄀ": 1455, "cornell": 10921, "##dc": 16409, "shaped": 5044, "traveling": 7118, "[unused460]": 465, "coins": 7824, "eileen": 20495, "deciding": 10561, "vfl": 13480, "nicholas": 6141, "bela": 20252, "“": 1523, "##lander": 22691, "banana": 15212, "##onia": 12488, "##se": 3366, "##il": 4014, "vowed": 18152, "##ay": 4710, "cabins": 20321, "gibson": 9406, "ghent": 24202, "mermaid": 22322, "fay": 23201, "temperature": 4860, "##ese": 6810, "believing": 8929, "importantly": 14780, "##verted": 26686, "1833": 11040, "secluded": 27044, "wales": 3575, "galaxies": 21706, "##wala": 23877, "arrests": 17615, "karachi": 15381, "##train": 23654, "##iful": 18424, "##相": 30445, "inputs": 20407, "europa": 12124, "armand": 20371, "turmoil": 17930, "makers": 11153, "rosenthal": 29062, "mani": 23624, "thereby": 8558, "tallinn": 21169, "pleas": 22512, "releases": 7085, "126": 14010, "calculation": 17208, "ʎ": 1135, "1940s": 7675, "intimate": 10305, "walls": 3681, "##mu": 12274, "##ucci": 16835, "scribe": 27789, "slade": 18048, "hereditary": 14800, "berber": 27514, "tortricidae": 27683, "[unused655]": 660, "bowls": 15220, "breathless": 16701, "comply": 14037, "performances": 4616, "##bians": 26376, "albeit": 12167, "g": 1043, "assigned": 4137, "cost": 3465, "applause": 20737, "russian": 2845, "biological": 6897, "gnome": 25781, "ₛ": 1570, "407": 28941, "slash": 18296, "train": 3345, "cinnamon": 21229, "enters": 8039, "indianapolis": 9506, "mixed": 3816, "269": 25717, "1950s": 4856, "youths": 19634, "muir": 23110, "kept": 2921, "u2": 23343, "architecture": 4294, "asian": 4004, "bones": 5944, "followed": 2628, "organizes": 22013, "squad": 4686, "sweat": 7518, "##lding": 24573, "valve": 10764, "##ius": 4173, "##rk": 8024, "djs": 23837, "jersey": 3933, "##hear": 26560, "jack": 2990, "paisley": 23321, "scandals": 29609, "surrounds": 20626, "westminster": 9434, "nanny": 19174, "sale": 5096, "##asa": 16782, "prakash": 22233, "springfield": 10493, "furnished": 19851, "provides": 3640, "lattice": 17779, "outburst": 27719, "##zai": 25290, "[unused169]": 174, "[unused470]": 475, "encoded": 12359, "forcefully": 23097, "tidy": 29369, "##cial": 13247, "##atable": 27892, "##zzling": 20838, "injuring": 22736, "memorials": 22899, "report": 3189, "tuck": 18029, "assigns": 24022, "##icus": 14239, "marvelous": 28851, "border": 3675, "broadcasts": 8960, "pp": 4903, "yeomanry": 26883, "fixing": 15887, "«": 1077, "judged": 13224, "##cloth": 23095, "36": 4029, "氷": 1895, "nt": 23961, "##δ": 29722, "##باد": 25799, "dna": 6064, "bass": 3321, "nomadic": 21702, "二": 1752, "algorithms": 13792, "1865": 6725, "koln": 28306, "[unused76]": 77, "privatization": 23966, "##chang": 22305, "theo": 14833, "upright": 10051, "controversy": 6704, "description": 6412, "295": 21679, "property": 3200, "stakes": 7533, "##ately": 28239, "talking": 3331, "##oja": 22918, "1895": 6301, "attention": 3086, "exclusive": 7262, "almighty": 26668, "disciplines": 12736, "starr": 14330, "##ginal": 24965, "##ta": 2696, "##ndra": 17670, "administratively": 23710, "buckinghamshire": 21712, "stung": 19280, "exited": 15284, "inherit": 22490, "##ction": 7542, "##⟨": 30155, "[unused243]": 248, "evenings": 16241, "prompting": 15870, "watt": 15231, "hannah": 8410, "theologians": 29013, "ve": 2310, "bb": 22861, "newman": 10625, "commitments": 17786, "##lies": 11983, "balanced": 12042, "susan": 6294, "advantages": 12637, "##dun": 27584, "¢": 1068, "##stick": 21354, "defect": 21262, "offshore": 12195, "solitude": 22560, "##ap": 9331, "departed": 7745, "##55": 24087, "##lav": 14973, "##oids": 17086, "forecast": 19939, "[unused428]": 433, "chico": 22136, "brianna": 25558, "brackets": 19719, "serves": 4240, "she": 2016, "rumbled": 22257, "##code": 16044, "riddle": 21834, "rayon": 26810, "visitors": 5731, "conclusion": 7091, "智": 1869, "sleek": 21185, "periodicals": 21855, "somerville": 27209, "footing": 22849, "bottle": 5835, "caroline": 7981, "guangdong": 21287, "##დ": 29977, "canonical": 18562, "lobe": 21833, "##js": 22578, "economies": 18730, "laps": 10876, "##dha": 17516, "##raj": 14220, "cooper": 6201, "rollins": 23502, "##may": 27871, "sprang": 15627, "subfamily": 10946, "broad": 5041, "spirits": 8633, "monterey": 19860, "##cca": 16665, "camp": 3409, "1699": 28718, "##ulator": 20350, "logo": 8154, "sharon": 10666, "spider": 6804, "田": 1911, "overs": 15849, "##ested": 17944, "donations": 11440, "picked": 3856, "estadio": 14143, "##zer": 6290, "fe": 10768, "##chfield": 22693, "opponent": 7116, "turnout": 15512, "##cting": 11873, "julie": 7628, "##inking": 29377, "##abi": 28518, "artificial": 7976, "ratings": 8599, "livingstone": 27656, "safeguard": 28805, "■": 1617, "##cao": 20808, "##ttering": 19567, "austrian": 6161, "mysteriously": 29239, "##ان": 18511, "skaters": 24789, "##lum": 12942, "##書": 30397, "##arion": 27548, "ked": 16135, "lim": 18525, "redwood": 27552, "stairwell": 22109, "wizard": 10276, "1985": 3106, "143": 16065, "contra": 24528, "pressures": 15399, "conductors": 23396, "strikes": 9326, "holes": 8198, "duval": 23929, "qaeda": 18659, "instruction": 7899, "separated": 5459, "eyre": 26975, "floods": 14295, "ュ": 1729, "##iot": 25185, "##lty": 24228, "##ooping": 29046, "hindu": 7560, "response": 3433, "ski": 8301, "hamid": 24811, "wehrmacht": 23443, "龸": 1983, "confusion": 6724, "kill": 3102, "stayed": 4370, "target": 4539, "##tour": 21163, "onion": 20949, "reasoned": 24557, "rhapsody": 29395, "maha": 24404, "mesh": 20437, "nothin": 24218, "botswana": 19414, "veteran": 8003, "vr": 27830, "fiddle": 15888, "南": 1785, "##ntine": 26730, "increasingly": 6233, "beard": 10154, "introductions": 25795, "hazard": 15559, "lagoon": 15825, "recommends": 26021, "##宗": 30347, "##mable": 24088, "bancroft": 29351, "watered": 27129, "gleam": 24693, "smack": 21526, "reflect": 8339, "##fa": 7011, "bad": 2919, "padma": 23731, "zhejiang": 26805, "##zman": 24340, "amazingly": 29350, "italia": 13052, "##itated": 15198, "manufactures": 22027, "fair": 4189, "atlanta": 5865, "concern": 5142, "distributions": 20611, "black": 2304, "₄": 1551, "ruthless": 18101, "##ₕ": 30093, "regulars": 24945, "##etti": 18319, "conquer": 16152, "reassured": 26350, "preference": 12157, "##‖": 30054, "2000s": 8876, "performer": 9256, "having": 2383, "mcqueen": 29265, "tenderly": 26596, "##hee": 21030, "huang": 15469, "##ₘ": 30096, "gospels": 24131, "rushes": 18545, "strung": 23509, "##ony": 16585, "doorbell": 25422, "[unused934]": 939, "ik": 20912, "maxwell": 10691, "##idon": 28201, "##kins": 14322, "beck": 10272, "erased": 23516, "irresistible": 27149, "transcribed": 26223, "##imated": 20592, "gunn": 22079, "crescent": 13152, "barton": 12975, "evening": 3944, "feminist": 10469, "##vin": 6371, "influx": 18050, "veins": 9607, "bouts": 23666, "imposing": 16625, "murderous": 25303, "neurological": 23130, "handcuffs": 28338, "lang": 11374, "iain": 24486, "parry": 20803, "##physical": 23302, "loans": 10940, "financial": 3361, "1902": 5774, "designer": 5859, "transaction": 12598, "soundtracks": 24245, "##nington": 23155, "omitted": 16647, "beirut": 15335, "##த": 29921, "dread": 14436, "superhuman": 27061, "あ": 1646, "libertadores": 27968, "constituency": 5540, "294": 28135, "285": 21777, "aching": 14750, "alligator": 28833, "chopra": 28826, "hyderabad": 13624, "massimo": 28080, "est": 9765, "spokesperson": 15974, "lambert": 12838, "ops": 23092, "espana": 20678, "sweeping": 12720, "##ostal": 29381, "address": 4769, "shelf": 11142, "threats": 8767, "##atics": 17592, "beale": 28371, "##ף": 29806, "discreet": 29321, "aug": 15476, "chin": 5413, "louis": 3434, "14": 2403, "##rrier": 27051, "marlins": 27055, "##lus": 7393, "anthony": 4938, "##ᄏ": 30002, "on": 2006, "##kra": 22272, "475": 28245, "[unused654]": 659, "[unused800]": 805, "clint": 16235, "hopkins": 10239, "graduates": 10845, "1843": 10075, "allied": 6035, "bilbao": 25427, "tapped": 10410, "refined": 15514, "28": 2654, "subterranean": 28811, "##mined": 25089, "enter": 4607, "abandon": 10824, "madras": 12993, "tobacco": 9098, "##isman": 20257, "trams": 19216, "wizards": 16657, "working": 2551, "town": 2237, "teacher": 3836, "[unused205]": 210, "embarrassing": 16436, "embrace": 9979, "1859": 8165, "##drive": 23663, "1623": 29056, "exchanged": 10573, "lark": 23404, "genuinely": 15958, "baja": 19497, "##nction": 27989, "sebastien": 28328, "rupert": 14641, "##ku": 5283, "05": 5709, "concealed": 14091, "optional": 11887, "major": 2350, "blind": 6397, "politely": 16954, "##外": 30335, "steadily": 11328, "##izes": 10057, "##tenberg": 21806, "postseason": 17525, "pandit": 29331, "acknowledges": 28049, "##falls": 28067, "tells": 4136, "miguel": 8374, "easter": 10957, "##hair": 26227, "operated": 3498, "ordination": 18129, "plucked": 20780, "將": 1828, "##borg": 11755, "##ley": 3051, "forks": 19896, "rooftop": 23308, "senses": 9456, "school": 2082, "referee": 5330, "##head": 4974, "##n": 2078, "kinase": 21903, "our": 2256, "representation": 6630, "##kus": 22332, "shielding": 25553, "consort": 13440, "paraguay": 13884, "##7th": 27506, "konstantin": 23989, "##fly": 14151, "##abe": 16336, "ngo": 17895, "clinched": 18311, "harpsichord": 26504, "canine": 28735, "reactive": 22643, "bert": 14324, "[unused37]": 38, "carefully": 5362, "projecting": 18398, "qb": 26171, "barren": 20225, "waitress": 13877, "##sar": 10286, "##hi": 4048, "twist": 9792, "copper": 6967, "crazy": 4689, "森": 1882, "destroyed": 3908, "borneo": 15688, "##imov": 25299, "##lmer": 23398, "[unused632]": 637, "r": 1054, "##iens": 24836, "beforehand": 25828, "##cle": 14321, "peasants": 13193, "administrator": 8911, "various": 2536, "##lta": 24458, "deficit": 15074, "buildings": 3121, "nominate": 23388, "genus": 3562, "ethics": 9615, "reproductive": 15124, "##pate": 17585, "##定": 30348, "destroy": 6033, "1629": 27882, "wonderful": 6919, "criminal": 4735, "fc": 4429, "##ality": 23732, "nightly": 22390, "ranged": 15844, "produces": 7137, "winced": 15574, "toll": 9565, "honor": 3932, "##rricular": 21231, "linebacker": 15674, "238": 22030, "five": 2274, "chuckled": 10252, "community": 2451, "##powered": 27267, "databases": 17881, "makes": 3084, "revelation": 11449, "thrusting": 21468, "|": 1064, "meter": 8316, "frankenstein": 22478, "campground": 29144, "presley": 17229, "beau": 17935, "fries": 22201, "shoots": 11758, "titan": 16537, "##dh": 16425, "##ead": 13775, "##mp": 8737, "knowles": 22815, "hilbert": 27434, "##ats": 11149, "checkpoint": 26520, "nonetheless": 9690, "##र": 29869, "##ana": 5162, "##fast": 24333, "very": 2200, "##]": 29636, "laboratories": 12030, "reservoirs": 22535, "turin": 13667, "##q": 4160, "##₈": 30084, "buren": 29470, "bel": 19337, "concerts": 6759, "engaging": 11973, "[unused441]": 446, "two": 2048, "examine": 11628, "prism": 26113, "muted": 22124, "stance": 11032, "stubborn": 14205, "1760": 19096, "bassett": 28303, "gems": 20296, "drummer": 7101, "medial": 23828, "attach": 22476, "##gical": 26715, "simpsons": 19047, "sit": 4133, "browne": 15005, "wakes": 17507, "completed": 2949, "alcohol": 6544, "butterfly": 9112, "##amp": 16613, "##nr": 16118, "[unused528]": 533, "endeavour": 26911, "##rle": 20927, "americas": 10925, "asturias": 26798, "##ann": 11639, "facts": 8866, "##dee": 26095, "greene": 11006, "##enter": 29110, "shareholders": 15337, "gulp": 26546, "代": 1760, "mac": 6097, "sabres": 26969, "thicker": 19638, "1656": 28434, "##makers": 12088, "[unused179]": 184, "accurate": 8321, "deal": 3066, "ი": 1445, "##tale": 22059, "refrain": 20703, "##tri": 18886, "marxist": 15511, "blessing": 13301, "restrained": 19868, "bend": 8815, "##cent": 13013, "##pta": 22799, "rios": 25836, "graph": 10629, "[unused770]": 775, "tumor": 13656, "du": 4241, "offering": 5378, "##ish": 4509, "ligand": 27854, "use": 2224, "economics": 5543, "click": 11562, "filippo": 28669, "shoulder": 3244, "sardinia": 21594, "sneak": 13583, "roger": 5074, "##sies": 14625, "##oric": 29180, "##nai": 26416, "endings": 21306, "digit": 15340, "mandal": 24373, "fest": 17037, "1893": 6489, "ր": 1237, "[unused823]": 828, "##aly": 20766, "cbe": 15852, "monstrous": 21668, "##ʰ": 29706, "yahoo": 20643, "productions": 5453, "instances": 12107, "外": 1809, "dolphins": 13600, "lucky": 5341, "referenced": 14964, "aliens": 12114, "ʰ": 1140, "1910": 4976, "ed": 3968, "neck": 3300, "##aia": 27131, "##roved": 26251, "careless": 23358, "euclidean": 25826, "funk": 11962, "36th": 21460, "gateway": 11909, "pew": 29071, "servants": 8858, "ق": 1292, "hoop": 27669, "replace": 5672, "[unused176]": 181, "honey": 6861, "pastry": 27060, "##ˡ": 29716, "francs": 24313, "##nberg": 11144, "[unused585]": 590, "graduate": 4619, "##ration": 8156, "nightstand": 23135, "ezekiel": 28743, "מ": 1255, "stack": 9991, "##yo": 7677, "262": 21950, "attacker": 17346, "leaned": 4016, "nest": 9089, "[unused94]": 95, "oppression": 20489, "knox": 11994, "##posed": 19155, "forced": 3140, "##rem": 28578, "commemorate": 13415, "chicken": 7975, "hired": 5086, "##sitor": 28307, "down": 2091, "haired": 10681, "zeus": 15208, "mcintyre": 24564, "cavalry": 5945, "indices": 29299, "strap": 16195, "##rank": 26763, "ᄐ": 1467, "##quin": 12519, "invites": 18675, "arlington": 13929, "pmid": 20117, "inception": 12149, "salem": 10389, "hearing": 4994, "nausea": 19029, "scheduling": 19940, "「": 1641, "bogota": 21240, "fisheries": 13424, "crook": 19302, "herzegovina": 11453, "##rka": 22379, "ambitions": 19509, "hesitate": 16390, "papacy": 25097, "snooker": 26448, "##unas": 23904, "pastor": 9220, "ц": 1201, "utilize": 16462, "outfielder": 21033, "preparatory": 13485, "observatory": 9970, "geoffrey": 11023, "##rgh": 27172, "##finger": 20349, "[unused18]": 19, "dolly": 19958, "sherlock": 20052, "unhappy": 12511, "whispering": 13550, "indictment": 24265, "bless": 19994, "nations": 3741, "volumes": 6702, "##clave": 23650, "worrying": 15366, "##大": 30336, "dion": 19542, "nz": 20008, "broken": 3714, "1711": 28455, "puck": 22900, "believed": 3373, "volunteered": 14382, "1751": 24440, "jesus": 4441, "logs": 15664, "pursed": 21954, "filtering": 22910, "planner": 24555, "stays": 12237, "complaining": 17949, "rd": 16428, "##straße": 24967, "iris": 11173, "fluctuations": 28892, "occupies": 14133, "maintaining": 8498, "osborne": 16732, "nissan": 16509, "dumped": 14019, "reflex": 22259, "impossible": 5263, "##pio": 22071, "##zation": 9276, "##roud": 21332, "·": 1087, "##mund": 25574, "##vb": 26493, "travels": 7930, "##bon": 11735, "degradation": 16627, "biennial": 20313, "sung": 7042, "obe": 15578, "dresden": 12983, "intermediate": 7783, "specifically": 4919, "contacted": 11925, "lucrative": 21115, "jocelyn": 23786, "##itive": 13043, "##tara": 27115, "patented": 16719, "spheres": 19885, "restrict": 21573, "trek": 10313, "stick": 6293, "##ente": 15781, "vita": 19300, "renaissance": 8028, "illegal": 6206, "parkinson": 20310, "eclipse": 13232, "crouched": 14275, "dietary": 23444, "overwhelmingly": 24783, "unease": 27880, "ballroom": 14307, "requiem": 21199, "##nl": 20554, "##mata": 21022, "burials": 23109, "emperor": 3750, "lots": 7167, "nelly": 29498, "carpet": 10135, "scream": 6978, "jenks": 15119, "miner": 18594, "dominated": 6817, "##genase": 28835, "門": 1968, "block": 3796, "bucket": 13610, "charter": 6111, "competing": 6637, "stir": 16130, "climates": 24734, "mcgill": 17919, "buckled": 26368, "frowned": 7335, "debra": 28762, "same": 2168, "tibet": 13319, "chun": 20979, "##efe": 27235, "[unused860]": 865, "cora": 17195, "curriculum": 8882, "siding": 17326, "ல": 1392, "pamphlets": 24752, "traced": 9551, "summon": 18654, "carries": 7883, "##ය": 29940, "##₱": 30103, "delta": 7160, "judges": 6794, "straightened": 11168, "##wee": 28394, "beliefs": 9029, "tingling": 23690, "##color": 18717, "businesses": 5661, "fingernails": 21243, "demonstrated": 7645, "mitchell": 6395, "barn": 8659, "smoothing": 27045, "guarded": 13802, "kgb": 25467, "freddy": 19343, "redskins": 17461, "##¡": 29644, "lightweight": 12038, "accidentally": 9554, "pathetic": 17203, "extinction": 14446, "ripped": 9157, "meadows": 13524, "bursts": 19239, "overseen": 22485, "introduced": 3107, "implemented": 7528, "##rama": 14672, "##∆": 30122, "numerous": 3365, "##の": 30197, "spouse": 18591, "even": 2130, "spencer": 7084, "kannada": 13873, "##hyllum": 27750, "##ntino": 25318, "ness": 23384, "diner": 15736, "hk": 22563, "##gins": 16529, "ego": 13059, "fur": 6519, "##ph": 8458, "lodged": 20451, "[unused574]": 579, "klaus": 16536, "1793": 12387, "##rner": 18703, "manifesto": 17124, "##ト": 30240, "sw": 25430, "##inen": 21820, "investigates": 28062, "##nier": 14862, "##ami": 10631, "frown": 11330, "pea": 26034, "jacob": 6213, "neighbors": 10638, "##ys": 7274, "##guard": 18405, "numbered": 8597, "bradford": 9999, "sin": 8254, "##piece": 11198, "mahmoud": 27278, "basic": 3937, "mclaughlin": 23720, "40": 2871, "##20": 11387, "status": 3570, "wraps": 19735, "deals": 9144, "freed": 10650, "voiced": 6126, "grabs": 13273, "##hom": 23393, "stewart": 5954, "dig": 10667, "bloomberg": 22950, "vernacular": 18485, "economic": 3171, "relaxed": 8363, "header": 20346, "##mm": 7382, "statistical": 7778, "##原": 30313, "serena": 14419, "wind": 3612, "adobe": 18106, "adapt": 15581, "##americana": 27026, "sneered": 28098, "inconsistent": 20316, "pointedly": 28713, "1995": 2786, "falls": 4212, "incredibly": 11757, "##meter": 22828, "tomato": 20856, "##dad": 14697, "sesame": 23605, "fiona": 13073, "thirties": 26313, "sprawled": 21212, "109": 11518, "priest": 5011, "##fk": 24316, "adaptive": 19293, "清": 1903, "sahib": 23513, "##hold": 12640, "）": 1988, "##ino": 5740, "deciduous": 22411, "intel": 13420, "jurgen": 23171, "athens": 7571, "curve": 7774, "##bone": 14417, "##gart": 27378, "pepsi": 27237, "laszlo": 28226, "floated": 13715, "!": 999, "城": 1804, "ridley": 20608, "doctors": 7435, "橋": 1885, "##hp": 22269, "131": 14677, "abrams": 23063, "cortex": 17132, "prayed": 14283, "completing": 7678, "ballistic": 19630, "diaz": 12526, "##skin": 29334, "##g": 2290, "af": 21358, "plain": 5810, "1813": 12169, "##tius": 22638, "porn": 22555, "enclave": 25867, "##₍": 30087, "pride": 6620, "replacement": 6110, "gladly": 24986, "##ـ": 29832, "choral": 14564, "collegiate": 9234, "freaks": 29526, "spanned": 18212, "usa": 3915, "yucatan": 28631, "##tler": 25091, "revive": 17995, "##icide": 21752, "scoffed": 26326, "comprehend": 22346, "##iard": 14619, "depart": 18280, "##ης": 29155, "nhl": 7097, "ð": 1098, "cursing": 19752, "beyonce": 20773, "woodrow": 23954, "nasty": 11808, "promo": 19430, "sutra": 26567, "[unused817]": 822, "dissemination": 28170, "solving": 13729, "##vy": 10736, "winkler": 20472, "workings": 24884, "vh1": 26365, "valor": 27314, "⇄": 1589, "march": 2233,
[...]
